#version: 0.2 - Trained by `huggingface/tokenizers`
Ġ t
h e
Ġ a
i n
Ġ s
Ġ w
Ġt he
r e
o u
Ġ h
e d
o n
in g
e r
a r
n d
Ġ b
Ġ f
Ġ o
Ġ H
a t
Ġt o
i s
Ġ Ġ
i t
Ġ c
a s
o r
l l
i d
Ġ he
Ġ d
e n
Ġ m
Ġ l
Ġa nd
Ġt h
Ġo f
r y
Ġ p
e s
č Ċ
Ġh a
Ġ g
Ġ in
a n
Ġ n
l e
ar ry
o w
Ġs a
l y
Ġ I
Ġ y
o t
o m
ĠH arry
Ġw as
Ġb e
g h
Ġsa id
Ġ e
a c
Ġy ou
' s
l d
Ġh is
i m
u s
v e
Ġs t
Ġ it
o o
Ġ on
e t
i c
v er
i on
Ġw h
r o
i r
Ġ M
Ġha d
Ġ S
Ġ T
Ġth at
u t
gh t
Ġw e
Ġ W
ou t
en t
Ġ D
a d
Ġa s
Ġa t
Ġ u
Ġ re
u r
a l
o re
Ġh im
s e
a g
Ġ R
s t
r i
' t
Ġw it
k e
Ġ .
Ġ čĊ
c h
Ġ A
ou ld
oo k
a y
Ġwit h
re d
Ġa n
Ġ P
Ġf or
Ġs e
a m
he r
u m
t er
p p
a ll
Ġn ot
ĠR on
i ll
ac k
r ou
ar d
ĠT he
Ġs h
l ed
Ġ k
er m
ĠH e
p e
Ġl ook
Ġhe r
Ġ B
a in
e m
Ġu p
erm ion
Ġf r
ermion e
Ġd o
i ght
ĠH ermione
Ġthe y
Ġ out
es s
Ġ G
c e
u n
Ġ C
in d
g e
Ġwe re
Ġm e
Ġn e
Ġk n
Ġthe m
Ġb ut
a nd
Ġ Y
Ġ r
t ed
i l
Ġf e
Ġ F
Ġa ll
a k
i f
t o
Ġs he
Ġha ve
ĠW e
Ġfr om
Ġ j
Ġ L
um b
h ing
Ġg o
us t
Ġ N
c k
om e
ver y
Ġs o
oo d
Ġw he
he d
as t
on e
b le
l o
Ġb ack
Ġl i
q u
umb led
or t
Ġin to
id e
ow n
Ġd id
Ġwh at
Ġwh o
umbled ore
Ġc ould
Ġ v
Ġ is
u d
an t
ar t
rou nd
Ġbe en
Ġth ou
r id
ĠD umbledore
Ġl e
Ġe x
Ġa b
in k
ou r
Ġ O
Ġn o
l f
is t
Ġa g
r a
Ġ ro
ic e
Ġa l
ou s
c t
on g
Ġd e
u l
f f
Ġth is
ac e
Ġt e
Ġo ver
er s
o y
ĠY ou
Ġthe re
Ġw ould
s s
ĠW h
k ed
le y
Ġs u
i g
Ġkn ow
Ġp o
n a
e p
Ġthe ir
Ġc h
Ġd own
Ġab out
Ġof f
o ld
Ġan y
ĠI t
t her
Ġli ke
ĠĠ Ġ
Ġon e
v en
i z
Ġag ain
w ay
Ġs p
Ġlook ed
ur n
Ġ qu
Ġ E
Ġn ow
Ġc on
t ing
e l
ic k
Ġ us
Ġyou r
Ġha nd
Ġu n
i e
Ġb y
as s
Ġe y
Ġa round
o p
im e
all y
u ll
Ġb l
Ġ V
ĠP ro
a re
Ġw or
' ve
Ġj ust
Ġth ink
Ġy e
Ġg ot
f ess
Ġthe n
e red
Ġc an
ĠM r
ar k
Ġto o
fess or
Ġs c
ag rid
Ġ if
ri ght
a ke
Ġa re
Ġse e
Ġ '
es t
Ġg et
w ard
re at
Ġp l
Ġwhe n
Ġc l
ĠH agrid
Ġm ore
Ġ very
Ġs l
Ġm y
a p
Ġo r
ĠPro fessor
' re
Ġw and
b b
u p
na pe
Ġhe ad
Ġm o
am e
Ġthou gh
i ve
H arry
Ġc om
ĠT h
o g
' ll
at e
se lf
Ġt w
ĠS nape
Ġlook ing
Ġt ime
Ġs m
an g
as ley
' d
Ġh ow
T he
ou nd
pp ed
ĠWe asley
Ġdo or
Ġst ill
Ġv o
rou gh
v ed
Ġt r
Ġ K
on d
at ion
Ġey es
a red
or n
Ġd on
Ġf ace
ĠB ut
Ġth an
v ing
Ġg l
ĠA nd
Ġt urn
Ġs ome
a ir
i us
Ġth rough
ic h
ĠWh at
f ore
Ġ right
Ġa r
it e
nd er
at h
u re
i ly
Ġo ther
Ġg r
Ġgo ing
Ġvo ice
a u
Ġse em
in n
al f
p t
g g
t le
Ġwh ich
a ve
i ous
ĠP ot
en ed
Ġs w
re e
Ġf l
Ġsa y
i re
Ġthou ght
Ġbe fore
Ġ U
ot her
' m
l ing
Ġe very
a us
f ter
o l
alf oy
Ġdid n
Ġm an
ar s
Ġc lo
om et
Ġ en
Ġw ill
a ble
Ġro om
w n
Ġhe re
ar ing
ĠThe y
c hed
Ġo p
id d
ĠM alfoy
ak ing
ad e
a b
Ġl ong
f t
o d
or m
Ġp re
i le
Ġon ly
Ġ im
s ide
em ort
Ġw at
old emort
Ġp e
k ing
Ġsa w
t h
Ġs omet
t s
ĠV oldemort
Ġwhe re
Ġte ll
Ġd is
Ġu nder
ĠĠ ĠĠ
Ġkn e
Ġw ant
Ġha pp
ĠPot ter
Ġbe h
ĠS ir
Ġa fter
Ġw ay
Ġbe c
r ow
ag e
ri ed
at her
Ġ ke
iz ard
s ed
Ġl o
v es
Ġm u
Ġl et
ĠS he
m ent
Ġa pp
ĠD e
Ġl it
Ġa way
Ġseem ed
t e
t hing
Ġhim self
Ġsomet hing
Ġf ir
Ġbe t
Ġe ven
Ġbeh ind
Ġre m
Ġas ked
aus e
Ġs pe
Ġb r
ĠSir ius
ĠWe ll
m b
e ct
Ġto ld
Ġne ver
Ġturn ed
at ed
Ġc ome
k s
Ġto ward
l t
Ġl ast
Ġp ro
Ġth ing
ĠH og
ĠN e
Ġa c
Ġpo in
ĠC h
ĠN o
ac t
ag ic
Ġm om
Ġmom ent
Ġt ry
an ce
Ġmu ch
in e
ac h
oo l
o ll
Ġkne w
d d
ĠThe re
Ġsh ould
u e
u ff
H e
i ed
re ss
ch ing
op le
er ing
Ġon ce
or d
Ġlit tle
Ġs il
Ġfir st
Ġtw o
Ġm ade
Ġse c
art s
r u
f ul
Ġhe ard
Ġh as
e ver
Ġle ft
Ġp r
ĠM in
od y
Ġb ot
p ed
on t
n t
as e
Ġw a
l es
Ġg ood
Ġfe lt
is h
Ġd es
Ġw izard
Ġwe ll
ĠO h
Ġpe ople
w arts
ĠF red
ow ed
Ġcon t
b er
Ġre ally
ĠHog warts
Ġh o
Ġit s
Ġd ark
ad y
Ġp ull
Ġf lo
Ġm ight
ro ss
Ġar m
p le
i es
ĠMr s
ud d
Ġt al
Ġat t
o se
ro om
Ġs n
o ck
it ch
ion s
Ġw al
or y
ri e
ill e
or s
l ess
Ġne ed
up in
ou gh
inn y
x t
Ġa m
Ġfr ont
Ġfe el
Ġd r
he n
p er
ĠM c
Ġw ind
Ġe ver
Ġsu re
it y
Q u
is e
Ġc he
Ġo ld
a h
ou se
Ġop en
ĠD o
ĠG e
ar ly
Ġm ust
or ge
ĠL upin
Ġbec ause
ou d
v ille
Ġ Qu
o st
Ġc ame
Ġme an
ar ge
ĠGe orge
ar m
un g
Ġim p
m e
c ed
ĠG inny
Ġfe et
ig n
u ck
Ġp ut
en ce
Ġh ur
c y
re am
Ġ ent
on s
Ġp ass
Ġo wn
Ġc r
ĠI n
Ġbe l
. .
Ġ J
ĠNe ville
G on
Gon ag
e ll
Gonag all
p l
Ġc le
Ġe nd
un n
Ġs ur
re w
Ġtoo k
Ġf ind
Ġt er
Ġg reat
ĠMc Gonagall
an ted
Ġd ay
our se
ĠB l
Ġb it
he re
Ġb ed
is ed
Ġany thing
Ġst and
Ġh ard
Ġfe w
Ġt ake
Ġhe l
Ġsu pp
Ġm ake
ĠS t
Ġt able
at er
Ġtry ing
ch ool
is hed
Ġg i
ĠTh at
Ġl ight
Ġw r
ent s
u gg
Ġe l
Ġflo or
ry ff
ryff ind
an k
Ġsec ond
Ġw ent
he s
er n
if f
ĠG ryffind
Ġwor d
Ġan other
Ġs ide
rid ge
Ġke ep
Ġc ur
Ġne xt
Ġhand s
ĠH ow
Ġn ight
Ġbl ack
Ġin side
o ot
Ġs chool
b e
Ġne w
o ve
Ġwh ile
Ġb oy
Ġl arge
Ġs ound
ull y
i et
Ġc all
ĠS o
Ġr a
ious ly
Ġth ree
c le
Ġf ound
Ġe m
Ġwh is
t ered
b ody
mb ridge
Ġl au
ĠY e
Ġwind ow
Ġs it
e e
Ġp er
a z
ac her
Ġl oud
Ġha ir
g et
Ġs et
Ġh ouse
Ġc ourse
ar y
ĠDe ath
i p
Ġre t
iz ed
Ġse en
ist ry
em ent
a pp
Ġnot hing
Ġg ave
Ġst r
Ġg round
ĠI f
ĠU mbridge
Ġwh y
ĠY es
t y
Ġhel p
Ġhe ar
i ld
Ġs k
Ġst ood
i x
ĠGryffind or
a il
Ġha lf
ĠMin istry
e en
Ġf in
a w
Ġre al
udd en
at ing
Ġj o
n e
is s
Ġpull ed
i gh
Ġa ir
air s
Ġb ook
Ġ our
Ġm at
Ġs udden
Ġw all
ight ly
Ġup on
Ġl if
n ess
Ġsh out
ood y
Ġs at
Ġw anted
ac hed
ow er
a v
Ġac ross
o s
Ġc ast
ll ed
Ġye ar
an s
Ġbe g
bb y
Ġf ire
Ġbe ing
ĠU n
Ġfe ll
Ġqu ick
Ġe ach
Ġs qu
Ġpl ace
way s
Ġwa it
ĠYe ah
ĠM ad
Ġmo st
Ġbot h
n g
Ġwas n
Ġst ud
um p
i ble
un t
ing s
Ġwith out
l in
Ġm ind
ent ly
Ġf oll
Ġc or
Ġdo es
. '
Ġd one
ud ge
Ġal ong
Ġcould n
Ġqu iet
Ġm agic
ĠD ark
Ġsm all
Ġye ars
Ġcl ass
Ġhapp ened
is ter
ĠA n
ĠP er
Ġqu ite
i b
Ġagain st
Ġm out
Ġan g
f ully
en ing
ĠM ugg
Ġp le
Ġdo ing
Ġbet ter
ar ted
Ġc are
ĠWh o
as ter
rie nd
ow ing
c ted
r ic
Ġun t
ern on
Ġb reat
ĠThe n
pe red
il ing
l u
ĠV ernon
Ġen ough
Ġel se
y ing
Ġst e
Ġex pe
ĠH is
Ġf am
ĠĠ ĠčĊ
Ġm in
Ġg re
b es
t en
Ġey e
Ġk ill
ĠA r
Ġmout h
Ġh old
Ġl ess
Ġm ut
am p
ĠM agic
ur s
t ain
re ady
ĠM oody
Ġapp e
Ġo b
Ġc au
Ġre s
ĠP et
i a
re t
Ġgo ld
ĠN ot
Ġro bes
Ġal ready
Ġrem em
ar n
ly ther
u nd
Ġwal ked
lyther in
p r
Ġst aring
a wn
Ġp art
Ġp ast
Ġf riend
ĠS lytherin
Ġbel ie
re ak
Ġb o
in ed
ĠM y
Ġre ad
Ġd iff
Ġre st
Ġfor ward
idd le
in ce
e y
ĠH all
Ġth ose
s h
Ġto p
Ġr ather
Ġg one
l i
Ġt re
ang er
w een
ab ly
pp ing
ĠB e
ĠDo bby
Ġret urn
Ġw on
Ġwhis pered
ain ed
Ġbet ween
f orm
ĠA ll
Ġin st
Ġs na
Ġgl ass
Ġstand ing
Ġsudden ly
p h
en se
Ġg ive
Ġsc ar
Ġthe se
Ġin c
g ed
ĠTh is
dd ed
ĠUn cle
Ġc ar
ud ley
Ġunt il
Ġclo se
Ġbeg an
Ġf ull
Ġc old
ĠG r
Ġman y
Ġl ist
Ġop ened
m ost
Ġre c
ĠF udge
Ġt ried
an ge
w l
ĠA s
Ġy et
Ġb ro
Ġon to
en s
Ġst o
Ġsl ightly
Ġsit ting
Ġmin ut
it her
Ġw ond
Ġc ou
idd itch
o ke
Ġthing s
Ġquick ly
Ġd ro
Ġra ised
Ġf ore
Ġb ad
Ġd ist
ĠQu idditch
Ġsa me
gh orn
Ġh or
Ġoff ice
Ġtal king
Ġst art
ĠBl ack
Ġcor rid
Ġre ached
ĠWh y
ir l
lu ghorn
c c
am es
ĠL ord
Ġde ep
Ġst arted
Ġa d
ent ion
ul t
Ġcom m
ĠD udley
Ġcast le
Ġwould n
The y
Ġa ble
Ġf our
ĠS e
Ġunder st
d ay
ak en
ck et
ĠS lughorn
Ġex p
get her
he ad
Ġh igh
ĠPer cy
Ġde ad
ig g
Ġc o
Ġn ame
Ġal ways
Ġsl ow
Ġf ing
Ġshout ed
m ed
Ġp ain
l ves
Ġ ide
ter ing
Ġwor k
Ġcall ed
o sed
Ġf oot
at ers
Ġal most
Ġany one
v is
Ġf ac
Ġl ater
Ġst ra
ĠN ow
Ġcom ing
Ġto gether
Ġm em
Ġus u
Ġus e
d er
er v
Ġf ather
Ġde c
ate ly
Ġin d
Ġye h
Ġdr ag
u red
Ġb es
Ġg irl
e re
r ac
Ġs le
Ġh our
Ġf ur
Ġp ers
Ġb room
Ġg u
Ġsc ream
Ġhow ever
s w
Ġst ared
Ġcont in
Ġf ar
Ġpo ss
Ġfeel ing
ar ch
Ġs ight
Ġo wl
Ġc row
un k
c us
Ġwat ching
Ġcrow d
it ed
ĠE r
ou ght
ĠD on
Ġstud ents
Ġquiet ly
Ġs ign
Ġd et
ĠA l
Ġwho le
ra w
er y
Ġm other
Ġle g
ep s
r on
Ġl ot
ra bb
u ed
Ġv is
ir d
Ġbes ide
ĠE aters
i v
Ġa w
Ġre d
Ġl ow
Ġst op
ĠW hen
or ry
Ġwe e
ap s
Ġlet ter
Ġas k
Ġhe art
un a
Ġstra ight
i led
Ġgre en
re st
Ġm ar
ure s
Ġcau ght
Ġp ic
Ġem pt
Ġc at
ĠS c
Ġout side
Ġevery thing
Ġlif e
um m
Ġevery one
ĠMugg le
Ġide a
an c
Ġan sw
en e
im es
Ġmo ve
Ġke pt
p ly
Ġb est
Ġc orn
Ġwhe ther
Ġis n
Ġword s
it h
Ġsto pped
Ġsay ing
Ġb ur
rou ch
ĠL una
Ġbelie ve
Ġ ri
Ġpass ed
Ġsupp osed
Ġa ct
Ġslow ly
c i
Ġh it
B ut
Ġp ot
Ġget ting
Ġmut tered
Ġy es
Ġho pe
Ġbreat h
Ġde f
Ġh ome
Ġwizard s
Ġs ir
Ġha ven
Ġsome one
Ġs ince
Ġb reak
Ġt aken
ack ed
Ġpl ay
ĠĠ čĊ
f ort
r um
ed ric
Ġsh ort
ĠC rouch
Ġs ort
Ġst ay
Ġwh ite
ri f
Ġsw e
ri ble
Ġclo ak
Ġlau gh
I t
w here
re acher
Ġf all
iz e
j ect
l ight
Ġd i
Ġst one
Ġle ave
Ġno se
Ġmo ved
Ġhold ing
p he
Ġle a
Ġm aking
ag ed
ce pt
urs ley
i er
ĠD ursley
Ġex t
at i
ĠHe ad
Ġqu est
orn ing
Ġunderst and
g ing
ĠS h
ĠK n
ĠMad am
Ġbl ood
Ġdis app
Ġtal k
Ġcorrid or
re l
Ġhad n
Ġb us
ĠK reacher
Ġappe ared
ow s
Ġal one
Ġsil ence
Ġloud ly
Ġempt y
l it
ĠC edric
Ġex c
Ġcom p
Ġminut es
Ġt aking
id ed
id ing
Ġwe aring
in s
Ġshould er
ĠB ill
ĠC lo
Ġte acher
Ġpoin t
u b
Ġin te
ĠR e
il ity
Ġex am
Ġtoward s
Ġha ll
Ġsur pr
Ġpoin ted
ĠA unt
Ġar ri
A nd
Ġm orning
us hed
ĠE x
Ġsil ver
h aps
er tain
Ġarm s
Ġb ag
Ġc e
an ks
ra ve
Ġspe ll
Ġb right
ĠF or
Ġfoll owed
Ġremem ber
m an
Ġd ire
ĠO n
a le
Ġh at
Ġp ower
un ia
ous ly
k en
in y
re ad
Ġe lf
Ġwat ched
Ġpoin ting
b o
f ect
it c
Ġst uff
ic ed
Ġmat ter
Ġk ind
Ġme et
Ġclo sed
Ġs er
Ġf ly
Ġm on
Ġre l
Ġsp ot
Ġac c
r or
Ġin s
an ced
Ġte am
ĠPet unia
Ġ round
Ġf le
Ġother s
ress ion
Ġdes k
ĠClo ak
s o
Ġin ter
ĠF il
Ġch air
act ly
Ġcom ple
as h
ĠW here
Ġse ver
ĠO r
Ġthink ing
Ġhur ried
Ġcomm on
Ġp at
Ġwat er
ĠMin ister
Ġre f
Ġcorn er
Ġf ast
ur ing
se lves
Ġsu ch
Ġsever al
k ay
or c
Ġha ving
ĠR iddle
Ġsh aking
ant ly
ement ors
i red
Ġb ody
ĠF le
Ġdoes n
Ġm is
Ġfam ily
Ġs ent
nd ing
ĠS n
oy le
im b
Ġusu al
s it
Ġm et
Ġm ist
Ġpers on
Ġb u
as hed
ĠD id
v ent
Ġl ay
ver s
Ġse at
Ġspe ak
c l
Ġt en
Ġs orry
ĠC ome
Ġbook s
re y
Ġhe av
Ġth ick
o c
as ed
Ġhe ld
lo ck
Ġus ed
Ġye lled
Ġatt em
arch ment
Ġdire ct
n ts
Ġd anger
Ġg az
ore d
Ġne ar
Ġne ck
Ġwat ch
Ġgi ven
ĠFil ch
Ġ ed
Ġm ay
Ġp archment
ra it
unn ing
Ġf ree
Ġcon f
p s
Ġt rou
Ġwr ong
itc hen
a ven
Ġst re
Ġk itchen
idd en
Ġtell ing
i pped
r ance
s p
Ġpo cket
Ġun c
The re
ĠJ ust
c hes
Ġf ight
ib ility
Ġp ort
Ġex pl
Ġsu b
Ġpr ot
Ġcontin ued
h art
ic ul
ĠT on
ĠG reat
Ġlo st
ry ing
Ġbur st
z e
Ġa dded
Ġs im
Ġm ur
ĠA t
ĠB ag
Ġmo ving
ru gg
ock hart
awn ey
rel awney
Ġf ive
Ġo dd
Ġsa f
Ġv an
ĠK rum
Ġfing ers
s ing
Ġc up
or k
a bb
Ġf act
ĠT relawney
b lin
Ġfor g
Ġsh ut
Ġsm ile
Ġd ou
ac ed
Ġre p
am ing
Ġe ither
ĠB ell
Ġcomple te
S he
Ġd ied
Ġp are
ĠL ook
ove red
Ġansw er
R on
t ail
Ġexpe ct
Ġn umb
Ġr an
Ġex actly
und red
Ġinte rest
ĠTon ks
y ou
ĠĠ ĠĠĠ
Ġthem selves
ing ly
nd ed
Ġd ream
ĠL ockhart
c ase
ri ve
Ġso on
Ġde ar
e ad
in ing
Ġe ars
ĠP r
Ġday s
Ġdiff ere
t om
ru x
rac o
ou n
Ġh undred
Ġb ene
Ġyou ng
orc rux
Ġde ath
rabb e
ĠFle ur
u ally
Ġt iny
Ġl and
es c
Ġsh ar
Ġne arly
Ġr u
Ġreturn ed
ĠH orcrux
Ġbe ll
st er
ĠG ood
ĠF ire
Ġsp oke
ĠE very
Ġpl an
ang ed
Ġpre s
Ġwait ing
ic ally
Ġsh ook
Ġsle ep
Ġport rait
p ing
Ġt ou
Ġst air
Ġwit ch
Ġsh all
Ġkn ock
Ġr un
Ġsna ke
Ġdro pped
Ġab ove
ĠĠĠĠ čĊ
Ġpare nts
ain ing
ĠG oyle
Ġle ast
Ġsp r
ie ld
ĠCh arm
nt ly
ĠBag man
Ġnot iced
Ġno ise
Ġturn ing
Ġdark ness
ĠD raco
ive ly
Ġp ur
Ġst airs
ĠC rabbe
Ġag o
inn ing
ĠDursley s
ĠKn ow
a ff
Ġt ri
Ġg as
Ġre pe
e ak
Ġt imes
Ġst eps
Ġal so
Ġapp ro
Ġw ide
ing ing
um ped
Ġex cept
Ġent ered
Ġgi ant
Ġple ase
a x
b r
Ġl ying
et s
st airs
Ġgo blin
Ġche ck
Ġbene ath
H ermione
Ġf a
Ġcl ut
up id
Ġhur t
Ġgold en
Ġce iling
ro ll
ut h
Ġfin ished
a ld
Ġb urn
Ġc arry
as on
Ġsh ock
ck on
are ly
Ġye ll
Ġc ase
Ġp h
Ġso ft
Ġs us
Ġs ix
Ġn erv
Ġre g
Ġwho se
Ġche st
e ed
Ġw om
ou nt
ent y
ĠL et
Ġdoor s
Ġwr it
Ġmagic al
Ġs umm
Ġe v
am ed
ĠO ne
ap t
ab in
Ġground s
Ġfriend s
Ġlea ving
m as
w ig
Ġc ross
Ġst upid
ro d
Ġ. .
Ġcle ar
u c
Ġne are
Ġpr act
li ke
Ġquest ion
Ġd raw
an ed
ĠDe an
bo ard
Ġtrou ble
r ist
Ġo pp
Ġc oll
Ġth rew
art ment
Ġent rance
o on
in ation
re n
ed wig
Ġm id
ress ed
Ġstair case
E R
Ġt on
is ing
vis ibility
Ġleg s
Ġarri ved
Ġfle w
Ġ esc
Ġa p
Ġf ill
Ġch ance
Ġman aged
ĠCh o
rist mas
Ġglass es
y e
at ri
ag es
st ick
ak es
ĠO f
ie f
rif ied
Ġm ad
ĠI s
ght er
ri ly
Ġlook s
ap er
atri x
Ġ er
Ġt ent
ĠH er
Ġimp ort
Ġpot ion
w o
us h
Ġwindow s
Ġc ent
Ġc reat
Ġe as
ri ll
Ġkn own
Ġr unning
Ġeven ing
Ġmat ch
is hing
al m
Ġsay s
Ġen orm
orm tail
ĠCh ristmas
Ġwall s
g er
ĠH edwig
Ġreal ized
Ġexp ression
Ġs on
Ġp ie
us ed
Ġno body
Ġgl anced
Ġbec ame
Ġper haps
Ġpic t
Ġforg ot
u g
v o
Ġc ertain
Ġe ff
Ġwor ld
Ġtr unk
Ġlong er
Ġpre ss
Ġatt ack
O U
Ġw arn
ic ked
Ġse ized
Ġcl imb
Ġbr other
Ġwom an
Ġh op
Ġo cc
Ġin form
r up
Ġf if
id ent
le t
Ġwith in
Ġme ant
ie w
Ġvan ished
b us
w ork
ĠS ome
Ġre ady
ĠBell atrix
in t
Ġb ar
Ġth r
Ġe ar
og n
b ably
Ġ ve
in ted
Ġcon c
Ġsw ord
Ġwal king
Ġem er
Ġenorm ous
Ġin t
ĠG o
ĠIn visibility
Ġdisapp e
Ġnumb er
s er
Ġl uck
Ġher self
Ġfin ally
k es
Ġf ig
as k
Ġth in
ĠS ever
al s
Ġsh ad
Ġle ad
Ġknow s
Ġpull ing
Ġang ry
Ġsaf e
o om
o ff
Ġc ol
ol t
Ġhapp y
Ġrepe ated
Ġc ut
Ġha ng
Ġin v
ĠW ood
ĠW ormtail
ation s
t ly
Ġw ood
Ġas s
ĠA g
ĠPro phe
Ġwand s
ect ion
Ġkill ed
Ġremem b
Ġlist ening
Ġfly ing
Ġ ign
Ġs un
am us
ink ing
ĠDe f
Ġrec ogn
k ab
z kab
re ly
Ġd ementors
ĠJ ames
unn y
Ġjo b
zkab an
Ġb at
Ġc ir
Ġth ro
pe ct
Ġbl ue
Ġsm iling
Ġtr ain
Ġang rily
ĠAr ts
Ġinst ead
Ġbro ke
Ġbro ken
Ġwee k
ic es
ĠS ee
ĠA re
ĠA zkaban
rou ght
ĠC an
Ġany way
Ġhead s
Ġtr ue
Ġfl at
Ġbel ow
Ġcle arly
Ġton ight
ou l
is on
Ġm iss
Ġp ale
an ing
al ed
Ġno dded
Ġmem ory
Ġcomplete ly
ar row
Ġb all
Ġe gg
ĠW izard
ink y
ick ing
are ntly
ĠSe amus
re ll
Ġm ention
ch o
Ġsupp ose
Ġsecond s
ĠAl bus
Ġmon th
cl aw
aven claw
Ġre ason
ĠA h
ĠP ar
Ġsh ow
Ġtre es
Ġvis it
ĠSn itch
Ġ z
Ġb arely
is k
st r
ĠC r
Ġback ward
Ġdrag on
g hed
Ġ ir
Ġo kay
Ġth row
Ġe cho
ort h
ĠE ater
ĠAn y
ĠMugg les
Ġless on
Ġ ill
ĠR avenclaw
ain s
Ġcon s
inn er
' .
i ke
Ġ ought
Ġto r
Ġst ret
ĠK ark
Ġim ag
ĠProphe t
m aster
id er
Ġre ckon
Ġfor ced
Ġle arn
Ġdis c
Ġg le
Ġsh ot
Ġte ars
Ġhor rible
D umbledore
Ġa head
Ġc overed
Ġm ir
Ġl ed
Ġst ory
ĠP at
Ġstr ange
Ġdou b
in ess
Ġw ing
Ġh um
Ġh idden
Ġp air
Ġe ag
Ġqu ill
Ġsc r
Ġsk y
Ġste pped
ĠMagic al
is ted
or row
Ġp un
im m
Ġhapp en
Ġgi ving
Ġb ig
or ted
Ġd orm
Ġr at
Ġbo x
Ġsna pped
Ġhour s
Ġdiffere nt
Ġimport ant
Ġm iddle
Ġth ird
ld ron
ĠY our
Ġfe ar
Ġbl ank
anc ing
ar off
Ġg h
Ġwh om
Ġan x
Ġfor m
ap ed
ee ves
I N
Ġs ing
at es
at ur
Ġc abin
an e
ĠP om
Ġtr uth
Ġfore st
i al
it a
it ted
Ġc op
Ġl ake
ĠA pp
Ġch amp
Ġtr ans
Ġpro bably
Ġpoin ts
Ġdes er
ĠOr der
Ġsumm er
Ġt em
Ġf re
Ġf ine
Ġg ri
Ġst om
Ġst rugg
ĠP l
ĠL e
Ġpre te
less ly
Ġdorm it
r im
t a
Ġb rought
Ġp ushed
ook sh
Ġyour self
Ġye ah
Ġexc ited
Ġcarry ing
ooksh anks
f rey
it ion
Ġd uring
Ġl ate
ver ing
ĠW ith
Ġro se
ul ar
uff le
Ġsil ent
Ġdanger ous
ĠAg ain
ĠKark aroff
ĠPom frey
a id
r it
Ġf ro
Ġf right
Ġm aster
ĠT r
Ġro ared
Ġbot tle
Ġhard ly
Ġsound ed
Ġed ge
i pp
s me
Ġa dd
Ġc alm
Ġdes per
ix ed
Ġfac es
Ġposs ible
a pe
Ġs ister
ic ult
ĠM ay
ĠT H
ĠD ad
ĠR ight
Ġsh rie
bb ing
Ġwond er
Ġad m
Ġstre et
g y
Ġn or
ĠW inky
ĠP eeves
Ġsu gg
Ġlau ghed
Ġc ried
Ġwor se
te en
ĠHog sme
Ġexpe cted
Ġob v
Ġob ject
ro l
ĠD igg
Ġare n
ĠHogsme ade
n ot
Ġh ast
Ġh ung
Ġd rew
et h
Ġclo ser
Ġnew s
Ġlau ghter
Ġdiff icult
u ge
Ġt ree
Ġb ow
Ġg rou
Ġg lo
ter s
Ġj umped
th ur
Ġple ased
Ġcou ple
med i
Ġpic ked
p uff
Ġf unny
Ġn orm
pe ll
un ch
ĠAr thur
Ġpart icul
Ġheav y
Ġstom ach
uffle puff
h o
Ġw ild
Ġh ot
ĠH ufflepuff
ac hing
am ent
Ġwant s
Ġlo ck
ge our
Ġind eed
Ġthro at
a pped
it al
or ing
or ies
us hing
Ġme rely
ĠF l
ĠV ery
Ġor d
Ġsim ply
uc ius
Ġap art
ĠDef ense
ĠCr ookshanks
rim geour
Ġt ight
Ġt ra
re me
Ġm ark
ĠT o
ĠR ita
Ġpo sit
ĠSe c
Ġgirl s
Ġgas ped
ĠSever us
P ro
c ing
e ep
f ast
Ġa vo
Ġb as
Ġf er
Ġf ield
Ġn arrow
ic t
ge on
Ġsl id
Ġgr ow
Ġim medi
ĠGr anger
Ġsub ject
Ġgh ost
Ġb ath
et er
am ber
Ġnot e
Ġfr own
our n
Ġmy self
Ġwal k
Ġper fect
Ġwond ered
Ġgu ard
Ġscream ed
Ġlaugh ing
Ġt ip
ar l
Ġd ad
ĠS ke
Ġas ide
ri ph
if e
ĠL ucius
Ġfam il
Ġfill ed
riph ook
a ut
a ily
Ġd inner
am b
Ġal ive
ep t
ave nder
Ġbec ome
Ġlo ve
Ġrem ained
av or
Ġstart ing
Ġact ually
w ick
Ġm ess
Ġan n
ĠF r
Ġte a
Ġsome body
Ġneed ed
ung us
Ġjo ined
Ġbroom stick
Ġattem p
Ġrememb ered
Pro fessor
O N
i ar
on es
Ġn ice
om ing
Ġwere n
Ġle apt
Ġte eth
Ġch ild
Ġwor ry
ment s
Ġpr om
Ġho le
Ġcare fully
Ġad v
Ġcat ch
ĠSc rimgeour
ĠDigg ory
b s
c ause
Ġb ent
Ġc re
Ġd are
ĠD is
am med
Ġdo g
ĠY OU
Ġch o
aus ed
Ġter rible
Ġstr ong
Ġbreak fast
lit wick
Ġdirect ion
Ġpict ure
A s
l er
n ing
z en
Ġt all
Ġh uge
Ġd em
ĠI m
ĠA fter
ĠG et
Ġab s
Ġpo st
ĠE ye
Ġsm iled
Ġapp arently
Ġbot tom
Ġdr ink
Ġtre mb
ĠAgain st
b olt
Ġ 1
Ġt erm
Ġb ound
ot e
ot h
ble t
Ġv iew
Ġsome where
ĠPot ions
Ġfir m
und ungus
Ġsurpr ise
rod e
g es
y ond
Ġh ol
Ġto day
Ġp ink
Ġp aper
Ġbe yond
ay s
Ġfor get
Ġsh op
ĠG riphook
ĠF litwick
Ġtw enty
Ġkne es
Ġext reme
j oy
Ġt ightly
Ġs ense
Ġw ish
ĠD aily
ur se
ĠC up
Ġall owed
Ġsl ipped
Ġboy s
Ġteacher s
Ġsurpr ised
Ġshar ply
Ġclut ching
Ġopp os
Ġinform ation
v ati
Ġt ail
Ġa f
Ġsm ell
Ġpro per
Ġcr ack
Ġless ons
abb ers
Ġclimb ed
b l
w h
Ġb ang
ĠH ouse
ĠM undungus
Ġu na
ag ue
Ġli ving
Ġwor king
Ġhas n
Ġatt ention
Ġclass room
Ġdec ided
ĠSke eter
O R
Ġto w
as hing
Ġd un
Ġn one
Ġit self
ĠM ar
ag g
Ġho sp
Ġsn ow
Ġclose ly
Ġlist en
Ġpie ce
Ġforgot ten
Ġeag er
Ġhosp ital
A R
b y
Ġd ust
an y
Ġst aff
ic al
ra id
Ġwor ried
Ġsee ing
ite ly
Ġsur round
Ġfore head
ĠSc abbers
Ġext ra
in x
Ġh iding
as ure
Ġd est
im p
ĠM iss
ut e
ĠL avender
Ġcon v
Ġspe aking
Ġfoll owing
Ġdet erm
ĠMay be
z ing
Ġc ry
Ġwe ak
Ġup stairs
and er
Ġde al
Ġcon vers
Ġhapp ily
row s
Ġsec ret
uck be
Ġcou nt
Ġpres ent
Ġsing le
Ġoppos ite
uckbe ak
¿ ½
ï ¿½
Ġp an
ĠM um
ĠR em
st eps
ge lin
ud e
el ing
Ġgr ay
Ġminut e
Ġgaz ing
Ġmir ror
Ġaf raid
t on
Ġf ain
it s
Ġfor ce
Ġpl aced
Ġen joy
Ġdis g
Ġmean s
Ġkeep ing
Ġattem pt
ĠPar vati
Ġextreme ly
Ġd ie
ĠT om
ad ed
Ġre pl
Ġtr ust
Ġdis cus
Ġappe ar
Ġwond ering
Ġcou n
Ġfing er
Ġpur ple
Ġf avor
at ter
Ġm ass
Ġp ack
ir rell
Ġmo on
ĠWeasley s
Ġar g
Ġsw ung
Ġbr ing
ru ck
Ġwee ks
gelin a
k in
n ce
Ġ ing
Ġw arm
Ġin n
ĠB uckbeak
ĠN or
Ġli br
Ġvo ices
Ġgr inning
Ġimp ati
ĠSlytherin s
Ġfur iously
Ġposs ess
Ġdisappe ared
c es
l ic
he red
in ting
Ġb re
Ġb le
Ġst ep
ĠL ily
ble m
Ġch ange
Ġsp ir
el ve
Ġimmedi ately
T h
Ġf ood
Ġhe sit
Ġl ine
Ġe at
ac ing
ter n
Ġnot ice
ĠHe re
Ġr id
Ġwhat ever
art h
Ġeye b
Ġpower ful
Ġfig ure
Ġdormit ory
k er
t ig
Ġo h
Ġp ri
Ġn ast
ac es
Ġst rode
Ġse nd
Ġro ll
Ġter rified
Ġfoot steps
Ġmar ble
Ġtou ch
Ġknock ed
Ġpract ice
Ġcir c
Ġhast ily
M r
ar led
Ġp age
le ep
ad s
ort ing
og ra
ĠQu irrell
Ġpass age
Ġbed room
Ġwait ed
ĠEr n
Ġhome work
Ġbell owed
Ġhol id
tig rew
r tle
u ry
Ġs ick
Ġb orn
Ġe le
ĠW as
Ġu r
ĠC urse
Ġso l
Ġli ve
Ġro lled
iz ing
Ġsc ared
Ġrem ind
Ġatt acked
unn o
ĠBl ud
Ġjo in
ĠAn gelina
Ġland ed
Ġlibr ary
a f
b ack
Ġf ixed
it ched
ll ent
ll iv
Ġp ath
Ġg rabb
Ġse ven
ĠK eep
Ġafter n
Ġpro phe
ĠPet tigrew
Ġdoub t
Ġgrou p
t led
Ġw orth
Ġg ard
Ġbe ard
ce llent
ak ed
Ġro ck
Ġde p
Ġhand ed
inn ed
Ġen c
ab les
ĠNe ver
Ġcau ldron
Ġnerv ously
ourn ament
i ved
l s
t he
in ct
Ġd ress
Ġm ag
Ġse vent
Ġj e
one y
Ġcan not
Ġpre fect
Ġpro blem
ĠMy rtle
Ġfac ed
Ġusu ally
ĠApp ar
m ore
r ing
u ing
at ie
id es
Ġe arth
ĠN ick
ĠO lliv
Ġde light
Ġtw elve
Ġgl ad
Ġgr im
Ġread ing
Ġowl s
Ġplay ing
Ġph ot
Ġsoft ly
Ġneare r
Ġfirm ly
Ġt ask
ri b
Ġlo cket
Ġam ong
Ġsur f
ib ly
Ġparticul arly
Ġbath room
arl ie
Ġaftern oon
i or
en g
es ted
om p
Ġre ve
Ġsp ent
Ġthink s
ĠCh arlie
ĠBe cause
Ġmeet ing
ĠFire bolt
Ġsus p
Ġnorm al
L E
f er
t ic
Ġt roll
Ġg ro
Ġsh owed
ĠB ur
ĠF ore
Ġpo l
ĠK atie
Ġwa ving
Ġcur se
Ġhalf way
Ġfoll ow
ĠPat ron
Ġprophe cy
ĠOlliv ander
u al
Ġt rave
Ġh on
ar c
ar ily
Ġf ist
Ġd ra
en ix
Ġm ap
Ġp ow
Ġg en
Ġwor ked
Ġgl it
Ġsn e
Ġside ways
Ġsk in
Ġcorrid ors
Ġexc it
ĠPr ime
c lock
i an
Ġ Z
Ġto m
Ġp erm
Ġas leep
Ġj ump
Ġal arm
Ġch anged
Ġhead master
Ġbr ain
oll y
Ġdi ary
Ġspell s
Ġheav ily
Ġshad ow
Ġrecogn ized
Ġcop y
Ġdeterm ined
ĠFore st
Ġs y
Ġc age
Ġm ot
ot ts
ir th
ĠL ong
Ġtr ick
Ġshould ers
Ġdef in
Ġfall en
Ġexpl ain
Ġcertain ly
Ġdeser ted
Ġconvers ation
A T
c ome
ed ing
ĠH ave
le ase
ĠD ep
Ġmis sed
Ġmay be
Ġhang ing
ogra ph
Ġsusp ic
ĠPatron us
Ġ ess
re ts
Ġbe w
Ġbe aming
ir ty
ĠM aster
ĠM ax
ĠT ower
Ġsh o
Ġle aned
ĠE ven
ie ve
Ġpre t
oll ow
Ġcur tain
ĠMad ame
ĠNot hing
Ġfall ing
Ġfight ing
Ġappro ached
Ġcross ed
Ġgard en
ĠMax ime
Ġa ff
Ġs ank
Ġc and
Ġd ri
Ġe mb
Ġst at
oo ped
ĠP e
Ġun less
Ġsm oot
Ġgr ass
Ġche er
Ġscar let
Ġbright ly
Ġhop ing
Ġthrow ing
Ġstret ched
Ġsurf ace
b ot
f ig
g in
s et
Ġf ool
id ly
Ġg rave
ĠT wo
ent r
Ġre ce
and ed
ĠL ist
Ġv ill
Ġsp ark
Ġus ing
op h
Ġhur rying
rill i
Ġfrown ing
Ġtremb ling
Ġnast y
Ġw in
Ġof ten
Ġon es
Ġr ow
ĠF ang
ĠO kay
ct ion
Ġpo or
bb ed
Ġcom pl
Ġsqu eak
Ġang er
Ġfur ther
Ġmonth s
ĠTH E
o pe
Ġ X
in ary
Ġb irth
at tered
Ġc ro
Ġp ub
Ġin vis
ot s
um in
Ġsp lit
Ġcl oud
Ġhead ed
Ġim m
Ġfac ing
Ġmur m
Ġcent a
Ġpress ed
Ġperfect ly
Ġeager ly
o ss
w izard
Ġt ables
as ant
Ġd read
Ġp ar
Ġin k
al ing
ĠG rey
ce ed
Ġput ting
Ġdist ant
Ġbus iness
Ġnerv ous
Ġeff ort
Ġeyeb rows
ĠGrey back
H agrid
O T
h ow
o le
u nder
Ġs oul
Ġg ame
Ġsa ve
ĠS pell
ĠW and
ĠP h
ill y
Ġli ked
Ġsu ff
th ough
Ġshould n
Ġwa ved
Ġsn arled
ings ley
Ġsle e
Ġev id
Ġtom orrow
ĠDep artment
W h
Ġh ig
Ġin j
Ġy er
ot t
ĠC orn
Ġr ain
il ius
ud ing
ant s
Ġseem s
Ġper form
ne y
Ġinc hes
Ġexp lo
anc es
Ġbus y
Ġneare st
Ġfif ty
Ġuna ble
Ġimpati ently
Ġpret ty
ĠList en
Ġinvis ible
Ġh ide
on y
Ġf un
Ġl unch
Ġe arly
ic ing
ĠD el
Ġsh owing
Ġne ither
Ġch arm
ĠNe arly
Ġmut tering
Ġquest ions
Ġspot ted
Ġconc entr
ĠWizard ing
Ġz oom
Ġecho ed
Ġhum an
ĠTr ans
ĠLong bot
c ious
d u
z ed
is f
ve l
ĠS pr
Ġwit ches
ĠA ur
all e
ĠL ove
Ġli ps
ant ing
Ġthought s
Ġpre p
Ġwhis per
Ġshar p
Ġthr own
Ġemer ged
Ġfright ened
bl ood
ĠLongbot tom
Ġw ard
ll o
Ġm en
Ġm us
Ġas king
Ġj er
Ġj inx
Ġun e
ĠK ingsley
omet hing
Ġcont rol
Ġreal ize
Ġscream ing
Ġcup board
Ġdraw ing
Ġir rit
Ġobv iously
Ġgrow led
ĠErn ie
ĠX en
e cted
v al
Ġs ens
Ġhis sed
ur b
if ied
ĠL ee
ck s
Ġag re
Ġsl ight
Ġapp re
Ġmoment s
Ġpass ing
Ġgu ess
Ġhesit ated
Ġgrabb ed
oph ilius
i as
o ken
Ġf il
Ġth reat
Ġp ay
ve lo
ĠM ark
Ġu nd
ĠG od
Ġgo blet
ong ue
Ġany more
Ġsp read
ĠTh ree
Ġtw ice
Ġfl ames
Ġen ch
Ġapp l
Ġspe ct
ild a
Ġbad ly
ĠOn ly
Ġshrie ked
Ġposit ion
Ġst uck
ro g
ro y
ĠG alle
ig hed
Ġcl ot
unn ed
Ġsat isf
Ġfa ult
Ġwrit ing
Ġeas y
i o
Ġt one
Ġb an
Ġp itch
Ġn ine
pe cted
Ġsp l
Ġpl at
Ġgr owing
Ġpre v
uck ed
app ing
Ġcar ried
Ġletter s
ĠEvery one
Ġyell ow
ĠAny way
Ġchamp ions
Ġdun geon
ĠSpr out
ĠXen ophilius
A N
n ight
Ġw ake
ar g
Ġc our
Ġg ra
ĠT ri
ĠW or
ĠW ill
Ġre ach
Ġsh rugg
Ġup ward
Ġr ising
qu ire
ul us
Ġte ach
el s
ĠTh ank
ĠTh anks
ĠPot ion
th y
Ġent ire
Ġhel ped
ĠSt one
ĠHow ever
ement or
ĠRe g
Ġref le
Ġinterest ed
ĠCharm s
Ġmid air
Ġocc as
Ġfamil iar
W hen
u ice
Ġl ur
Ġl amp
ut ter
ĠD ementors
ink ed
Ġno is
Ġun ple
Ġwor st
Ġcom fort
Ġthan k
ĠCh amber
Ġsn at
Ġsound ing
Ġshout ing
Ġcar ri
Ġdisapp o
Ġseat s
Ġprot ect
ĠHorcrux es
Ġwood en
Ġann oy
Ġdefin itely
i um
n ed
Ġs ize
Ġb lock
Ġhe aring
Ġm er
Ġp ure
Ġp acked
Ġn ames
Ġbe at
Ġe h
ld er
ĠM er
Ġsh ining
ge red
Ġdown stairs
Ġsw ept
Ġel ves
Ġstud ent
Ġpat ch
Ġlead ing
Ġbirth day
d ing
m m
n er
Ġb in
Ġb ird
Ġb rilli
Ġf it
Ġp ile
Ġp ause
ĠHarry s
Ġst ag
Ġwh ist
ĠS m
ĠP o
Ġex per
Ġrem ain
ĠQu aff
Ġlif ted
Ġpart y
Ġunderst ood
Ġhigh ly
rac ted
Ġser iously
rive t
Ġcol or
Ġgle aming
Ġfre sh
Ġobject s
ĠBlud ger
Ġglit tering
Ġvill age
Ġplat form
S nape
c ess
i k
s es
ing otts
ĠS orry
ĠD rive
rou d
Ġthan ks
ol ate
ru ct
Ġche e
Ġbit ter
Ġloud er
Ġcold ly
Ġinter rup
Ġcreat ures
Ġexcited ly
Ġglo om
Ġexcit ement
ĠTrans fig
ĠTri wizard
a it
a unt
e led
Ġa ge
Ġf at
Ġha lt
ĠM e
ĠP rivet
Ġso ared
ant ic
ation al
Ġsw all
ine as
Ġbreat hing
Ġinc l
ĠGr ingotts
Ġfur ious
ci al
Ġmis er
Ġluck y
Ġphot ograph
ĠPh ineas
Ġs ighed
Ġc ool
Ġd am
Ġin f
Ġe ight
ur red
ĠA m
Ġse ar
ard s
Ġli ved
Ġsome how
au ght
dd ing
Ġarm ch
Ġsound s
Ġhor ror
Ġaw are
fort h
Ġburn ing
Ġwarn ing
Ġproper ly
Ġholid ays
Ġsol id
ĠQuaff le
A t
R E
d en
u es
w ise
re g
Ġf o
Ġf old
Ġd unno
Ġsa ved
Ġst ri
ĠM olly
Ġre v
ĠA ber
ĠP lease
Ġk id
il t
rie f
Ġsure ly
Ġbel ong
Ġfire pl
Ġcare ful
Ġdeep ly
ĠHead less
Ġcomp artment
Ġrel ief
Ġmur d
Ġesc ape
Ġeff ect
Ġlearn ed
Ġavo id
s c
s ion
z y
on ed
Ġha ired
om fort
ĠM or
ur ation
Ġr ang
ous es
ep ing
Ġany body
Ġsp ed
Ġun f
Ġsl ammed
aus ing
Ġsqu e
Ġco ver
Ġshort ly
oc olate
V E
a ving
Ġw ra
Ġh ood
Ġb ab
it ting
en cy
Ġp ound
ĠR oom
ri ff
ke y
Ġr ing
ĠF at
el ius
Ġevery body
Ġam az
Ġimp ression
Ġsur v
ĠSt an
Ġfam ous
Ġdet ention
Ġlow ered
Ġland ing
Ġconc ern
Ġgri p
Ġcalm ly
Ġdelight ed
Ġsmoot h
Ġhig her
Ġspect ac
N e
b ers
b idden
i vering
Ġf ier
oo f
ĠW ould
ore s
if ic
Ġgo al
Ġab rup
Ġknow ing
ie ved
Ġsm oke
act ion
ĠGryffind ors
Ġlif t
Ġpers u
iv ination
Ġdef e
Ġdest roy
H is
i pping
p ose
Ġt est
Ġw ings
Ġu g
un ted
ĠF in
Ġpo ison
Ġlike ly
Ġcon ce
Ġsc ene
Ġgr and
ol ved
Ġhur ry
Ġfin al
Ġjo ke
iss a
ĠPer haps
Ġexpe lled
Ġres p
Ġinc red
Ġser ious
Ġwrit ten
Ġanx iously
ĠDis app
Ġclot hes
Y ou
in es
ar r
at tering
Ġm ine
Ġm oney
Ġp roud
ve y
Ġst ick
ag on
pp er
ĠB or
ĠC on
Ġwere wo
il s
Ġany where
Ġtw ins
Ġsomet imes
Ġrem o
Ġsil very
Ġfour th
Ġcreat ure
wh ile
Ġfavor ite
Ġpri v
arc issa
oss ible
ĠCorn elius
Ġwerewo lf
O O
l come
t or
Ġs erv
Ġm ood
Ġl awn
Ġp ill
Ġg ul
Ġg igg
ir st
ĠM ost
Ġwe ight
ĠB ath
ĠC ol
Ġli e
Ġsp ider
Ġbl ond
Ġfl ung
Ġhapp ening
Ġbr own
Ġcle an
Ġcle ared
Ġcor re
ens ieve
Ġdrag ged
ĠOn ce
oun ced
Ġru bb
Ġesc aped
Ġdesper ately
Ġpan ic
Ġinn oc
Ġoccas ion
ĠTransfig uration
ĠAber forth
as ted
Ġm um
Ġst ream
ĠD ivination
ag ing
ĠB y
Ġdo zen
ĠC ould
Ġfe ast
ĠL ady
ist ing
Ġal though
Ġhead ing
og riff
Ġlo ads
Ġimp ossible
Ġbelie ved
Ġforward s
Ġdist ance
Ġmem bers
cus e
raw p
Ġmove ment
Ġmist ake
Ġdirect ly
Ġprot ection
Ġdou ble
Ġmiss ing
IN G
ipp ogriff
Ġsugg ested
Ġbre aking
Ġagre ed
Ġfier ce
c to
f ather
g ood
Ġb en
Ġp anted
ir t
ut tered
ur m
ĠP ensieve
em ber
Ġfe e
ud o
Ġun cle
bb ly
Ġpe ering
ĠNo body
Ġopen ing
os en
Ġnear by
ĠSome one
Ġscr at
Ġattemp ted
Ġgen er
Ġug ly
ĠDisapp ar
n ze
Ġt reat
Ġf ury
Ġp ou
Ġst ation
oo se
Ġ. '
un ity
umb ling
ud blood
Ġbl ind
Ġgl ance
Ġbr and
Ġsqu are
ĠDid n
Ġlock ed
Ġchild ren
Ġcurtain s
ĠBor gin
ĠBath ilda
W e
m er
Ġw ished
ĠH ad
at ure
Ġc as
ur ity
ĠB r
un ks
ĠL ike
ĠN arcissa
Ġv a
Ġex ch
Ġpl ain
Ġgl ancing
Ġevery where
Ġhard er
Ġind ign
ertain ly
Ġunc omfort
Ġexpl ained
Ġtou ched
Ġgoblin s
Ġshock ed
ĠLove good
m ist
t ling
Ġa im
Ġd im
Ġp aused
ĠM arge
am m
ter be
Ġr age
il es
our ney
ĠO g
Ġch airs
el w
est ly
Ġtr ack
Ġra ising
ĠAll ey
Ġdrag ons
Ġmar ched
Ġacc ident
Ġconf used
Ġhundred s
Ġhop ed
Ġanx ious
Ġbas in
Ġconv in
ĠGalle ons
L L
a ved
l um
o v
z z
ll y
Ġm ain
Ġm ount
Ġsa d
et y
Ġan t
ĠG rawp
Ġsp ace
ang ing
ang led
ond on
au ld
Ġfl ash
uff y
ĠMc L
Ġsqu ee
Ġinst ruct
Ġdro p
Ġdi ved
ĠFire nze
Ġtri ump
Ġstrugg ling
Ġdem anded
Ġprev ious
ĠWor ld
a ud
f in
g ar
h us
o b
Ġt ap
Ġw ave
Ġf air
Ġp en
ot ed
ĠS orting
ag ged
ri er
Ġj ourney
Ġv ague
Ġex h
Ġte le
Ġor der
Ġtw isted
Ġcont act
Ġwr ite
Ġfin ish
ĠGr ind
Ġlea ves
Ġgaz e
Ġinterest ing
Ġcheck ing
Ġshad ows
Ġimag ine
ĠIm per
agg en
Ġfain t
Ġcoun ter
ĠGod ric
ĠCol in
ĠMcL aggen
i ry
p es
Ġs our
Ġto ad
Ġm akes
Ġl im
us ion
Ġst ro
Ġst ir
ĠM udblood
ad ing
ay ed
ĠC reat
ĠL udo
ul es
Ġthere fore
ĠE n
ime y
ap ing
bb led
Ġsm ir
Ġdoor way
Ġdes p
Ġwhis p
ĠYe h
Ġset tled
ĠHall ows
Ġvis ible
Ġri pped
Ġbu ild
Ġburn ed
Ġscr amb
Ġcho ice
Ġswall owed
Ġfirepl ace
a un
c ise
w ell
Ġb other
ĠH alf
id ers
Ġl ad
Ġl ower
us ing
Ġsh udd
if ul
ĠO W
Ġpo p
Ġget s
Ġke en
Ġspe ed
Ġnew sp
Ġbro ad
Ġuse ful
Ġgaz ed
Ġexpect ing
ĠPr ince
Ġfa iled
Ġign ored
Ġecho ing
Ġmurm ured
Ġarmch air
ĠCreat ures
d ed
p ar
Ġt ired
Ġw et
ing er
Ġb ul
it ies
ll us
Ġd ressed
Ġp anting
Ġin ch
Ġst rid
Ġst ruck
ĠM ur
Ġnot es
Ġfe ather
Ġv i
Ġyour s
Ġun w
Ġsl ip
Ġgr inned
ol ute
Ġke y
Ġsec urity
Ġaw ake
str ang
Ġcount ry
Ġappear ance
Ġunple asant
Ġbrilli ant
Ġbab y
urm strang
ĠOg den
S T
t les
Ġs way
Ġw ren
Ġc aused
Ġd u
Ġp in
ac he
us ted
ĠS atur
ĠS omething
ĠW H
ĠD urmstrang
ook ed
Ġk icked
ĠG ot
Ġj ud
ĠL ondon
ck ed
Ġback ed
Ġle aning
Ġex cellent
Ġno dding
Ġde v
Ġte aching
Ġpl ate
The n
Ġen velo
Ġpe ered
Ġmu ff
Ġlight s
fort un
Ġbu y
ĠPl ace
Ġsugg est
Ġmag n
ĠBur row
Ġstat ue
Ġrece ived
Ġtriump h
ĠSatur day
I n
R Y
a j
b at
s and
u ce
Ġs lo
ar ters
ĠH ist
Ġc rying
Ġp ump
Ġg est
Ġbe aut
Ġre app
ill ing
lo gy
Ġthou sand
Ġle vel
Ġex ist
Ġcon st
gg ed
Ġpre fer
Ġsn eak
Ġhands ome
aw kes
Ġdist inct
Ġswe at
Ġexam ining
Ġeas ily
Ġtor t
Ġpun ish
Ġprete nding
ĠFr ank
Ġattemp ting
Ġtow er
Ġcry st
elw ald
ĠGrind elwald
b ow
o ver
Ġ rough
Ġw ife
Ġb rave
Ġc rou
Ġd irty
Ġl eng
Ġth under
ack et
Ġsh if
Ġk iss
ĠB ul
Ġkn ife
Ġch ar
Ġpl aces
Ġwant ing
Ġdes ce
Ġwizard ing
Ġent hus
Ġstand s
Ġwr ote
Ġfell ow
Ġcontin ue
Ġacc omp
Ġfig ures
Ġtem per
Ġess ay
ĠPe ople
quire ment
Ġabrup tly
ĠHist ory
Ġreapp e
E D
F or
N o
r is
Ġt ournament
Ġa unt
Ġb ought
Ġto ile
or ough
Ġd ying
Ġth orough
Ġp ick
Ġp ushing
Ġst ad
Ġst orm
ĠM ust
ĠS p
ĠT ell
ĠD i
ur ies
um ed
ak er
Ġj us
Ġli ves
ul ts
Ġsu it
Ġun us
op s
Ġsm ashed
ang ling
Ġgl aring
Ġcur led
Ġcall ing
ip ing
Ġhelp ing
Ġclass es
Ġdiff icul
Ġdesper ate
Ġinnoc ent
terbe er
Ġinstruct ions
Ġvi ol
Ġstad ium
Ġdifficul ty
e ch
i ge
o enix
w e
w ord
Ġh ippogriff
ĠH at
Ġd rif
Ġg n
Ġg rew
om ed
Ġe arn
Ġst are
Ġst iff
ic orn
ĠS T
ĠR os
Ġso cks
Ġv al
Ġde li
ĠE lder
el ess
Ġhand le
Ġgl ow
Ġflo ating
Ġcr ash
Ġcle aring
Ġfind ing
ans y
Ġdec ide
Ġind ic
ci ent
Ġswe et
ĠRe quirement
Ġph oenix
Ġcol ored
Ġill umin
imm auld
Ġwild ly
Ġord ers
Ġele ven
Ġur g
Ġremo ved
s ure
Ġt ied
Ġd ull
Ġd ancing
Ġd ementor
Ġl ap
Ġg ig
ac our
oo p
ĠM ac
Ġwe ird
Ġas ton
ĠA N
Ġse par
ĠThe ir
ĠO ut
ĠO cc
Ġro ar
Ġover head
Ġgl imp
te nd
Ġcont r
Ġent er
ĠSt ill
Ġbo ard
Ġposs ibly
ĠHead master
Ġsim ple
Ġmur der
Ġchamp ion
ĠKeep er
Ġdra wn
ĠDel acour
ĠMor fin
ĠOW L
Ġstrid ing
Ġcryst al
E N
Ġt aught
Ġw i
ar se
ĠH i
Ġd ue
Ġg ently
Ġst ars
Ġst unned
ĠA cc
ĠP ansy
ĠHe llo
Ġup set
Ġr um
ĠF el
ĠN ige
Ġv ar
ĠO F
Ġcon j
Ġsc ree
ĠK ing
Ġgr in
Ġen g
side red
Ġlo se
udd y
ĠGr immauld
Ġbad ge
Ġansw ered
Ġstay ing
Ġcomp any
Ġdream s
Ġplan ning
Ġsleep ing
Ġclut ched
Ġbat tle
Ġcir cle
ĠSee ker
Ġmention ed
Ġtrans form
Ġfro zen
ĠRem us
ĠNor ris
Ġroll ing
Ġsqueak ed
Ġfil thy
Ġcarri age
Ġwhist le
Ġexper i
ik tor
Ġrubb ish
Ġgig antic
ĠNige llus
i bb
k n
k ward
Ġb od
Ġb ald
Ġf ully
it tle
as y
Ġy awn
Ġe ating
ĠS qu
ĠT w
Ġwe lcome
Ġre se
ri an
Ġan im
un e
ĠC are
Ġr ust
Ġj et
Ġcon sidered
Ġfl ick
Ġclo ck
Ġpre vent
Ġbec oming
Ġlo sing
Ġsk ull
aw s
Ġbreat hed
Ġbroom s
Ġodd ly
Ġdiffere nce
Ġspr inted
Ġmid night
Ġdisc overed
Ġstrugg led
Ġwonder ful
Ġsurround ed
ĠAur or
Ġpriv ate
Ġconvin ced
W ith
c her
l ow
l ine
s on
u le
Ġt unn
Ġw ound
re s
Ġb lo
Ġf ought
Ġc oo
Ġc amp
le br
ut ion
st ri
Ġse lf
Ġse nding
ĠG aunt
Ġne at
Ġr isk
art y
Ġag es
Ġch uck
Ġsp iders
Ġun icorn
Ġwhen ever
au x
ru bbly
Ġter ror
Ġsupp ort
Ġstud y
Ġgre et
Ġmem ories
Ġaw kward
Ġstuff ed
Ġstre ng
ax ley
Ġcons ider
Ġobv ious
ĠSec rets
ĠFr om
Ġremind ed
Ġpow ers
Ġmot ion
Ġcro aked
ceed ed
Ġzoom ed
Ġdisappo inted
Ġinterrup ted
i el
Ġt ongue
Ġw is
Ġh orn
Ġb ust
Ġb owed
Ġto t
Ġc ow
Ġd ry
Ġl aid
Ġn er
Ġst ate
ĠP ig
ĠF e
ĠF igg
Ġun like
og g
Ġgr own
Ġgr ate
ber t
Ġho arse
Ġdr own
ĠSt and
reak ed
ens ive
Ġdeep er
Ġstraight ened
ĠRe ally
Ġce lebr
Ġportrait s
ĠPl ank
Ġmess age
Ġcre pt
Ġsurround ing
Wh at
Ġshrugg ed
Ġfold ed
d ge
k y
Ġ id
er t
Ġb rief
ĠH oo
ĠH ollow
Ġd az
om m
ook ing
Ġfor t
ĠB room
ĠF awkes
Ġgo es
Ġis s
ĠO U
Ġsu cc
Ġcon n
ĠV iktor
est r
Ġcl en
Ġmo d
Ġgl ared
uff led
ord an
Ġcont ents
ung o
Ġcr acked
Ġcle ver
ail s
ĠBe aux
Ġdist urb
Ġhor se
Ġref used
Ġrep ort
Ġer up
Ġwarn ed
Ġfif th
Ġsun light
Ġimag ined
Ġspir al
Ġspark s
Ġslee ve
Ġprep ared
Ġappl ause
Ġentire ly
ĠReg ulus
Ġincl uding
mer ta
Ġva ult
Ġscramb led
Ġnewsp aper
ĠMur iel
Ġmuff led
ĠDi agon
b el
u ly
Ġ ic
Ġt ill
Ġs inging
Ġb ank
ĠH ang
Ġc ard
Ġd ashed
ir ling
ent ed
Ġsh oot
ĠY axley
Ġr is
Ġli p
Ġsc ra
Ġtr unks
Ġgr as
Ġsw ell
Ġdis m
ĠBl imey
ugg ed
ĠPet er
Ġdro pping
Ġinter v
Ġcent er
atur ally
Ġmark s
Mr s
Ġevid ence
Ġstag gered
Ġbitter ly
Ġvague ly
Ġwhisp ering
Ġenvelo pe
bat ons
Ġtoile t
Ġthorough ly
ĠHoo ch
ĠBeaux batons
O n
a im
g round
i xt
m p
Ġa mb
Ġw id
Ġf al
Ġc apt
Ġc ausing
Ġd awn
Ġbe ak
ĠT ake
ĠT ournament
ĠA d
ill ed
Ġsh r
Ġsh own
ĠB oth
ĠG reg
ĠG rubbly
Ġr ap
ĠF irst
to p
ĠL estr
ĠN O
ast ically
qu e
Ġab and
Ġro ad
Ġal oud
Ġch in
Ġbl ow
Ġsc ow
Ġcl apped
ap tain
Ġfl ood
Ġclo sing
Ġbr inging
Ġpro g
Ġbot tles
Ġdark ly
Ġimp ressed
ĠJ ordan
iss ion
Ġbo at
Ġinc re
Ġcrowd ed
ĠEx p
Ġkind ly
Ġrel ieved
ster ies
Ġbrother s
Ġegg s
Ġprete nd
Ġadm it
Ġbew ild
arr ass
Ġleng th
A n
i ver
m in
Ġw ed
Ġw ore
Ġf ang
ĠH E
Ġp red
Ġp icking
ic ia
ĠM ungo
ĠS ure
ĠT O
Ġwe ar
Ġas h
Ġre qu
ĠA rian
ĠG ive
Ġr ules
Ġhand ing
Ġsc ri
Ġpl enty
Ġpl ates
au ghter
ars h
Ġspe cial
ĠCh as
Ġpr ison
Ġneed s
Ġam ount
Ġold er
Ġend ed
Ġcur ious
Ġple asure
ĠAl icia
Ġexam s
Ġcheck ed
Ġopp ort
Ġfamil ies
Ġdiscus s
Ġmass ive
Ġsevent h
Ġtrave ling
Ġwra pped
Ġspectac les
Ġcorre ct
aj am
ĠOcc lum
Ġtunn el
ĠArian a
M alfoy
d y
l ve
o h
w id
Ġa ut
Ġs ink
Ġw iping
Ġh ate
ar ger
Ġf an
ĠH A
at o
at or
Ġc ous
as antly
Ġm umbled
Ġsa v
Ġst u
Ġwe ather
out s
ur g
Ġan k
Ġse a
am ped
led ge
ĠHe y
ĠB arty
Ġgo d
Ġoff ered
Ġby e
ive red
Ġcom es
Ġbr isk
ĠDo ge
Ġkeep s
Ġra ise
az e
ĠBe fore
Ġdec is
Ġknock ing
Ġbow l
Ġgrim ly
Ġcenta urs
Ġirrit ably
Ġpound ing
ov itch
olute ly
Ġaccomp an
c o
e c
l ish
n ow
p ted
Ġ ident
he ard
in i
Ġs ong
re r
on ing
ĠH igh
at ively
it ude
Ġhe x
Ġl arger
Ġp ool
Ġp ages
Ġp ajam
ot ting
Ġbe ar
Ġst ar
oo ping
ĠM o
ut tering
Ġwe ap
ad em
ag og
ri es
ch ief
Ġse arch
ĠC atter
Ġv ast
Ġv ict
Ġro ots
Ġnow here
Ġey ed
Ġbl ame
Ġbl inked
Ġar r
Ġac cept
Ġsil ently
ung ed
Ġimp ro
ons cious
Ġcur iously
Ġste al
Ġcar p
Ġdist racted
Ġco at
Ġpain ful
anc hes
Ġbur ied
ĠEx cellent
Ġmatter s
Ġser p
Ġru bbing
Ġgiant s
Ġcoll ap
Ġocc urred
Ġbar rier
Ġign oring
Ġdust y
Ġrepl ied
the less
rib ly
Ġemb arrass
Ġcenta ur
Ġpersu ade
Ġfierce ly
ĠImper ius
Ġwren ched
ĠRos merta
ogg art
ĠCatter m
I f
r act
Ġ utter
Ġb and
Ġf ake
ĠH orn
Ġc ell
as c
Ġst ern
Ġre le
ĠA b
Ġsh ape
ĠB et
ĠB oy
ĠB inn
Ġne igh
Ġshe lves
ĠL ittle
ĠO ff
Ġde l
ĠWh ich
ig an
Ġch osen
au ldron
Ġfl ight
ĠU nder
Ġrem aining
Ġspe ech
Ġbr anches
Ġwr ist
Ġset ting
ret ched
Ġstay ed
Ġswe ar
Ġbus h
bo logy
Ġreg ret
Ġsafe ly
Th is
Ġsevent een
Ġfool ish
Ġdread ful
Ġappre ci
Ġnois es
Ġbeaut iful
Ġid i
wid geon
Ġgod father
b ook
Ġ ourse
Ġa ch
er th
Ġb orrow
Ġc aut
as ing
or ovitch
Ġd en
Ġp u
Ġn on
ot ion
om as
Ġbe amed
us e
ro be
ĠM ap
ut ure
ĠW ait
Ġwit ness
ĠP ort
ĠP ark
ĠP ho
Ġsh ake
Ġsh rill
ĠC auldron
Ġr ush
Ġli es
ul ously
Ġknow ledge
ĠIt s
Ġsp un
ick en
Ġpl ans
ĠTh omas
Ġar tic
idd ing
Ġway s
Ġdes c
Ġdes ire
Ġarm or
Ġsn iff
ĠDo es
Ġmean ing
ĠAr agog
Ġres pect
ĠMy steries
Ġinst antly
Ġfore ver
Ġstart led
Ġmem ber
Ġins ides
Ġyoung er
Ġcoll ect
ĠHer bology
Ġpict ures
Ġthr ust
Ġve lve
Ġint rod
Ġrecogn ize
Ġbackward s
Ġgle e
Ġenjoy ing
Ġble eding
ott age
Ġthreat ening
Ġsnat ched
ĠFin ally
ĠCon f
Ġwed ding
ĠOcclum ency
ĠCatterm ole
ĠBinn s
Ġourse lves
ĠPark ins
ĠPho enix
E very
Ġt apped
Ġs ides
Ġw oke
Ġh ated
Ġb uck
Ġl ined
Ġth ir
Ġp et
Ġg arg
Ġbe aring
Ġwh ipped
ĠT ed
ke nd
Ġse ve
um e
il ty
il isk
Ġab ou
Ġch amber
Ġch ocolate
Ġch anging
Ġbl ast
Ġgot ten
Ġor ange
Ġmo aned
Ġcom ment
ĠDe c
Ġpro du
ord ing
ru ci
Ġpass word
Ġcr ump
Ġbed s
Ġsupp or
ild er
Ġsk rew
sh ot
li er
Ġsign s
raw led
Ġbreath lessly
Ġplay ed
Ġunc onscious
Ġyell ing
Ġev il
Ġdisappe ar
Ġtrans p
Ġextra ord
Ġcirc ular
Ġcand le
Ġench ant
Ġsear ching
Ġindign antly
ĠBul gar
Ġstreng th
ĠBroom stick
Ġic y
Ġbewild ered
Ġneigh b
E S
R I
S t
U n
o lo
Ġh ouses
Ġf aded
at ically
is c
Ġl ump
Ġp urs
al es
ĠR o
Ġfor cing
Ġsh aped
Ġfr ag
if t
Ġj uice
umb le
ust r
qu is
ant ically
ĠO ur
ĠO wl
Ġag ree
Ġsu per
Ġsp oken
ĠE nt
ap ers
Ġgr unted
Ġbr ains
Ġgreat est
ugg ing
Ġsit u
av ior
sh ip
Ġlist ened
Ġsto pping
Ġvis ion
Ġwee kend
Ġhope fully
Ġswe eping
ĠJust in
Ġpres ence
Ġspr ang
Ġpie ces
int ment
Ġbar ked
Ġball s
Ġquill s
Ġblank ly
Ġcabin et
ĠMar aud
Ġdisg ust
Ġrepl aced
Ġperm ission
Ġimm ense
Ġinj ured
Ġchee k
Ġdam age
Ġconcern ed
Ġbod ies
Ġclen ched
ĠGreg orovitch
ĠParkins on
ilder oy
C K
F red
Ġb igg
Ġf ail
it or
Ġc ave
Ġhe ight
Ġhe aved
Ġl ines
Ġth ud
Ġbe ating
al er
st ead
red i
Ġfr ame
Ġdo d
ĠC l
and ing
Ġr ise
ĠF ine
Ġall ow
ĠN amed
Ġso aring
Ġex cuse
our ing
Ġsp at
Ġtr aining
ol en
Ġlo ss
hen s
Ġcur ses
ump ing
erv a
Ġcloak s
Ġdi adem
Ġhat s
Ġpocket s
abb ed
Ġcho ked
Ġing redi
Ġalarm ed
Ġcheer ful
Ġpub lic
Ġevid ently
Ġexplo ded
Ġjer ked
Ġannoy ed
Ġfo cus
Ġexch anged
fortun ately
Ġinterv iew
b ag
s pect
u ght
u ch
Ġ ice
Ġt ick
Ġs inking
Ġw ar
Ġh ic
Ġh ill
Ġf oul
Ġto re
it ing
it ching
Ġd ance
Ġl ab
Ġp uff
Ġg ate
Ġg inger
Ġe qu
Ġst olen
Ġre ck
Ġan cient
ĠP re
ĠThe str
ĠB E
Ġout st
ĠC ree
ĠC aptain
ĠY et
Ġfe at
Ġso bbing
Ġso bbed
qu id
Ġte ar
Ġch ose
Ġhand ker
Ġcl ue
Ġbeh avior
ĠNe xt
Ġac cus
Ġpr ick
ĠMin erva
Ġwa ist
ors es
Ġfeel ings
Ġmust ache
ne ath
Ġhor rified
Ġgu ilty
Ġact ing
Ġmon ster
abin i
Ġhung ry
Ġprom ise
Ġsne ered
Ġward robe
Ġsens ation
Ġench anted
Ġconce aled
Ġbuild ing
Ġcoo lly
Ġsucc ess
Ġcous in
Ġcarp et
ĠEnt rance
Ġhandker chief
S o
S ir
b and
d o
Ġt ense
Ġw ishing
Ġb ull
Ġc ared
Ġc ush
id ence
Ġd amp
Ġd aughter
Ġm ate
Ġl aw
Ġp itched
Ġg ates
im ent
Ġst ories
ĠT ra
ĠR u
Ġnot icing
Ġne cess
ĠF inn
Ġall ey
Ġli quid
ĠO ver
Ġde af
Ġfl ow
ol ores
Ġcont em
Ġtal ked
ĠQu ibb
Ġimp ress
ĠBl ood
Ġgre y
Ġdec or
Ġdrag ging
Ġcat ching
Ġtri p
Ġemer ging
Ġstrange ly
atur al
Ġpack age
Ġpossess ion
tern ational
Ġpassage way
ĠZ abini
ĠPo ly
Ġuncomfort able
Ġsour ce
Ġpump kin
Ġenthus i
Ġerup ted
Ġrap idly
Ġpajam as
ĠPort key
Ġthir teen
ĠCree vey
P er
a a
c ul
f a
i ving
i ves
j uice
n es
t ime
u ished
Ġs unk
Ġs illy
Ġw ine
ou b
Ġh arm
Ġb ree
ĠH or
Ġto ast
it ation
Ġc ra
Ġd ate
Ġd angling
Ġl ately
an while
ĠI N
et r
ir led
ĠM ore
ĠS na
ĠD olores
Ġre b
Ġwith d
ter day
ĠB erth
ĠG ilderoy
Ġj ar
Ġj acket
Ġso fa
Ġover heard
Ġpo ster
Ġsp inning
el a
Ġsc rew
Ġmy ster
ĠTh ose
Ġtr ay
Ġpre cise
ĠIn ternational
Ġbit s
Ġlight ning
lin t
Ġrec ord
Ġaw ful
Ġri gh
ĠSh ut
Ġexam ination
ĠFor bidden
Ġsaf ety
Ġtor n
Ġrat tling
Ġweak ly
Ġarg um
Ġreve al
Ġfist s
ĠSpell s
Ġmiser able
Ġmiser ably
Ġmurd ered
Ġsque aled
Ne ville
Ġwi ped
ĠPig widgeon
Ġconn ection
Ġopport unity
Ġbrisk ly
ĠMo aning
Ġweap on
Ġartic le
Ġextraord inary
ĠFinn igan
ĠPoly juice
A S
C H
E T
G H
I T
c ope
i pe
m n
m y
w ing
Ġ ille
Ġs ke
re sh
Ġh orses
Ġb ra
Ġb ite
Ġf et
Ġf aster
Ġf ash
ĠH as
at ive
at hered
Ġc ru
Ġc ough
as per
Ġd ut
Ġp aid
es h
Ġg ent
Ġg ap
Ġy ard
Ġst icking
et tle
Ġre ply
al ity
ĠR un
ack le
ĠB ones
Ġout r
ĠC ruci
Ġkn ot
ĠN imb
Ġv ic
Ġex asper
Ġno stri
Ġde lic
Ġcon d
Ġbl az
est ry
Ġcl ip
Ġcl icked
Ġcl amb
ond ay
Ġgr ind
ĠMalfoy s
Ġdis bel
ĠPotter s
Ġlo ved
ĠDe ar
Ġbet r
Ġpro spect
Ġpr oof
ign ed
iet y
Ġret reat
Ġfriend ly
ĠHall ow
ph one
Ġhor ribly
Ġscream s
Ġhit ting
Ġcomp et
Ġarri val
Ġbag s
Ġround ed
Ġsub st
Ġpur pose
Ġappro aching
Ġfa ith
Ġsus pected
Ġeas ier
Ġear lier
imm ering
Ġune x
ĠSm ith
Ġrev ol
Ġben ch
zz led
Ġsad ly
Ġsquee zed
ĠExp ress
Ġfang s
Ġdecis ion
Ġaccompan ied
ĠBroomstick s
ĠMaraud er
Ġingredi ents
ĠTra vers
ĠQuibb ler
ĠBerth a
Ġille g
ĠNimb us
V oldemort
b ed
h s
m en
in ion
Ġb oot
Ġf art
Ġf ond
is sed
or ce
ll ing
id s
Ġd ucked
Ġp ier
Ġbe et
ver n
ĠM al
ĠM ag
ut s
ĠW ar
Ġre ass
ay ing
Ġsh ield
Ġup side
Ġfr antically
Ġr ows
Ġr ub
ted ly
ĠN ice
Ġli kes
ud ed
ous and
Ġsc an
Ġsl iding
ĠTh ough
ĠTh ousand
Ġsw ooped
aus ted
Ġman age
Ġunder neath
Ġapp o
mb ol
Ġdr ank
iet ta
Ġper ched
ne cted
Ġcast ing
Ġres ent
Ġreturn ing
Ġinst ant
Ġri bs
ĠSh ould
Ġexam ined
Ġexpl an
Ġsoon er
uth or
Ġsix th
Ġsix teen
Ġpress ing
Ġve ela
ĠSever al
Ġign ore
ĠPar se
Ġdormit ories
Ġfro ze
Ġtra p
Ġposit ively
Ġdress ing
ĠAppar ate
Ġamong st
Ġgro aned
Ġjump ing
Ġshadow y
Ġsy mbol
Ġsuspic ious
Ġcand les
Ġsatisf ied
Ġrefle cted
Ġfee ble
ĠBr own
Ġtele phone
Ġillumin ated
ĠLestr ange
Ġash amed
Ġidi ot
Ġvelve t
Ġsuppor ters
Ġoutst retched
Ġfash ion
B e
M ad
l ace
t in
u ced
Ġh us
Ġb ones
Ġo ak
as hes
Ġhe ro
Ġhe dge
Ġm oun
Ġth a
Ġp it
Ġp udd
Ġp ush
Ġg ang
Ġg ather
Ġbe nding
ĠM onday
ĠS chool
ĠD O
Ġre ver
ĠThe se
un ting
ĠC ross
Ġr ude
ĠF lint
Ġli ed
Ġch at
Ġch ain
Ġqu ivering
Ġun s
bb ling
ĠTh ink
Ġtr uly
Ġfl ashed
Ġfl esh
Ġlet ting
mb led
ish ly
Ġend s
ĠSt ud
Ġsmall er
ĠAn other
Ġste ad
Ġste am
Ġkill ing
Ġri pp
Ġyes terday
Ġsent ence
Ġneck lace
eak y
Ġfif teen
Ġinv olved
imm ing
Ġbox es
Ġord inary
Ġghost s
ĠMar ietta
Ġprefect s
Ġpow der
amm ing
Ġbul ging
Ġunus ual
Ġconj ured
low ly
Ġcollap sed
Ġgent le
A fter
O M
T ER
a bby
e nd
g an
h ind
i ent
Ġ ver
Ġt art
Ġs igh
Ġf uture
at ic
Ġc ottage
Ġhe m
Ġhe els
en ced
Ġp up
Ġha mm
Ġg athered
ĠI nd
Ġbe ckon
ac le
ic is
ĠW he
ĠP ad
Ġse izing
rou s
Ġsh ivering
pe f
ĠC ertainly
ĠL eaky
Ġwhe e
ast ic
qu arters
Ġle ather
Ġde pt
Ġoff er
ĠE ng
are nt
est s
Ġcl ub
Ġsl umped
Ġsm o
Ġtr ace
Ġother wise
Ġfl ame
Ġen em
Ġpro ve
Ġac ce
Ġbed side
Ġste ady
li ver
vis ion
Ġvis ited
Ġpot ions
Ġrel ax
Ġmet al
Ġsus pe
Ġpract icing
Ġap olo
Ġcut ting
Ġir on
ĠApp arently
Ġnorm ally
Ġtra pped
Ġbas ilisk
Ġstrong er
Ġmot or
Ġsuspic iously
ĠAur ors
Ġguess ed
Ġhood ed
Ġdestroy ed
Ġpill ow
mist ress
Ġmount ain
Ġant id
Ġtap estry
Ġcrou ched
ĠAN D
Ġshoot ing
Ġfal se
quis itor
Ġsitu ation
Ġnostri ls
Ġunex pected
A ll
U M
a ly
f all
l ers
Ġt ank
Ġh oo
Ġh udd
Ġb ored
Ġhe al
Ġhe aven
Ġd rive
Ġm ed
Ġp airs
Ġp ouring
Ġin ten
Ġst ool
ĠS k
ĠS top
ĠW E
all ed
ĠC le
ge ons
Ġbut terbeer
Ġr acing
ĠF our
Ġwhe eled
ud ged
ink ling
Ġsu c
Ġsp are
Ġsc hed
Ġor ph
Ġtw ig
Ġsw inging
Ġop inion
Ġwhere ver
Ġhapp ens
Ġspe nd
ĠQu ick
ĠIn quisitor
Ġel bow
Ġres ist
Ġmist y
oun cing
Ġpres ents
Ġhurt led
Ġocc up
Ġass ist
Ġrememb ering
ĠPat il
Ġprete nded
Ġparticul ar
Ġbroomstick s
Ġfain tly
Ġdisg u
ĠNor bert
Ġenc our
ĠAppar ition
Ġsy mp
Ġcloud s
Ġpar ce
Ġserv ant
Ġpen etr
Ġexh austed
Ġmagn ific
Ġdistinct ly
Ġserp ent
Ġrele ased
ĠAb out
Ġcrump led
oub tedly
O ne
g r
i ally
s y
t urn
v in
Ġa uthor
Ġw o
ar ter
ar ias
Ġb al
Ġb oggart
Ġc ap
Ġd ully
Ġm ent
Ġm ud
Ġm ild
Ġm iles
Ġl ack
Ġl az
es ting
Ġsa ck
ot es
ro lled
ĠS il
ĠD r
Ġu pper
um ing
ĠC omm
ĠF ather
ĠN one
ĠN OT
ĠO liver
Ġro pes
ĠE v
Ġcon nected
Ġwor ks
Ġsc ur
Ġsl im
Ġtw isting
Ġar ch
Ġsw irling
Ġfl ower
ol ves
Ġpe ace
Ġhapp ier
ach arias
Ġhur ting
ĠSt unning
be y
aw ed
Ġsqu inting
Ġob s
Ġcontin uing
Ġsign ed
Ġgreen h
Ġwide ly
Ġmad ly
Ġadd ressed
Ġdem on
ĠRem ember
Ġdiscus sing
Ġeat en
Ġenc lo
Ġperform ed
Ġchee ks
ĠDisappar ated
Ġsmir king
Ġglimp se
Ġmotion less
Ġvict im
Ġgarg oyle
Sir ius
Ġscrew ed
Ġclip board
Ġhus band
I S
I ON
I LL
L upin
g s
y ard
Ġt ipped
Ġh ollow
Ġh arsh
Ġf ix
at hing
Ġto pp
Ġth irty
ĠI d
Ġwas te
ĠT e
ĠT ime
ĠD ung
ad d
Ġfor k
Ġsh are
Ġsh ame
Ġsh ade
Ġr umm
Ġr ushed
art ing
ĠO b
ul ted
Ġcon cl
Ġun kn
ie ce
Ġgl iding
Ġturn s
Ġar rest
od e
Ġdis like
Ġhapp iness
Ġafter ward
Ġlo c
Ġpro v
ont ague
Ġret rie
os p
Ġalong side
Ġdet ails
ci ally
Ġmist aken
Ġthick ly
Ġdirect ions
Ġunc ertainly
Ġdream ed
Ġemer ald
Ġflat ly
ho v
ĠHufflepuff s
Ġadv ice
Ġtow ering
Ġdun geons
AR RY
Ġholid ay
Ġmag az
ĠZ acharias
Ġcompl ain
Ġgra b
ĠWill ow
Ġsear ched
Ġsmooth ly
Ġresp ons
Ġurg ently
Ġrum ors
Ġblo ke
Ġner ve
Ġprog ress
Ġargum ent
orce rer
Ġdept hs
A L
O W
P E
g ers
h in
m ill
n ers
p or
t ion
u pp
u lf
Ġ vers
he st
he tic
Ġh ushed
Ġb ore
Ġo min
ĠH ARRY
at ch
as ons
Ġhe llo
Ġd iv
Ġm aze
Ġl an
Ġl ane
Ġth resh
Ġp apers
Ġin vent
Ġhis sing
ĠT en
ĠW itch
ent h
ĠD unno
al us
Ġsh ak
Ġsh iny
ĠB ar
Ġup right
Ġme asure
ĠF rog
lo hov
Ġch arge
Ġch ains
el p
Ġus eless
Ġsl it
ap es
Ġtw in
Ġgr ump
Ġthought fully
Ġen sure
Ġroom s
Ġpro ceeded
ĠCh ocolate
Ġsil k
Ġsec rets
Ġdes ks
ĠDo lohov
Ġimp r
Ġown er
Ġcr ammed
ĠSt u
Ġcur re
ib r
Ġbreat he
Ġres c
Ġpain ting
Ġact ion
Ġsort s
Ġdisapp ro
ĠFle t
Ġed ged
Ġforg ive
Ġru le
Ġgas p
Ġfill ing
Ġavo iding
Ġdare s
Ġrid icul
Ġtrave led
Ġhon or
Ġshrugg ing
Ġprotect ive
Ġkid s
Ġaccident ally
Ġsway ed
Ġrough ly
Ġdrif ted
ĠOU T
Ġenthusi astically
Ġmyster ious
Ġdut y
Ġfart her
Ġexplan ation
Ġstead ily
ĠInd eed
Ġsuspe nded
Ġthresh old
B l
N ot
e x
m are
r ons
w ood
Ġ i
Ġh id
Ġh ut
Ġf i
ĠH ER
it ions
Ġc ake
Ġd arted
Ġm al
Ġl ing
Ġl oose
Ġg all
Ġg own
Ġbe ast
Ġst amp
oo s
ĠM any
ĠM ontague
Ġu mb
Ġre aching
Ġfor med
Ġk ettle
ĠB us
Ġfr ustr
if tly
Ġv en
Ġv ac
Ġex ting
Ġpo king
Ġqu e
Ġyour selves
Ġbl oody
Ġbl inking
Ġsl ipping
Ġsw iftly
Ġrem ains
Ġsn orted
Ġdr ained
Ġche ss
Ġcr ooked
Ġcur tly
Ġob sc
ĠBe hind
Ġinst ance
Ġsto le
Ġexp ress
Ġpain fully
Ġdec ent
Ġmar ried
Ġdef i
Ġplay ers
Ġlea f
Ġexam ine
ĠEx actly
Ġmon st
Ġperson al
Ġtrou b
ĠLook ing
Ġtent atively
ĠRavenclaw s
Ġstret ching
Ġgri pped
Ġnarrow ed
Ġabs ence
Ġsnow y
Ġarg ue
Ġble w
Ġsho es
Ġlur king
Ġlamp s
Ġblock ed
ĠMer lin
Ġbird s
Ġgloom ily
Ġplain ly
Ġdu el
Ġvar ious
Ġdaz z
oh n
ĠHorn tail
Ġcell ar
Ġpu zzled
Ġilleg al
Ġparce l
Ġlan tern
Ġumb rell
H ow
I D
i os
l p
Ġt ur
Ġt akes
Ġs ou
Ġw re
Ġthe ory
Ġh int
ed s
Ġf us
at us
it ated
Ġc ause
en ces
Ġm as
Ġm ixt
Ġth read
Ġp el
Ġha iry
Ġsa ke
om es
Ġst umbled
ĠM aking
ĠS umm
ad es
ag s
ĠR idd
st one
ĠP OT
Ġsh immering
ĠG l
Ġme re
Ġr ad
Ġshe lf
Ġgo gg
Ġso ot
ud ging
Ġab ack
ĠO oo
Ġro pe
Ġro aring
Ġte ac
oy al
ĠWh ile
Ġsp y
Ġqu arter
Ġey el
Ġbl asted
est ig
Ġsl amming
ang u
ang es
Ġhow ling
gg ing
idd ed
ft y
Ġdis s
Ġdis pl
Ġrem ove
ĠNe ither
Ġflo ors
Ġam used
ĠIn fer
ĠJ ohn
Ġstr anger
Ġres ults
Ġtre asure
Ġinst rum
Ġrec ently
Ġide as
Ġcorn ers
Ġplay er
Ġswe ater
ĠAunt ie
Ġpat ting
ĠEvery thing
Ġshrie k
Ġadm ir
Ġtip s
Ġprom ised
Ġtremb led
Ġspir its
Ġborn s
Ġje ans
Ġbew itched
Ġappre hens
Ġund oubtedly
Ġsatisf action
Ġcour t
Ġcomfort able
Ġbelong ed
Ġincred ulously
Ġgul ped
Ġoccasion ally
Ġstream ing
Ġpou ch
Ġkiss ing
Ġdesce nded
Ġreappe ared
Ġaston ished
Ġcontr ary
ĠAcc io
ĠFel ix
Ġaband oned
ĠSure ly
asc in
Ġshrill y
Ġbree ze
Ġclamb ered
ĠHallow een
Ġmagnific ent
Ġobs ess
Ġdemon str
Ġmagaz ine
Ġdares ay
F udge
U mbridge
b all
g o
i est
k ins
n is
o x
u it
Ġ ;
Ġt im
Ġt ast
Ġt rait
Ġh y
Ġb ark
Ġb ub
or ter
Ġd aring
Ġm il
Ġm ort
Ġm ail
Ġl ugg
an na
ĠI T
ĠI g
ot ing
om y
Ġbe am
Ġe t
ir m
ĠM A
ĠW iz
ĠD ON
Ġre asons
ag ini
ĠR om
am ot
Ġsh uffled
ĠF rid
ĠN agini
ul ars
ep er
Ġch oose
Ġsp ite
Ġcon fess
Ġun mist
op ing
Ġpl ant
Ġcl apping
Ġor gan
Ġgr uff
Ġsw arm
Ġfl uttered
ĠĠĠĠ ĠĠ
Ġbr ass
lt ongue
Ġho st
Ġche ering
Ġmust n
Ġcr it
ĠIn stead
iff ere
ĠDeath ly
app y
Ġstr ained
Ġreal izing
Ġrec ent
Ġcomm unity
Ġmar ked
Ġpot ato
oc ulars
Ġunc on
Ġrep ro
Ġclimb ing
Ġinform ed
ĠGo blet
Ġwing ed
Ġhum ans
ĠLe ave
Ġadm itted
ĠSec ond
Ġbang ing
Ġcoun ting
Ġarg uing
eng amot
Ġconcentr ate
Ġzoom ing
Ġjinx es
ĠMer ope
Ġdefe nd
Ġgul p
Ġblond e
Ġpou red
Ġbrand ishing
We asley
Ġdim ly
Ġfeather s
Ġdeli ber
ĠMac mill
ĠSqu ib
Ġunlike ly
Ġhoarse ly
Ġdrown ed
Ġris en
ĠAd v
ĠOff ice
Ġcaut iously
ĠOwl ery
ĠThestr als
Ġfaith ful
Ġorph an
Ġslim y
Ġarch way
Ġunkn own
Ġlugg age
ĠWiz engamot
ĠMacmill an
K now
c ar
c oming
h ip
r at
Ġs ought
er ation
Ġo bey
ĠH aven
ĠH oney
Ġc ack
Ġc art
Ġc ars
or a
id y
Ġhe at
Ġd ive
Ġd well
Ġm ing
Ġl ops
Ġsa nd
ĠS ne
ĠW on
ĠW ond
ag ging
ke red
Ġse ize
am el
Ġsh aken
Ġsh attered
Ġsh abby
Ġsh apes
ĠB ane
ĠB rit
Ġout ta
Ġout line
ĠC he
Ġkn uck
Ġfe ared
ĠF ive
ĠL aw
ust ered
Ġv ig
Ġv ibr
our ish
Ġno d
ous y
ers on
Ġch im
Ġch icken
ĠE l
Ġbl ur
Ġbl urred
Ġwor rying
Ġpl unged
Ġwand ering
ĠTh ought
og ging
Ġtw itched
ang le
Ġgl owing
Ġgl inting
Ġfl ashing
Ġdis p
Ġspe eding
Ġpro ved
Ġdr inking
Ġent ering
Ġcr im
Ġnight mare
Ġsqu inted
Ġste ak
Ġdro ps
ĠSh all
Ġmeet ings
Ġins isted
Ġburst ing
abb ing
Ġreg ular
Ġattack s
Ġattack ing
Ġint ently
Ġgri pping
Ġstrugg le
ĠFl amel
Ġlove ly
Ġbang s
Ġmoon light
Ġur ge
ĠBlud gers
Ġreve aled
Ġhon est
Ġgrave yard
Ġsuff ered
Ġslight est
Ġrefle ction
Ġphotograph s
Ġsurv ived
Ġgigg ling
Ġscrat ching
Ġcas ual
Ġuncomfort ably
Ġtrack s
Ġtele vision
Ġsway ing
ĠWH AT
Ġjud ges
Ġindic ated
Ġawkward ly
Ġsav age
Un cle
Ġfet ch
Ġdisbel ief
ĠParse ltongue
ĠAdv anced
Ġlops ided
C ourse
F F
I M
W ho
a el
a ves
c ross
l and
p re
t aker
Ġs en
Ġw inning
re cy
Ġh ug
ed ly
Ġb ind
Ġb are
Ġb unch
is es
it es
Ġc ong
Ġc ost
as es
as ures
Ġl ung
Ġth umb
Ġp ul
Ġp ig
Ġp ity
Ġp ati
Ġp acing
Ġha b
Ġn atural
Ġsa ving
ac on
Ġst al
Ġst ore
ir k
ĠS l
ĠS pe
ĠS orcerer
ĠT re
ent ions
ke eper
Ġfor bidden
pe ople
pe cially
ĠB ook
Ġr oof
Ġj aw
Ġgo in
Ġwho ever
Ġle aping
Ġle gged
ink led
Ġpo pping
Ġch illy
Ġhand ful
ĠV an
Ġsc roll
Ġare a
Ġsl ug
Ġsl ipp
bb les
ound ed
ich ael
ave ment
Ġsw imming
ĠU se
Ġkne e
Ġkne eling
uff ling
Ġbot hered
Ġdr am
Ġmean while
Ġown ers
Ġcr ashed
ĠSt unned
Ġlight ly
Ġcur sed
ne w
Ġmind s
Ġple asantly
Ġcare taker
Ġeye ing
Ġind iffere
Ġsle pt
Ġgu ilt
Ġposs ibility
ron omy
Ġri g
Ġstuff ing
Ġacc ount
Ġins pect
Ġexcept ion
ount ain
Ġmid st
vo lo
ask et
Ġflat t
Ġstret ch
Ġlearn ing
Ġpun ct
ĠFl oo
Ġord ered
ict ion
Ġtroll ey
Ġhon estly
du kes
Ġamaz ement
Ġgrand m
Ġfee b
Ġshudd er
Ġpop ular
Ġbroad ly
Ġgreet ed
Ġscri bbled
Ġank les
Ġutter ly
Ġstern ly
book s
ĠDec ree
Ġskrew ts
Ġenchant ments
Ġblaz ing
Ġbeet le
Ġmixt ure
ĠPOT TER
ĠJohn son
Ġgruff ly
O nce
U S
W ell
a way
a iled
b reak
d uc
f l
i arm
p z
u ous
x y
y n
Ġt ro
Ġt ie
Ġt ugging
in c
Ġw ise
Ġw rest
Ġb ill
ĠH a
ĠH old
Ġl oyal
Ġp row
Ġg aped
Ġin h
an king
ĠI r
ĠI rel
om ping
Ġe vent
ac ingly
Ġst reaked
ic ted
ic ial
ĠM arch
Ġwe arily
Ġat e
Ġre lu
ur ry
Ġsh one
ĠHe pz
ĠC ourse
ĠC arrow
Ġr as
Ġr ot
Ġr umbling
il ar
to e
umb er
ant age
Ġag g
Ġte les
Ġsu ck
ig gered
Ġqu al
Ġun n
Ġsc attered
Ġcl icking
Ġsl ide
Ġsw am
Ġsw oll
th in
Ġunder ground
Ġrem ark
Ġac ted
uff s
Ġpr on
Ġgood ness
Ġcont ained
Ġflo ated
Ġche ers
Ġcr ate
ĠJ ork
Ġsur vey
Ġcur ly
Ġstud ying
ister s
ib ah
Ġob ser
Ġinst inct
Ġinc ant
Ġbad ges
Ġco ins
Ġco vering
iv id
Ġaw oke
Ġstraight ening
Ġswe ets
ĠKn ight
ĠEx pell
Ġacc ording
Ġfle et
Ġhurried ly
Ġpat ron
Ġdeath s
Ġtou ching
roll ing
ĠIs n
Ġve il
Ġint r
Ġass ured
ĠWizard s
Ġblank ets
Ġfro g
Ġadd ing
ĠFl uffy
Ġavo ided
Ġnarrow ly
Ġfrown ed
Ġguard ing
Ġabs olutely
Ġpost s
Ġspark ling
Ġconcentr ating
Ġjer k
ĠAm os
Ġamaz ed
Ġdesp ite
Ġpunish ment
Ġdrif ting
ĠMac na
Ġgrate ful
Ġdisturb ed
aim ed
ĠChas ers
Ġimpro ve
ĠBulgar ian
Ġbigg er
Ġreck ons
Ġnecess ary
Ġcontem pt
ĠHor ace
Ġbeckon ed
Ġimpr ison
Ġridicul ous
Ġexting uished
Ġumbrell a
ĠFrid ay
Ġunmist ak
Ġorphan age
rat ul
ĠHoney dukes
ĠSne ak
Ġgrandm other
ĠIrel and
Ġrelu ct
ĠHepz ibah
Ġswoll en
A r
A CK
E x
L D
M oody
S ome
_ _
c ra
f oot
h and
j o
r am
t ory
w ater
Ġ `
Ġt in
Ġt ucked
Ġa ward
Ġs in
Ġs ized
Ġh ugged
er al
Ġf ascin
ĠH anna
it te
Ġm ant
Ġm ale
Ġl imp
Ġg ift
Ġn in
le ct
Ġsa l
Ġbe aded
Ġhis tory
Ġst ack
ic s
ic kered
Ġwh irled
ro p
ĠM ichael
ĠS H
ĠS ept
ĠT urn
st ronomy
ack ing
Ġk issed
un ic
ĠC ad
Ġme ad
and el
Ġr uck
Ġr ushing
Ġfe ver
ĠF OR
if y
Ġj udge
Ġgo ble
ĠDumbledore s
ul ous
ĠYou Know
Ġpo ked
Ġch ill
Ġcan v
Ġsee k
bb orn
Ġsw er
Ġfl uttering
ĠU p
Ġbr ut
Ġbr ick
Ġmoment arily
Ġsec ure
Ġsn iggered
Ġown ed
Ġgi ves
Ġper i
Ġstr ing
av ies
Ġbeg in
Ġfire light
ĠAn im
Ġmout hed
ĠAr ith
amp ire
li v
ĠBe aters
Ġsna p
Ġcar ved
Ġunderstand ing
ĠEx tend
Ġteam s
Ġpat ted
Ġconf ident
Ġprot ected
Ġinv estig
ĠAny thing
Ġdisc over
Ġrat s
Ġfre ed
ĠWith out
Ġadd ress
Ġglo ves
Ġsubject s
Ġann ounced
Ġadv anced
ĠMar volo
Ġattempt s
Ġsne aking
Ġcheer fully
ĠDel umin
Ġconcentr ation
Ġmus ic
Ġpay ing
Ġblock ing
Ġmer people
ĠMe anwhile
Ġstri ke
Ġresp ond
Ġben ches
ĠDisappar ate
Ġtort ure
Ġtort ured
Ġviol ently
Ġval u
ĠFel icis
Ġexperi ence
Ġchuck led
Ġcow ard
Ġprison ers
Ġstu bborn
co at
do or
Ġalley way
Ġprecise ly
Ġcru el
Ġexasper ated
ĠStu pef
iarm us
ĠIr ish
ĠJork ins
ĠMacna ir
ĠHanna h
itte e
ĠSept ember
C T
a is
l ted
m a
s ite
v ad
Ġ 3
Ġt it
Ġt as
Ġs arc
Ġh ar
er a
Ġb ars
Ġb oring
Ġb ouncing
Ġf ish
at hed
Ġc ream
Ġc akes
Ġc ards
Ġc reaked
or ks
Ġm or
Ġm uddy
Ġp al
Ġp alm
Ġp inned
Ġp ipe
Ġg rief
Ġsa us
om b
ĠS it
ĠS ick
ĠT er
ĠD avies
ri gg
ĠA stronomy
ĠP ut
um st
pe cto
ge nd
Ġr im
Ġr inging
Ġr agged
Ġso le
Ġso bs
Ġag ony
Ġde velo
Ġte aring
ĠWh omping
Ġpo d
Ġch ur
Ġqu arters
Ġun h
Ġcl atter
Ġor n
Ġgr itted
Ġfl own
Ġfl icked
Ġfl ask
Ġfl ickered
Ġlong ing
od ay
Ġunder t
Ġunder age
ber ts
Ġsn akes
uck y
Ġbeg un
Ġple asant
Ġste ep
Ġrest r
Ġinc lin
Ġrec o
Ġdro ve
ĠEr rol
Ġdet entions
Ġmove ments
ati ves
Ġcomp ared
man cy
Ġser ies
Ġconf idence
Ġunc ont
Ġyell s
Ġcent uries
ug ust
Ġinv ited
Ġbat tered
Ġcons cious
Ġtem por
ĠLe g
Ġbow ler
ĠSec ret
Ġghost ly
Ġprom pt
Ġadv antage
Ġabs ent
OR E
Ġtroll s
Ġperm itted
Ġsho ved
Ġgame keeper
Ġinj uries
Ġfun eral
Ġcour age
Ġupward s
Ġdisappo intment
Ġproud ly
Ġblind ing
Ġmount ains
Ġstir red
Ġdesp air
Ġunw ra
Ġcrou ching
Ġyawn ed
Ġrese mbled
Ġanim al
cher s
Ġcamp site
Ġneat ly
Ġtot al
Ġaut om
Ġfan cy
Ġembarrass ed
Ġbush y
Ġhic c
Ġdeaf ening
Ġimpress ive
Ġwithd rew
Ġgrind y
Ġbetr ayed
Ġsubst ance
Ġment al
Ġtopp led
ios ity
Ġwre ck
Ġming led
Ġknuck les
Ġfeeb ly
ĠExpell iarmus
Ġpatron um
Ġgoble ts
ĠArith mancy
ĠDelumin ator
A M
B LE
D o
G inny
S omething
e lf
h ot
h od
l ooking
p ost
s ack
u ish
z o
z es
Ġ ze
Ġt y
re ne
ed alus
Ġb arm
Ġb ounced
Ġb acon
Ġb asket
Ġf ence
Ġf ountain
or g
id ents
Ġhe ll
Ġhe el
Ġd ared
Ġd arting
en ess
Ġl one
Ġl aun
Ġl angu
Ġth ief
Ġp ausing
Ġp avement
Ġg ir
Ġe er
ic ol
ic ated
ĠS lowly
ĠW ow
out h
ent ial
ĠD ementor
ĠD edalus
st ruck
ĠA T
Ġse rene
Ġk ick
ĠB ode
Ġr are
Ġj ug
Ġj olt
Ġch ap
Ġun b
ĠPro bably
Ġwor n
Ġcl iff
Ġmy st
Ġtw itching
Ġtw inkling
ĠBut terbeer
Ġsw ore
Ġfl ushed
Ġen s
Ġwat ery
Ġspe nding
ĠCh ang
ĠCh osen
Ġam using
uck ing
ater ial
Ġcur iosity
Ġblack ened
Ġem otion
Ġhair s
Ġjo king
Ġfriend ship
Ġcomm unic
rac ting
Ġlow ering
Ġhope ful
Ġdef ense
Ġdef ens
Ġinte nded
ĠEx pecto
Ġins ist
Ġvan ish
Ġplan ned
Ġspr inting
Ġappro ach
Ġsus pect
oon y
Ġhang ings
Ġvisit ors
Ġeag le
Ġtall er
Ġdisg r
Ġcirc umst
Ġdep arted
Ġdep artment
ĠNever theless
Ġpol ished
Ġpol itely
Ġcharm s
Ġsnat ching
Ġgloom y
Ġincred ible
ĠCould n
Ġgener al
Ġmain tain
Ġant i
Ġfair ly
Ġdu eling
Ġdev oted
Ġprefer red
Ġthunder ing
Ġviol ent
Ġstiff ly
Ġsepar ated
Ġglimp sed
ĠOWL s
Ġgras ped
ĠChas er
Ġintrod uce
ĠRo berts
Ġsunk en
ĠMal kin
Ġtrap door
Mad am
Ġmoun ted
Ġpup ils
Ġhudd led
Ġlaz ily
ĠComm ittee
Ġretrie ve
Ġcurre ntly
Ġmil k
ĠSneak os
Ġruck sack
Ġcanv as
ĠAnim ag
Ġvalu able
Ġuncont roll
Ġprompt ly
C h
D udley
I C
O P
T S
U N
Y es
l ong
m osp
v y
v id
w are
w olves
y ll
Ġt ing
Ġt ents
Ġt ugged
Ġa h
Ġa ud
Ġa ching
in ts
Ġs ess
Ġw oken
Ġw rigg
ou et
er ted
ar ling
Ġb und
Ġb olt
Ġb ike
ĠH erm
ĠH and
ĠH IM
at s
at ors
Ġc am
Ġl ady
an ia
le cted
Ġsa cked
Ġe lder
ac les
ve ying
ĠD et
ĠD irk
Ġre dd
Ġre quire
al k
ĠR ook
ĠR est
ĠA ugust
Ġan tic
ĠRon an
Ġsh aw
Ġsh ows
Ġsh rive
ĠHe aler
ĠHe lp
em b
un ched
Ġwere wolves
Ġbut ton
Ġgo vern
ĠN E
Ġle gend
Ġab ility
ĠO mn
ist ered
Ġch andel
Ġoff icial
iz z
ĠE aster
Ġun fortunately
Ġbl own
ĠV ol
Ġsc ut
Ġsc ore
Ġsc ales
Ġsee king
Ġpl ump
Ġar rog
Ġpe arly
ĠVoldemort s
Ġlo ad
Ġbr u
Ġpr ide
Ġho isted
Ġatt itude
ĠQu ite
ĠIn side
Ġgreat er
Ġsk ill
Ġsk idded
Ġmagic ally
Ġdead ly
ĠHead s
ĠSh h
ĠSh ield
ĠEx cuse
Ġdire cted
Ġhat red
Ġins ane
Ġinter f
lock ed
Ġprot r
Ġrep res
Ġspr out
ĠWizard ry
ĠAny one
Ġtor ches
Ġimag ining
Ġdoub ted
Ġhot ly
ĠSec recy
Ġcre ep
ĠIm ped
Ġshop s
wh at
Ġforce fully
Ġpack ing
Ġwarm th
Ġconce al
ĠMudblood s
Ġexist ence
Ġunus ually
Ġurg ent
Ġscree ched
Ġyawn ing
Ġflick ering
Ġswell ed
Ġwid ened
Ġach ieved
Ġdesc rib
Ġtransp arent
Ġneighb ors
ackle bolt
ĠCruci atus
Ġpudd ing
Ġgather ing
Ġenem y
Ġtwig s
Bl ack
Ġven om
Ġdazz ling
Ġsou p
Ġteac up
Ġtast e
Ġbub ble
ĠWond er
Ġhab it
Ġrig id
Ġsurvey ed
cra ft
Ġperi od
ĠExtend able
Ġchur ch
ĠRook wood
ĠOmn i
F r
N ow
R A
a ired
e nded
j ected
m pt
x ed
Ġ 2
Ġ es
Ġ rou
Ġt apping
Ġb iz
Ġb owing
Ġb read
Ġf em
Ġo ri
ĠH ar
ĠH mm
Ġto mb
Ġc ries
ll ow
id ently
Ġhe aving
Ġm ourn
Ġl arg
Ġth umping
Ġp ace
Ġn udged
Ġy el
Ġbe nd
ac ious
ac ts
Ġst if
Ġst ooped
Ġwh im
ĠM and
ĠS und
ĠS aid
ĠT oday
Ġas t
Ġat mosp
Ġre ward
st ones
st anding
ch ley
ĠA vad
Ġse ated
um os
ĠB el
ĠB est
em ents
ĠG u
ĠG old
ind ly
Ġkn ight
Ġr uddy
ĠN umber
Ġso b
Ġle ap
Ġno ble
ul arly
ff ee
Ġte en
Ġch attering
Ġoff ering
Ġsp illed
Ġhead mistress
Ġcom b
pt ion
Ġfl aming
ĠU P
omet imes
Ġen er
ab outs
Ġwhere abouts
Ġtell s
Ġdis h
te nded
Ġbr an
Ġnever theless
dd en
ish ment
Ġho vering
Ġsn out
Ġdr unk
hen sion
ons ense
Ġcr ashing
Ġcle aning
rew d
Ġcur ved
Ġper f
ip s
Ġsk inny
Ġfire s
ĠUn f
Ġcare er
ric ted
Ġres umed
Ġtre m
Ġdeep est
ere nce
umm y
ĠSh acklebolt
Ġbus hes
ĠRe ady
Ġarri ve
bo x
Ġcomple x
Ġref using
Ġmist ress
Ġkitchen s
Ġexpl aining
ĠBag shot
Ġears hot
Ġru ined
Ġpress ure
ĠGo blin
Ġass ume
Ġfre qu
Ġfright ening
Ġadd ition
Ġshrie king
Ġgrou ps
Ġimmedi ate
Ġenjoy ed
Th at
Ġele ct
Ġgrabb ing
Ġdep art
ring ton
LE Y
Ġsne ering
Ġaff ord
Ġeffort s
Ġsuff ering
Ġslee ves
Ġspread ing
Ġban ned
AN G
Ġunple asantly
Ġcarri ages
Ġsurv ive
Ġgrand father
Ġtriumph ant
Ġearn estly
Ġsepar ate
Ġeng ine
Ġexperi enced
ĠSqu ad
Ġanim als
Ġrust ling
Ġiss ued
Ġswell ing
Ġdism iss
Ġrequ ired
Ġank le
Ġdistracted ly
Ġden y
Ġdisgust ing
Ġimmense ly
Ġfeat ures
Ġprick ling
Ġcush ion
Ġflow ers
Ġscan ned
Ġapolo g
ĠBar on
Ġfi ery
Ġmal ic
Ġeyel ids
ĠInfer i
ĠBrit ain
ĠStupef y
Ġbarm an
Ġserene ly
Ġcircumst ances
Ġuncontroll ably
Ġchandel ier
ĠImped iment
ĠOmni oculars
Ġbiz ar
Ġlarg est
Ġatmosp here
A A
b ell
c om
f us
f orc
g l
m s
t ruck
Ġt u
Ġa id
Ġs ip
Ġh ooked
ed av
Ġf og
Ġto oth
Ġc ust
Ġd er
Ġd ug
Ġl id
Ġp iles
Ġg aping
Ġn amed
Ġn orth
Ġn ature
Ġbe zo
ac ter
us ter
Ġst ock
Ġst amm
ir med
ĠS ometimes
Ġre ven
Ġre jo
se c
ag er
ĠR es
ĠP ol
all en
Ġsh ip
Ġsh rewd
ĠB ow
ĠC ont
and om
Ġr ace
Ġr arely
Ġr andom
il im
Ġfe ed
ak y
ĠWe ird
ĠN ah
ast ered
Ġback s
Ġwhat so
Ġv om
ĠO uch
lf riend
ul ation
ss y
Ġch oo
ĠE ars
Ġhand bag
Ġun re
Ġbl owing
are r
Ġgot ta
Ġsc ars
Ġmo pping
ĠTh ick
Ġtr usted
ĠK end
ĠK edav
ving ly
Ġgl um
Ġgl owed
Ġar t
Ġgr ace
Ġsw ooping
Ġfl uffy
ĠU r
Ġim age
Ġpe cul
Ġpro cess
Ġpr ice
Ġho oting
Ġfeel s
Ġwind ing
Ġent r
ĠJ une
Ġsur veying
Ġblack board
Ġshout s
lin es
Ġunt idy
und ered
Ġbo bbing
Ġfore ign
Ġpain ted
Ġstra w
ere r
ĠAl ways
Ġempt ied
Ġcorn ered
Ġri ver
Ġhope lessly
Ġdef ensive
Ġexc l
Ġcomp an
Ġarri ving
Ġmet hod
Ġbu z
Ġfree zing
Ġstre wn
Ġsleep y
Ġev ents
Ġcoll ided
Ġinv ol
Ġdeser ved
Ġtem pt
ĠLe v
ĠLe an
Ġcre eping
Ġdrink s
Ġforget ting
Ġuna ware
Ġje al
ĠBur kes
Ġfollow ers
Ġsho pping
Ġslee k
Ġsens es
ias m
io let
Ġamaz ing
ĠWould n
Ġdefe ated
Ġserv ice
Ġtreat ed
Ġcas ually
Ġlad der
Ġshudd ered
Ġjud ging
Ġgest ure
Ġthousand s
Ġshif ting
ĠST U
Ġindic ating
Ġamb ition
Ġscow led
Ġflood ing
Ġscri bbling
ĠHA VE
ĠBet ter
Ġsniff ed
Ġglee fully
Ġbuck et
Ġfrag ment
Ġequ al
ĠRu fus
Ġoutr aged
Ġvic ious
Ġretreat ed
ĠWar rington
Ġhamm ering
ĠWhe e
ĠPad ma
Ġsmo king
ĠSk rew
Ġsuc ceeded
Ġsched ule
Ġencour ag
Ġsymp at
Ġpenetr ate
gr own
Ġvictim s
ĠSumm oning
Ġdiss olved
Ġsand w
Ġsen sed
Ġlung s
Ar ry
Ġsin ister
Ġmant elp
Ġstubborn ly
ĠLeg ilim
Ġautom atically
Ġlaun ched
Ġgir lfriend
Ġes pecially
Ġori gin
ĠSund ay
ĠAvad a
Ġbran ch
Ġwhatso ever
ĠKend ra
ĠKedav ra
D e
O ut
S ever
T H
U R
b ye
b ike
e k
h ood
h ouet
p lo
s ers
t ies
t hen
v or
v iously
w rit
Ġt ar
Ġt act
Ġt ale
Ġt angled
Ġa is
in ent
in th
Ġw inking
Ġw ider
ou ched
Ġb one
Ġb anged
Ġf ed
Ġf ading
Ġto es
or se
or ious
Ġhe ir
en nis
Ġm im
Ġm aterial
Ġl unged
Ġp arted
Ġg it
Ġin qu
Ġin ex
om s
ac ted
ld rons
ve rell
et her
Ġwh imp
ĠM E
ĠM om
ĠT old
ĠW ed
ĠW ILL
ĠD ay
ĠD ipp
Ġat tend
ri um
ĠA p
Ġfor ty
Ġse ll
Ġse aled
um n
ter ge
ĠRon ald
ard on
pe nd
Ġher s
Ġfr antic
Ġdo e
un p
ĠC ole
Ġr uffled
ĠL umos
Ġli vid
Ġex ec
ul sion
Ġch ances
Ġch asing
old ed
Ġany thin
Ġsp here
ĠE nded
Ġus es
Ġpl ants
Ġsl its
Ġwand ered
og er
og an
ate ver
Ġsm art
Ġgl ist
Ġsw ive
Ġman ner
Ġclo s
Ġatt ached
Ġatt ract
Ġfind s
ĠBl ast
ĠBl otts
Ġbit ing
ĠSt ay
ĠSt urg
Ġblack ness
Ġstr ang
Ġsqu ashed
Ġste w
Ġgre asy
Ġmouth s
Ġmouth ful
urs day
Ġcau ldrons
Ġbelie ves
Ġbo iling
ĠGr im
Ġcomm and
Ġgu ests
Ġlot s
Ġaw ait
Ġheart ily
Ġgreen ish
Ġansw ers
Ġansw ering
Ġri p
ĠHead quarters
Ġinter rog
Ġpat ches
Ġperson ally
Ġbu ilt
lock s
Ġvan ishing
Ġrep air
Ġspr ing
Ġtri pped
Ġinv itation
Ġthro bbing
Ġreason ably
orth y
Ġform ing
ĠFl ourish
Ġcre aking
Ġdiscus sion
Ġpossess ed
Ġje w
Ġreve aling
Ġaff ection
ĠGalle on
Ġprev iously
Ġbeat en
ĠAm y
Ġspectac ular
Ġlawn s
Ġpill ows
Ġscrat ched
Ġexch ange
Ġstro lled
Ġsmir ked
Ġbother ing
Ġlad en
Ġgest uring
Ġsneak ed
Ġenthus iasm
Ġstorm ed
Ġgn ome
Ġscree ch
Ġbust ling
Ġner ves
Ġiss uing
ixt y
Ġwid ening
Ġscow ling
Ġident ical
Ġach ieve
Ġcush ions
Per cy
Ġske let
Ġpier cing
Ġripp ling
ĠEng lish
Ġmotor bike
Ġantid ote
Ġhoo ps
Ġauthor ity
Ġmild ly
ĠDung b
add ock
Ġomin ous
Ġshak ily
Ġgrump ily
Ġling ered
Ġmas ked
ĠRidd les
Ġdeliber ately
Ġvig or
Ġcong ratul
Ġflatt ened
Ġinh ab
Ġunmistak able
ĠCad ogan
Ġtas ks
ĠSick les
Ġundert one
ĠSneakos cope
Ġcam era
Ġfem ale
Ġbizar re
Ġbezo ar
Ġpecul iar
Ġmantelp iece
terge ist
ĠSturg is
B y
C r
H er
K E
K S
Q U
T o
a ust
b anks
c r
f e
g us
l m
m aker
u ber
w orks
Ġ 4
Ġt urb
he m
Ġa ver
Ġs ul
Ġs ons
Ġw inked
re en
ou nts
ed le
Ġb ould
Ġb ully
Ġb unk
Ġf umbled
Ġf erv
ĠH on
ĠH oke
ĠH urry
Ġc a
Ġc ub
Ġc rawled
Ġhe ap
Ġd ot
Ġd ign
Ġd uck
Ġd ashing
Ġd ais
Ġm old
Ġm ound
Ġl imb
Ġin her
an n
an ked
Ġn aturally
Ġsa llow
Ġy ards
om bs
Ġwas ted
Ġwas hed
Ġst arry
Ġst ones
ic hes
ion ed
ĠM ind
ĠT op
ĠD em
ĠD aw
ĠD ennis
Ġre in
Ġre action
ag gy
ĠR ed
st e
ri g
ch aun
um s
Ġsh ivered
Ġlook out
ĠB as
ĠB ig
ĠB ox
Ġme al
Ġfe ars
ĠL ast
ĠN aturally
Ġback ing
Ġv ampire
ĠO ther
Ġro be
Ġal ert
ct or
Ġover grown
ers ed
iz ation
Ġcon du
Ġhand writ
Ġun in
Ġpl acing
Ġcl as
Ġcl aim
Ġsl owed
Ġwand light
Ġhead line
ĠTh ursday
og ether
Ġhow led
The ir
Ġdoor kn
Ġgl ided
Ġsome what
ol ia
Ġman e
Ġpre cious
Ġim per
th orn
Ġpr at
Ġcont aining
Ġdark er
Ġtal ent
ĠJ us
Ġday light
ĠSt re
Ġside car
Ġfin ishing
Ġfell ows
Ġsmall est
Ġcare s
Ġste aling
Ġappe aring
Ġres ign
Ġtop most
Ġscar ves
ens ion
Ġad vent
ĠSe ven
Ġdet ect
Ġmar ching
Ġcat s
Ġri pping
ĠSh unp
Ġpoint less
Ġspell books
Ġref er
Ġbu ying
cl oth
Ġneck s
Ġed ges
Ġconf usion
ĠAt rium
Ġdream ing
oun ce
Ġyoung est
ĠEvery body
Ġwom en
Ġwrit hing
Ġdraw er
Ġdraw ers
Ġwood s
Ġgle amed
Ġcop ies
Ġfre ck
ho le
ĠYOU R
Ġterm s
Ġcoun ted
Ġspir it
Ġcirc ling
Ġgro an
Ġpol ite
Ġdra ped
Ġexcit ing
Ġdri ven
Ġstat ues
Ġrece ive
Ġjer king
Ġune asy
AN D
Ġdam n
ues day
Ġmurd erer
cto ber
Ġstro king
Ġslo ping
Ġsweat y
Ġshif ted
Ġchar ged
Ġreappe ar
Ġgn arled
Ġtransform ed
Ġbust led
Ġbrief ly
Ġmod el
Ġgras p
Ġcapt ure
Ġappreci ate
Ġborrow ed
Ġwitness ed
Ġpet rified
Ġdod ged
Ġdecor ated
Per haps
nes se
nes day
Ġcompet e
Ġboot s
Ġreass uring
Be fore
Ġrelax ed
Ġheal th
Ġinten se
turn ed
Ġinvent ed
ĠWitch craft
Ġdefi antly
Ġtrait or
Ġexception ally
ĠMarch banks
ĠCarrow s
Ġteles cope
Ġbrut al
Ġlone ly
Ġantic ip
Ġprotr uding
Ġstamm ered
ĠThick nesse
ĠLean ne
Ġorigin al
ĠWed nesday
ĠHoke y
ĠDaw lish
ĠShunp ike
A unt
I ST
L Y
R ON
f ixed
i ven
i ently
j ar
n olia
w he
y s
Ġt ough
Ġa jar
Ġh ind
ed y
Ġb ol
Ġf led
Ġf anc
Ġto wn
Ġc ooking
or ridge
or ian
id ering
Ġd ed
Ġd irt
Ġl at
Ġl ace
Ġp ine
Ġn onsense
Ġyou th
Ġhis s
Ġwh iz
ĠM on
ĠM ill
ĠS I
ĠT ot
ĠT oo
ĠT uesday
ĠW ish
ag ers
ĠR oger
ĠA bb
ĠP ince
Ġfor th
Ġse es
Ġsh ared
Ġsh ower
Ġsh aggy
Ġk idding
ĠB it
Ġfr ames
ĠG O
Ġme nd
and al
Ġr ack
Ġr ide
ĠF if
Ġall owing
Ġshe et
ĠWe lcome
qu ee
ĠO ctober
Ġno ses
Ġag ed
ul ting
ĠWh a
Ġsu gar
Ġch ased
Ġch allen
Ġsp o
Ġsp lin
Ġsp itting
Ġsp illing
ick y
Ġun se
Ġsc ru
Ġsc athing
Ġget tin
Ġcl attering
Ġcl anking
Ġwand maker
Ġtw it
Ġsm ug
Ġhow l
Ġvo l
Ġtr ained
ĠK illing
Ġgl are
Ġgl ory
Ġgr u
Ġgr udging
Ġsw ing
Ġsw ig
Ġfl apping
Ġwill ing
Ġpre c
Ġdis ag
ĠĠĠĠ ĠčĊ
Ġmu g
te enth
Ġfir s
Ġrem ote
Ġrem orse
Ġpro pped
Ġpro ceed
Ġsil houet
ple xed
Ġsn igg
Ġam id
ĠIn c
Ġcle arer
Ġsupp ress
Ġsupp orted
Ġel b
Ġschool bag
Ġra w
ip es
Ġstr aining
ty ard
Ġjo ining
Ġbeg inning
unt led
ĠAr gus
Ġbelie ving
Ġbo ar
Ġbo oming
Ġco vers
Ġsign ific
ĠAl though
Ġheart h
Ġmar oon
umm ing
Ġhall way
Ġser ved
Ġins ult
Ġbu bbles
Ġdanger ously
Ġed uc
Ġconf isc
Ġrep orted
oun ter
Ġgas ping
Ġreg ard
Ġcross bow
Ġpract ical
Ġquestion ing
Ġcoll e
Ġcoll ar
Ġwindows ill
Ġdisappe aring
Ġcol ors
Ġinv ite
Ġimag ination
Ġpun ished
Ġtrans fixed
Ġtem ple
Ġtra iling
Ġguard s
Ġadv ised
ĠIm ag
Ġpost ers
Ġconv ince
Ġpossess ions
Ġur ged
Ġremind ing
Ġje ering
Ġgro ped
Ġpol ice
Ġaff ect
Ġdri ving
ĠPe verell
Ġcompl icated
Ġpar aly
Ġprep aring
Ġmus c
Ġcour tyard
Ġnois y
ĠMer ry
Ġaim ing
Ġlim ping
Ġstir ring
ĠEn forc
Ġconst ant
No body
Ġdeli ver
Ġaston ishment
Ġdaz ed
Ġflood ed
Ġstar ving
Ġdel ivered
Ġprodu ce
Ġskrew t
Ġcandle light
Ġtick ets
Ġske pt
Ġcond itions
ĠMag orian
Ġfashion ed
Ġgreenh ouses
Ġstamp ing
Ġque ue
Ġobsc ured
Ġexpress ions
Ġmonst rous
Ġinstrum ents
Ġhy ster
Ġmort al
Ġet ched
ĠTre vor
Ġbill owing
Ġincant ation
Ġfleet ing
Ġfever ishly
Ġeer ie
Ġdisgr untled
Ġarrog ant
Ġrepres ent
Ġelect ric
Ġreven ge
Ġbuz zing
Ġwhimp ering
Ġclos est
ĠAmy cus
ĠEnforc ement
D ER
E A
G IC
I R
I GH
J ust
M in
R iddle
S E
U T
Y e
c ast
i ers
k o
n ut
o cc
p os
u ary
Ġ :
Ġt ant
Ġw ire
Ġh oop
ed eration
on se
on ze
on ko
er o
Ġb un
Ġb row
Ġf iled
ĠH ouses
Ġc rest
as er
Ġd umb
Ġd ried
Ġm es
Ġm ixed
Ġl ion
Ġp aces
Ġp aler
Ġp orridge
Ġg ar
Ġg if
Ġg rill
Ġin visibility
Ġn et
ĠI S
Ġwas h
Ġwas ting
Ġe ase
Ġst age
ic le
ic ent
ver t
ĠS er
ĠS ide
ĠW ant
ad ies
ur t
al ty
ag ger
ĠR ep
ĠA ren
ĠA RE
red it
ĠHe ir
Ġlook in
ĠB ack
ĠB og
ĠB ANG
Ġup ro
Ġme asures
Ġkn ives
ĠY er
il i
ĠF ort
Ġshe ets
ĠN et
ĠN icol
Ġli king
ort s
Ġv ivid
Ġle pre
Ġal tern
Ġte xt
ĠWh atever
Ġpo ke
Ġch art
Ġsp oon
ass ed
op es
Ġbl under
ĠV er
Ġcl ick
Ġhead stone
Ġmo an
ĠK N
ĠK ill
Ġthrough out
Ġgr at
inn et
ĠU N
ab ior
Ġlit tered
Ġbr onze
Ġpro dding
Ġcont orted
Ġarm ed
Ġche wing
Ġold est
Ġcr is
Ġcr ime
Ġgreat ly
ĠHow ler
Ġnew ly
Ġem plo
Ġper ch
Ġsk ul
Ġlif ting
ĠUn less
Ġsqu at
Ġsqu ash
ib yll
ĠAr my
urs es
Ġpart ner
Ġbo ss
Ġrest ing
ĠBe edle
Ġsna pping
ph ias
Ġinc ident
ither ing
igg ing
Ġco zy
ĠEr m
Ġdet ail
ĠSc abior
Ġact iv
Ġpot s
Ġbreath less
Ġswe ating
Ġblood shot
Ġrel ated
Ġrel atives
Ġins p
Ġsnake like
Ġrepe at
Ġhurt ling
Ġcross ing
Ġton es
Ġimport ance
Ġmeant ime
Ġve get
Ġint ent
Ġass ure
ĠDef ensive
Ġvisit ing
Ġcons idering
Ġpun ched
Ġpun ching
Ġrat tled
Ġdeser ve
ĠLe vel
Ġmaster s
Ġdesper ation
Ġadv ancing
ĠIm p
Ġsmell ed
Ġcrack ling
Ġdeal ing
Ġpri or
Ġroll s
omp re
ĠZ onko
Ġheadmaster s
Ġdri pping
Ġwin ced
Ġcompl aining
Ġmurm ur
Ġhig hest
Ġinj ury
Ġexplo sion
Ġspl uttered
Ġyellow ish
Ġrefle ct
Ġwhist ling
Ġfresh ly
ik ulus
Ġinf lu
Ġbelong s
Ġpersu aded
ĠFin ch
Ġgener ally
Ġmain ly
Ġexh aust
Ġlim ped
Ġstro ke
Ġmagn ified
Ġdesce nding
Ġearn ed
Ġboard ed
Ġwi pe
ĠTw enty
Ġconsider able
Ġwis hes
ĠFe eling
Ġfort un
Ġpred ict
Ġrequ est
Ġhex es
Ġarr ang
Ġarr anged
Every one
Ġseve re
Ġseve rely
Ġlab eled
Ġoutr age
Ġrevol ving
ĠMag nolia
Ġscan ning
Ġresent ful
ĠStud ents
Ġacce pted
Ġgreenh ouse
Ġvers ion
ĠFlet cher
Ġtroub led
Ġapprehens ive
Ġswarm ing
Ġrepro ach
Ġchim ney
ĠVan ishing
Ġtro ph
Ġpron ounced
Ġintr ud
ĠYouKnow Who
Ġsaus ages
Do bby
ĠAnimag us
Ġdescrib ed
Ġdepart ure
ĠBow truck
ĠDipp et
Ġvigor ously
Ġdoorkn ob
Ġadvent ure
ĠMill icent
ĠAbb ott
ĠNicol as
Ġlepre chaun
C E
C edric
E E
F il
O f
O h
R ita
S lughorn
T wo
a uding
b al
c ers
d e
g ain
h old
i ped
m on
p her
r ick
s k
v ol
w as
y m
Ġ est
Ġt ut
Ġt ested
he ry
Ġs id
Ġs orted
Ġw an
Ġw iz
Ġw ary
ing e
Ġb arn
Ġf ate
ĠH ope
it ating
as ingly
Ġd w
Ġd us
Ġl ime
Ġl asted
Ġp uffy
Ġp addock
Ġha ught
Ġg on
Ġg aunt
Ġn iff
le ts
om ers
Ġbe m
Ġst owed
Ġst reak
Ġst ained
Ġst umped
Ġst amped
Ġon ward
Ġwh it
ro ad
ro ck
ĠM is
ĠM ake
ĠM af
ĠS A
ĠS C
ĠS al
ĠS ibyll
Ġwe b
ĠW hing
Ġre ar
Ġre li
ur d
st ep
ke w
ĠP iers
Ġse ared
am pered
all s
Ġsh aring
Ġsh irt
Ġsh orter
Ġk it
ĠB ard
em s
Ġfr action
Ġfr uit
Ġne g
ĠY ep
Ġr ich
Ġr ange
ĠF en
ĠF unny
Ġj oy
ĠL I
Ġgo als
Ġso ld
Ġso cket
Ġv ap
Ġv iolet
ink s
ĠO N
ĠO R
Ġag itated
ra ught
Ġover come
Ġtheir s
Ġch or
Ġch ase
Ġdown ward
iz able
Ġsp rawled
ĠE ver
el z
Ġun ne
Ġun ner
Ġun fortun
ie ving
op y
Ġbl ot
Ġbl ink
Ġsc ored
Ġsc ooped
est ia
Ġcl amped
Ġsl ack
Ġcom in
Ġcom pr
ĠTh a
Ġsm ugg
ang ular
Ġsw orn
Ġfl u
Ġfl in
Ġfl apped
Ġman aging
Ġlo athed
Ġapp alled
ĠDe v
Ġeven ings
Ġbr ushed
Ġbr ushing
ated ly
Ġcont rolled
Ġho oted
Ġarm y
rie king
less ness
ĠDo xy
arm ed
Ġsur ge
Ġcur ling
ĠSo on
Ġra bb
Ġstr angled
ail ing
Ġour s
Ġfire works
ĠAn cient
Ġang le
Ġste ering
Ġob st
Ġpart ners
Ġbo omed
ey ed
Ġtre acle
ĠAs k
Ġfore arm
Ġfour teen
Ġfing ered
Ġfac ts
iv al
rif ic
Ġrel ation
Ġspot s
Ġacc ord
Ġpat hetic
Ġref use
ĠSn at
ĠSn ork
Ġprot est
Ġsim ilar
Ġcup s
Ġrep aired
Ġru bbed
ald a
Ġcoll ection
ĠSome where
Ġint rig
Ġmiss ion
isk y
Ġfro st
ĠTH AT
ĠDad dy
Ġlock er
Ġfer ret
Ġmess ing
Ġstrong ly
Ġbound ed
Ġhol es
Ġcrack ing
wh isky
Ġdest ination
Ġdeterm ination
Ġpan icked
Ġtrust s
Ġdiscus sed
Ġinn er
Ġproblem s
Ġglit tered
Ġsne er
Ġtrick s
Ġsuspic ion
Ġess ential
rilli ant
Ġdread ing
Wh y
ĠCorn er
Ġthreat ened
Ġmer cy
Ġpure blood
Ġarmch airs
sc ent
Ġunf olded
Ġpound ed
Ġabrup t
Ġpoison ous
Ġresp onse
Ġgigg led
Ġcorre cted
Ġindign ation
Ġaim ed
Ġsquee zing
Ġfaint est
Ġshudd ering
Ġgest ured
ĠSp innet
Ġgn omes
Ġglow ering
Ġsweet ly
Ġrum or
Ġbald ing
Ġwound s
Ġcow ering
Ġincre ased
Ġincre asingly
Ġcollect ing
Ġbigg est
Ġfocus ed
ĠPre fect
ĠRun es
Ġdelic ious
Ġcond ition
Ġappo intment
OM E
Ġinten s
Ġcap able
ĠSil ence
Ġscur rying
Ġrumm aged
Ġrumm aging
Ġrespons ible
Ġrespons ibility
Ġresc ue
ĠFlet chley
Ġgall oping
Ġfrustr ation
Ġgogg ling
Ġsoot hing
ĠOoo h
Ġdispl ay
Ġobsess ed
ĠMA GIC
ĠRom ilda
Ġcrit ic
ĠEl phias
Ġsavage ly
Ġbind ing
Ġslug s
Ġdram atically
yn ch
Ġagg ress
Ġinstinct ively
Ġswer ved
Ġinvestig ate
Ġfreed om
Ġsarc astically
Ġlangu age
Ġchap ter
ĠNE W
ĠCont rol
Ġais le
Ġturb an
ĠHon estly
Ġinher ited
ĠDem elz
Ġgrudging ly
occ up
ĠMaf alda
ĠWhing ing
Ġunne cess
Ġunfortun ate
ĠSnork ack
E ven
M e
V ER
h ound
i ence
i ans
i als
i ature
l amp
m ar
m at
p ting
s aid
u ously
v able
Ġ ut
Ġt iar
Ġa v
Ġa gh
Ġs ust
Ġs ixty
re es
Ġh olly
Ġh ilt
Ġh ugging
Ġh unting
er ating
Ġb oo
Ġb ond
Ġb ared
Ġf av
Ġf reak
Ġf ulf
Ġo we
ĠH estia
it ive
Ġc al
Ġc ock
Ġc reak
or re
ll e
Ġhe d
Ġd in
Ġd ren
Ġm arry
Ġm ill
Ġm ouse
Ġm oth
Ġl un
Ġl atter
Ġth rill
Ġth undered
Ġp us
Ġp all
Ġg ain
Ġg ained
an cy
le g
le cto
Ġbe lt
Ġbe ads
ac y
ac hes
ve led
Ġst ump
oo oo
et ed
ĠM ight
ĠM other
ĠS w
ĠS in
ĠS lu
ĠT ry
ut ed
Ġwe l
ĠW IT
ĠD I
ĠD anger
Ġas kew
Ġre lease
ur re
ĠR E
Ġ. ..
ĠA very
ĠA nt
ĠA lecto
ĠP od
Ġse ason
her ry
ter y
pp ings
ard ly
Ġsh red
Ġsh uffling
ĠB rilliant
ain t
Ġfr ail
Ġdo in
ĠG OT
ĠG ET
Ġkn o
Ġr out
Ġr ag
il ities
ĠF ollow
ak ers
if ying
Ġshe d
Ġj ets
Ġj abbed
ĠL ucky
ĠL ynch
Ġso ck
Ġex er
ĠO p
Ġro ast
ct s
Ġover whe
Ġsu cked
Ġpo pped
Ġch ort
Ġch ained
iz es
Ġsp in
ĠE ach
ĠE gy
Ġun be
Ġun bl
Ġbl ushing
are well
Ġcl aw
Ġsl ithering
ĠProfessor s
bb er
ĠTh rough
Ġtr ad
Ġtr agic
Ġsw ishing
Ġfl ared
Ġfl ustered
ol ution
Ġwat ering
Ġpe er
Ġpe eling
Ġdis ple
Ġlo athing
Ġpro f
ĠNe w
ress ing
ru ction
Ġwa iling
Ġwa iled
Ġdark ening
Ġatt ic
Ġsn ort
Ġsn ide
Ġche ered
ĠJ inx
ĠJ uly
Ġcle ve
ĠBl oody
Ġbit ten
Ġstand ard
Ġfew er
Ġper plexed
az ed
get ically
Ġset s
Ġset tle
Ġstr ain
Ġstr icken
Ġmat ching
os ing
ĠUn fortunately
Ġmut ter
Ġres ult
Ġres igned
Ġrest ed
sh ine
Ġrec all
Ġad vis
Ġcomm itted
Ġco ast
Ġmem or
raw ling
ron ted
Ġred uced
Ġmar quee
Ġbreath s
ĠSh ack
ĠSh rieking
Ġsurpr ising
Ġser ve
Ġspot ting
Ġacc idents
Ġfle x
Ġinter ven
Ġpat tern
Ġmis ery
vers ion
Ġed ging
Ġtrou sers
Ġsub s
Ġpare nt
ĠLook s
Ġshall ow
Ġreg ister
Ġcross ly
Ġpract ices
ĠSome body
Ġthr ashing
Ġve ins
Ġcut s
Ġass umed
Ġbat s
Ġpun ch
Ġgh oul
IN D
ĠTr ace
not iced
Ġhast ened
Ġtight ened
Ġweak ness
Ġenjoy able
Ġimpati ent
Ġbeard ed
ĠAppar ating
Ġperm it
Ġdefin ite
ĠPatronus es
Ġimm ob
Ġsuff er
Ġcharm ing
Ġirrit able
Ġirrit ated
AN T
Ġlur ched
ĠPo or
Ġinterrup t
Ġinf l
Ġgigg le
Ġblind ly
Ġkey hole
Ġpin cers
Ġslo pe
Ġconst antly
Ġchar ges
Ġchar acter
ĠST OP
Ġillumin ating
EN T
Ġunicorn s
Ġwis p
Ġfort une
Ġscra ping
Ġcaut ion
Ġdesc ri
ĠConf ederation
Ġprodu ced
ĠRo ad
Ġsuper b
ĠCl ass
Ġcontem pl
Ġdecor ations
Ġdelic ate
ĠPad foot
Ġunexpected ly
Ġhoo ves
Ġheaven s
ĠCle ans
Ġassist ant
Ġdisgu ise
Ġsymp ath
Ġenclo sed
Ġenclo sure
ĠOb viously
Ġconcl usion
Ġarrest ed
Ġdisappro ving
Ġlantern s
Ġpel ted
Ġcourt room
Ġpotato es
Ġcack led
erson ally
Ġcrim son
Ġslipp ery
Ġfascin ating
Ġmale vol
Ġtit le
Ġsole mn
Ġunh appy
Ġinclin ed
Ġtempor arily
Ġdefens ively
Ġbund le
Ġfrequ ently
Ġdismiss ively
ĠSkrew ts
ek ly
Ġexec ution
ĠDungb ombs
Ġferv ently
Ġca vern
Ġmold y
ĠStre et
Ġgru bby
Ġprec aut
ĠImag ine
Ye ah
Ġgrill es
ĠBog rod
ĠNet work
Ġgrat itude
Ġarrang ements
Fil ch
Ġbem used
Ġrabb it
ĠNEW T
ĠDemelz a
Me anwhile
Ġut most
Ġtiar a
Ġagh ast
ĠPod more
ĠEgy pt
D on
F le
K eep
M y
P ot
V ery
W ormtail
a que
b orn
c ut
c ent
c il
c orn
c ol
c iety
c ases
i ac
i que
k ers
l ook
m ates
n o
r s
Ġ 5
Ġ ï¿½
Ġt il
Ġt ying
Ġt une
Ġt ini
in al
Ġs an
Ġw oo
Ġw aking
Ġw rought
re scent
Ġh i
Ġh ook
on c
er ous
ar ant
Ġb ony
Ġf urn
ĠH O
ĠH aving
ĠH ippogriff
Ġto e
Ġto ss
is ingly
it aser
Ġc ul
Ġc redit
ll ig
ll ert
id ge
Ġd ung
Ġd ense
Ġd ining
Ġd abbing
Ġm ice
Ġm ask
Ġl aws
Ġp arts
Ġp ix
Ġp iled
Ġp aced
Ġp omp
Ġp ardon
Ġha ze
Ġn ap
Ġsa c
om pl
Ġe aves
ac c
ve red
Ġst ab
Ġst abbed
et t
ic he
Ġwh irl
ir ing
ĠM an
ĠM em
ĠM orning
ĠS ay
ĠS ix
ĠS upp
ĠT rying
ĠT ogether
ĠD own
st ers
ĠP ass
Ġfor b
Ġse m
um es
ĠRon s
ack ets
ĠThe ory
Ġsh am
ĠB all
ĠB een
ĠB oggart
Ġfr amed
ĠG one
ĠG ol
ĠG ab
ĠC ent
ĠC rescent
Ġme at
Ġme nded
Ġr on
Ġr iding
Ġr otting
Ġr umble
Ġfe eding
if orm
if acts
ĠWe re
Ġj ammed
Ġj aws
Ġgo ss
Ġso dden
ast or
Ġback f
Ġis land
ong s
Ġde b
Ġte ap
Ġoff ended
Ġsp i
Ġqu ant
ĠE duc
Ġun ited
Ġun iform
Ġbl ess
Ġcan opy
Ġsc aly
Ġsc andal
Ġpl anted
Ġpl otting
Ġcl inging
Ġsl apping
ap h
Ġmo ck
ĠTh ird
Ġtw itch
Ġgl orious
Ġgr unt
Ġgr ades
Ġfl utter
Ġunder water
Ġapp le
ĠDe ad
Ġbr im
Ġbr acingly
uff les
Ġwa il
Ġgood bye
rie lle
Ġdr aining
Ġche ery
ĠGe llert
ĠQu ill
Ġimp l
Ġent ertain
Ġcr own
Ġend ure
ĠSt at
Ġtable cloth
Ġblack m
Ġblack thorn
Ġra pped
Ġfound ers
Ġstr ings
Ġmat ted
Ġlif ts
av y
Ġcor p
Ġple ading
Ġste pping
Ġmin iature
ĠPet rified
Ġbelie f
ĠBe ater
Ġscar f
Ġcold er
Ġdist ract
Ġhor iz
Ġco ffee
Ġide al
Ġpers isted
Ġsign ature
ĠAl b
ĠAl astor
Ġaw oken
ci pl
Ġsince rely
Ġdi version
itc hes
Ġrel ent
Ġacc ur
Ġconf irmed
Ġstre aking
Ġsub d
ĠBell a
Ġnumb ers
Ġdream ily
ĠPr ote
Ġbene f
Ġru g
Ġsleep ily
Ġtri al
Ġappro val
Ġreg ained
Ġstupid ly
Ġpract iced
Ġopp on
Ġcent ury
Ġwarn ingly
Ġint im
Ġjob s
ĠCr ack
Ġhum or
Ġtem pted
Ġfright en
ĠTr ue
Ġadm ire
Ġstreet lamp
Ġfer oc
Ġabs urd
agg ering
Ġsurround ings
Ġconv icted
Ġconvers ations
Ġdisg usted
Ġarg ued
Th ough
Ġpri ze
Ġworth y
Ġenc ounter
Ġfaced own
Ġgrim y
Ġtrave l
Ġperm an
Ġtrick ling
Ġsmoot hed
Ġmurm uring
Ġlunch time
Ġfil th
Ġappl auding
Ġban ner
Ġspl attered
Ġlur ch
Ġmer rily
Ġincl uded
Ġfirepl aces
ĠMor an
Ġdefe at
Ġgigg les
Ġrubb er
Ġoccasion al
Ġscrat ch
cise ly
Ġkey s
Ġsuggest ion
Ġpunish ments
Ġdesce nd
ĠAcc ording
Ġrust y
Ġprevent ed
ĠOU CH
Ġdawn ed
Ġshr unk
Ġshr inking
Ġchin a
Ġcorrect ly
Ġaut ograph
Ġstu bby
ĠBoy s
Ġcomment ary
Ġenchant ment
Ġneighb or
Ġlump y
Ġfrag ments
Ġsuper ior
Ġtick et
Ġginger ly
Ġaccus ed
ĠSna pes
ĠHas n
Ġcru cial
ĠRun corn
ĠCruci o
Ġexasper ation
Ġgrind ing
Ġmoun ting
ĠStud ies
Ġtart an
Ġwhee zy
Ġenem ies
Ġmotor cy
Ġheal thy
Ġdisgu ised
Ġwo lf
Not hing
ĠHER E
Ġmonst ers
Ġfus s
Ġapprehens ively
Ġdemonstr ate
Ġuncon vin
ĠSecond s
Ġcack ling
Ġthumb s
Ġstal ked
Ġwrest ling
Ġunn aturally
Ġreluct antly
Ġnin ety
CT O
Ġaud ible
Ġsess ions
Ġscut tled
Fr om
Ġener gy
Ġglum ly
Ġtempt ation
Ġsandw iches
ĠLegilim ency
Sever al
Ġhandwrit ing
Ġboar hound
ĠVer itaser
ĠKN OW
Ġinflu ence
Ġtroph y
ĠDanger ous
Ġtini est
Ġeaves d
ĠGab rielle
Ġteap ot
ĠVeritaser um
A D
A l
B ER
C rouch
L ockhart
P P
S c
S lowly
U D
b ut
b oy
c ule
e es
e enth
f aced
h ard
i ks
m ind
n ie
o cus
w eed
y cross
Â ĵ
Ġ =
Ġ uttered
Ġt et
Ġt ucking
Ġt ension
he t
he arted
Ġa lo
in a
in itely
Ġs unny
Ġthe str
Ġh umming
er able
ar f
ar ies
Ġb ase
Ġb ump
Ġf iling
Ġf itted
ĠH ermion
ĠH appy
at t
Ġto pped
is hes
Ġc ook
or p
id get
Ġd ates
Ġd igging
Ġm erm
Ġl em
Ġl og
Ġl oos
Ġp ark
Ġp ond
Ġp oring
Ġp iped
le toe
Ġwas hing
us ement
us cule
Ġst acked
et ra
Ġwh ip
ir s
ir ts
ĠM ir
ĠM uff
ĠS E
ĠS ince
Ġwe ed
ĠW r
ĠW il
ĠD es
ad ora
Ġas se
Ġas so
Ġre ared
Ġre read
st ained
st rode
ĠA B
ĠA L
ĠP uce
ĠP ersonally
Ġse aring
ill usion
ack box
ĠB reak
em ed
Ġfr ank
un ts
un te
un ching
ĠC orm
ĠC urses
ĠC orre
Ġme lted
Ġkn el
ĠY ule
Ġr oo
Ġr ate
Ġr uff
Ġr amp
Ġr apt
Ġr acket
Ġr ags
ĠF am
ĠF ind
ak in
Ġshe l
Ġj og
Ġj ost
ĠL o
ĠL ife
ast ing
Ġex cus
ra ved
Ġro cket
Ġsu its
Ġch unk
Ġch ucked
Ġsp le
Ġqu ivered
Ġqu ality
ĠE N
ĠE le
Ġcon qu
el ting
el est
Ġun p
Ġun locked
Ġun noticed
Ġbl ade
Ġsc um
Ġsc are
Ġpl inth
Ġcl ump
Ġcl unk
Ġcl aws
Ġcl awed
Ġsl am
Ġtw il
ang ers
Ġdoor step
Ġvo lum
Ġtr acked
ĠK new
Ġgr an
gg y
Ġsw apped
Ġsw ift
Ġfl ag
Ġfl ush
Ġfl ashes
ĠU nd
ol es
idd ling
Ġlong ingly
Ġpre m
Ġsomet hin
Ġdis he
Ġbeh ave
Ġmu gs
te nding
Ġfir ing
Ġrem in
Ġpro b
Ġpro p
Ġpro dded
Ġshould ered
uff ed
ru it
Ġcont ain
Ġdark ened
ple te
Ġimp ost
Ġcr aning
ĠIn st
ĠSt r
ĠSt un
Ġfloor board
Ġnight s
Ġschool s
az ar
Ġret orted
Ġstr ay
Ġsk ies
udden ly
iss y
Ġquick er
Ġsqu id
Ġmost ly
Ġang uished
Ġmin uscule
ĠAr t
Ġappe ars
Ġob ed
Ġob liv
sh irt
ens es
Ġfore f
Ġcomm otion
head ed
Ġfur t
Ġcrowd s
Ġempt ying
Ġbreak out
rum ple
light s
Ġext racted
ĠHead mistress
ĠKn ock
ĠClo se
ub il
Ġinte nding
ĠEx cept
Ġhat es
Ġpower fully
Ġacc ess
Ġacc ompl
Ġfle e
Ġpat ched
ĠSn ackbox
Ġmist akes
Ġlay ing
Ġfree ly
Ġconf ided
Ġconf idently
Ġsaf er
oun ted
Ġpur ring
ason able
Ġreg istered
Ġsumm at
Ġesc aping
Ġimport antly
OU T
let on
Ġlead s
ĠCan n
Ġz at
Ġtor ch
ĠKark us
Ġdisc o
Ġdoub led
Ġhum ili
Ġanx iety
ĠWith in
ipp er
Ġsugg esting
ĠDigg le
ĠTo fty
Ġtip toe
Ġmess ages
Ġprom inent
Ġcho king
Ġabs or
AR D
Ġfinger na
Th ree
Ġcirc les
Ġsick ening
af a
Ġdep os
ĠAppar ated
Ġphot os
ĠBur ke
Ġdetermined ly
Ġstat ement
under st
Wh ile
Ġperform ance
Ġprep are
Ġmen acingly
Ġmus ter
Ġmus cle
Ġmus ical
Ġguess ing
Ġappl ied
Ġgra ves
ĠReg ulation
Ġoccas ions
ĠSm elting
Ġplatform s
Ġfo x
Ġmurd ers
Ġeffect s
Ġsurv ives
Ġpoison ed
Ġtreat ing
Ġbrand ished
Ġcas es
Ġsquee ze
Ġwhisp ers
Ġcountry side
Ġshif t
ĠBul strode
Ġgreet ing
Ġtot tering
ĠStand ard
Ġcelebr ation
Ġcelebr ating
Ġconn ect
Ġdisturb ance
ĠHang leton
ĠLestr anges
Ġprog ram
Ġimpro ved
Ġserp ents
Ġband ages
ĠHorn ed
Ġwitness es
ĠDoes n
Ġthreatening ly
ĠConf und
Ġpuff ed
ĠThestr al
ĠBE EN
ĠSna re
Ġretreat ing
Ġfond ly
Ġpier ced
Ġappo inted
Ġresent ment
Ġchat ting
Ġantid otes
Ġtank ard
ĠInquisitor ial
ĠEv ans
Ġomin ously
Ġslit hered
Ġgrump y
Ġresc ued
ĠHER M
Ġfrustr ated
Ġinstrum ent
Ġtim idly
Ġobey ed
Ġvibr ating
ĠSpe cial
Ġindiffere ntly
Ġloyal ty
Ġsuck ing
Ġqual ified
Ġimprove ment
Ġimprison ed
ĠTer ry
Ġorn ate
Ġunwra pped
Ġgrindy low
Ġwreck age
Ġty pe
Ġshaw ls
Ġgovern ors
ĠMand r
Ġmalic iously
Ġder is
ĠRes urre
Ġchoo sing
Ġgrace fully
Ġcompan ion
ĠWhee zes
Ġtar get
Ġglist ening
Ġawait ing
Ġinhab it
Cr ookshanks
Ġbould er
ste in
Ġtwit tering
Ġvol unte
Ġremote ly
Ġsnigg ering
IGH T
Min istry
Ġupro ar
Ġaltern ative
Ġveget able
Ġpredict ions
ym ph
Ġdw arf
Ġdus k
ĠSal azar
ĠSnat chers
occup ied
Ġdren ched
Ġtrad ition
Fle ur
Ġwoo lly
Ġsac rif
ĠStat ute
Ġalo ft
ĠHermion es
Ġasso ci
ĠPuce y
ĠCorm ac
Ġknel t
ĠResurre ction
B ell
D ORE
G E
G G
O Y
T om
U FF
W ood
Y et
b ru
c od
c ern
d ered
d ress
e f
g u
i ated
l ows
p an
u ction
w orm
w iks
x e
y es
Ġt ed
Ġt angle
he e
in ous
Ġh unt
Ġh unched
ar ian
nd ered
Ġb uff
Ġb idding
Ġb omb
Ġf ant
Ġf ab
Ġf ired
Ġf umes
Ġf idget
ĠH o
Ġto ler
it t
Ġc ant
Ġc ure
Ġc ores
as m
Ġhe y
Ġhe arts
Ġhe aled
Ġm ull
Ġm astered
Ġl am
Ġl umb
Ġl ousy
Ġp aws
Ġha g
Ġg illy
Ġn ails
Ġsa gging
ot ted
om plete
Ġbe ady
us ive
Ġst out
Ġst all
Ġst ove
Ġst roll
et ime
ic les
Ġwh ipping
ĠM ars
ĠS ame
ĠS ection
ĠT hing
ĠT ales
ĠW est
ĠW AS
ĠD E
Ġre act
Ġre acted
se qu
st ool
ĠA bs
ĠP eak
Ġse lling
am ble
pp y
all ey
Ġnot hin
pe lled
ĠB in
ĠB ad
ĠB oot
ĠG urg
un ities
ĠC our
ĠC lu
ĠC rumple
Ġkn itted
Ġbut t
Ġall e
Ġshe ll
Ġj unk
Ġj agged
Ġj ubil
ĠL ock
ĠN ymph
Ġso lit
Ġso aked
Ġwhe el
Ġli ar
Ġv irt
Ġle ct
Ġle aking
Ġle ering
Ġex it
Ġab road
ĠO rac
Ġno sed
Ġro ars
Ġro oted
Ġal ight
ul a
Ġte nd
Ġover t
Ġch ick
Ġch anges
Ġone eyed
Ġsp ort
Ġsp orting
ĠE X
Ġun wise
Ġun sc
Ġun rolled
Ġbl imey
ĠV ane
Ġcan ce
Ġsc attering
Ġpl ung
Ġpl umm
Ġcl inking
Ġmo aning
Ġtr amp
Ġgl int
Ġgl inted
Ġgl ances
Ġright s
Ġgr unting
Ġfl ipped
Ġman iac
idd y
ab or
Ġdis emb
Ġdis cipl
Ġlo ves
Ġlo omed
Ġapp arent
Ġspe c
Ġbr ood
Ġpro d
ĠCh amp
Ġtry in
ru g
Ġwa f
Ġho pped
Ġam usement
Ġdr ain
me nd
Ġput s
Ġpass ages
ĠIn ter
Ġsur re
Ġter rif
Ġsupp ressed
Ġsupp orting
Ġlight ing
Ġlight er
Ġwr inkled
Ġel abor
Ġnight time
Ġem ph
Ġem itting
Ġstr agg
Ġsk inned
Ġreal ised
Ġlif etime
Ġsqu irm
Ġang rier
ric tion
Ġste ered
Ġexpe l
Ġmin or
Ġappe al
Ġres er
Ġpart ies
Ġbo ils
ĠBe ans
ĠGr ade
ult ure
Ġco pper
Ġdec iding
Ġfur ry
Ġsign al
Ġheart y
Ġcomp re
Ġpointed ly
ĠFor get
Ġinter n
Ġinter jected
Ġmis underst
ĠSn uffles
Ġconf ide
Ġconf irm
Ġstre ets
sp ond
Ġunc ertain
Ġsub m
Ġrep ut
Ġdream y
ĠPr ongs
oun c
Ġbell y
Ġplan ets
Ġknock er
br ush
Ġclut tered
Ġreg ularly
Ġsumm on
Ġsumm oned
Ġcoll ected
Ġmad ness
Ġtent acles
Ġhop es
Ġocc ur
ĠSome how
Ġbar rel
Ġlead er
Ġcol umn
Ġsun shine
ĠDef initely
Ġz ero
Ġdisc onc
Ġfear ful
Ġcop ied
ĠTH IS
Ġtra il
Ġtra iled
Ġmark ings
Ġguard ed
ĠDis arm
ĠDis illusion
Ġdog s
Ġtail s
Ġsmell ing
Ġdust b
Ġtrust ing
Ġfavor ites
Ġbre eds
Ġnast ily
Ġworth less
Ġje ered
Ġgro ping
Ġalarm ing
Ġsuspic ions
Ġsho ving
Ġaff ected
Ġemb ro
Ġsqueak y
umin ous
Ġcloud y
Ġimm ort
Ġimm ersed
ĠWand s
Ġsuff oc
Ġperform ing
Ġexplo de
Ġmen acing
Ġsens ible
Ġagre ement
Ġcomfort ing
Ġcomfort ably
Ġannoy ing
Ġannoy ance
Ġincl ude
Ġstri p
Ġsque aking
Ne xt
Ġtest s
Ġincred ibly
OO OO
Ġpill ars
ĠMost afa
Ġbrand y
Ġpen alty
Ġscramb ling
Ġnewsp apers
ĠWH O
Ġexist s
Ġthunder struck
Ġaccomp any
Ġval ue
Ġvar iety
Ġeng ulf
ĠTw ice
ĠTw ycross
Ġconsider ably
Ġdrown ing
dge com
Ġiss ue
bel ie
Ġshr ank
Ġincre asing
Ġvict ory
Ġappreci atively
Ġthrust ing
Ġglee ful
Ġbuck led
Ġseve red
Ġprodu cts
Ġpurs uing
ĠPre cisely
ĠSna p
AS LEY
Ġbra very
Ġbetr ay
Ġsymbol s
Ġrever se
Ġgentle men
Ġver t
ĠWE ASLEY
Ġsuc ceed
Ġoccup ied
Ġbal ance
Ġscur ried
Ġflower y
ION E
Ġfix ing
Ġafterward s
Ġshak y
Ġpel ting
ĠIg n
Ġuncon cern
Ġdram atic
Ġinspect ion
Ġprow led
Ġdevelo ped
ĠSecret Keep
Ġgrindy lows
BLE DORE
Ġmyst ery
Ġshrive led
ĠHar per
Ġyel ped
Ġwhim pered
Ġmethod s
Ġjeal ous
Ġsympat hetic
Ġsul ky
Ġlimb s
Ġscathing ly
Ġsignific ant
Ġeduc ation
Ġconfisc ated
Ġskul king
Ġsquash y
ĠBowtruck le
Ġgon na
Ġchor us
Ġrelation ship
Ġpall id
Ġkno bbly
ĠOp en
Ġsympath y
Ġnap kin
ĠMem ory
Ġhoriz on
ĠAlb ania
ĠProte go
Ġasse mbled
Ġexcus es
Ġdishe veled
ĠKnock turn
ĠHERM IONE
ĠMandr akes
bru ary
wiks pell
ĠPeak es
ĠNymph adora
ĠOrac le
dgecom be
ĠSecretKeep er
A ST
E r
G e
H og
H alf
H ER
N one
P e
R OM
a ise
b les
c he
c opes
e ree
f or
f riend
f rog
f irst
g i
h am
i ate
l ig
l ation
l az
o ise
r ir
s ive
t urb
u ct
u ated
u ine
w eep
y in
Ġ ou
Ġt ion
Ġt arn
Ġt aps
Ġt asted
Ġt inkling
Ġt esting
Ġa pr
in ated
in ity
Ġs ang
Ġs herry
Ġw ig
Ġh ip
er ated
Ġb on
Ġb ridge
Ġb udge
Ġf arewell
Ġo il
ĠH osp
Ġto y
it ure
Ġc unning
as ured
or ingly
Ġd ing
Ġd ig
Ġd rows
en cing
en etra
Ġm op
Ġm ile
Ġm ult
Ġm arch
Ġm arsh
Ġl ure
Ġl ining
Ġth w
Ġth ump
Ġp aw
Ġha m
Ġha lted
Ġg in
Ġg uff
Ġg ames
Ġn ick
Ġn est
Ġsa uce
ly ing
Ġe ld
ve ls
Ġst ing
Ġst arts
ic ting
ic able
ic ient
ĠM Y
ĠM id
ĠM ason
ĠM oony
ĠS us
ĠS ens
ĠS orc
ĠS PE
ĠS isters
ĠT roy
Ġwe igh
ĠW atch
ĠD umb
ĠD ream
ĠD AR
ĠD raught
Ġas ks
Ġu m
Ġre new
al king
ĠR ow
ĠR el
ri ate
ch an
Ġan c
ĠP art
Ġse lect
her ing
pp ers
Ġsh ove
Ġsh iver
ĠB o
ĠB u
ĠC H
ĠC alm
ĠC OME
ĠC issy
Ġr ick
Ġr anks
Ġr aining
ĠF ight
ĠF ROM
Ġshe ep
ĠWe ekly
Ġj am
ĠL ie
ĠL oony
lo pe
Ġback side
ort ment
ide red
Ġv ain
Ġv alley
Ġv ulture
Ġle an
Ġle ague
ink ingly
ĠO i
ist ic
Ġro set
Ġover coat
ven ient
Ġsp ill
Ġsp ying
ĠE h
ĠE u
Ġun l
ie ur
Ġbl unt
ĠV en
est ruck
Ġcl ap
Ġcl ung
Ġcl oth
Ġcl ums
Ġsl ashed
Ġor b
Ġwand er
Ġmo ves
Harry s
Ġtw ist
Ġsm ashing
ound ing
ĠK wikspell
Ġgl imm
Ġar rows
Ġsw irl
Ġsw irled
Ġfl icking
Ġfl itted
Ġfl ailing
Ġthought ful
Ġman ager
Ġclo set
ft s
Ġdis rup
Ġlo ving
ĠShe ll
Ġrem ed
Ġbr ist
Ġpro c
Ġpro duc
ĠNo pe
Ġwa ves
ber ry
Ġho vered
Ġtal ks
Ġsn oo
Ġsn ores
Ġam ounts
per ation
Ġche w
Ġimp erson
ons ieur
Ġpass es
Ġcr amped
ĠJ ones
pl ain
Ġcle aned
Ġend less
Ġsupp ly
be us
Ġret ort
Ġret ired
app le
Ġstr ide
Ġsk ir
Ġsk ip
Ġjo kes
Ġair ily
Ġmat ches
ans hee
Ġfire whisky
Ġsqu arely
ĠPer kins
Ġste aming
ĠMoody s
Ġob lig
Ġres isting
Ġres olutely
Ġpart ly
li ato
Ġscar red
Ġinc ompre
Ġcou ghed
Ġdist ing
Ġad ult
Ġfour s
Ġexp osed
Ġco b
Ġco pe
Ġfather s
Ġgu arant
raw ing
iv able
Ġaw ed
Ġaw estruck
Ġstraight away
ene ath
rum s
Ġdi al
Ġdi am
Ġdi pped
Ġext ract
ĠSh ame
ĠKn uts
Ġinte llig
Ġexam ple
ĠEx pect
ĠFor g
Ġround ing
Ġref us
Ġref eree
Ġfast ened
Ġmist letoe
Ġbooks he
esc ue
Ġbell owing
Ġtri pping
Ġshock ing
Ġph r
Ġdraw ling
Ġcreat ed
Ġthr ong
ĠGo ing
Ġrepeated ly
Ġass uming
Ġass ortment
Ġign ited
Ġsun lit
Ġbat tling
Ġtrain ers
Ġvisit s
Ġz ig
Ġgle am
Ġmir ac
Ġmir th
Ġmir acle
Ġblank et
Ġform s
Ġtruth fully
ĠLe aving
Ġgrou ped
Ġglo ating
ĠFl avor
Ġord ering
Ġmark ing
Ġmess ed
Ġadv ise
Ġbound s
Ġtow el
Ġstaff room
Ġgray ish
Ġmass aging
Ġbre ed
Ġnotice board
Ġsick ly
Ġrock y
Ġgen ius
Ġgen uine
Ġtrick y
Ġtrick le
AT ION
Ġess ence
Ġaff ronted
Ġdri ft
Ġemb laz
Ġwin cing
Ġcro cod
Ġconcentr ated
Ġspl ashing
Ġkid na
Ġsque aling
Ġbab ble
Ġdelighted ly
Ne ither
Ġgener ous
Ġsquare s
Ġtoad like
Ġlim it
Ġstro ked
ĠEn ough
Ġsmir k
aun ts
Ġpin stri
Ġjud g
Ġtriumph antly
Ġreappe aring
eless ly
Ġcontr ad
Ġconj ure
ĠCare ful
Ġrust le
With out
Ġblo ss
ĠFe bruary
Ġbrief case
Ġmod est
Ġshr ink
ĠNO W
Ġaband on
Ġscow l
Ġident ity
Ġcollap se
Ġembarrass ing
ĠUnder age
Ġintrod uced
Ġdisappear ance
Ġtransp ort
RI US
St ill
Ġdod ging
Ġpuff ing
Ġtense ly
Ġbull frog
Ġreb ell
Ġcough ing
ĠShould n
Ġrever ber
Ġwhee zing
Ġacce ler
Ġapolo getically
Ġpillow case
UM BLEDORE
Ġhudd le
Ġpeace ful
Ġharsh ly
Ġprov ide
Ġbeast s
Ġleaf let
Ġtur key
ĠRidd ikulus
ĠGl ass
Ġadmir ation
Ġtrait ors
ĠEl ix
Ġblur ted
Ġpati ently
Ġunn atural
Ġobser ved
Ġobser ving
Ġreluct ant
Ġrim med
Ġabsent mind
org ivable
Ġelder ly
Ġsprout ed
Ġstif led
Ġteen age
Ġheadmistress es
Ġtrem ble
Ġaddition al
ĠImpediment a
gl ass
Ġvom it
Ġencourag ingly
Out standing
Ġswive led
Ġstrang est
Ġcondu ctor
Ġlat est
ĠSI RIUS
ĠFif ty
pos al
Ġmes elf
Ġgif ted
Ġemplo y
Ġactiv ity
Ġprior ity
ĠFen rir
Ġcompr ised
Ġflin ched
ĠDev il
Ġunbl inkingly
Ġsubs ided
ĠCleans weep
Ġsolemn ly
Pot ter
Ġfurn iture
Ġpix ies
ĠEduc ational
Ġintim id
Ġstreetlamp s
Ġmotorcy cle
ocus ed
Ġtet hered
ĠMuff liato
Ġshel ter
Ġforef inger
ĠCann ons
Ġfingerna ils
Bell atrix
ĠAbs olutely
ĠCour t
ĠClu b
Ġchick ens
ounc ement
Ġembro idered
Ge orge
ĠHosp ital
Ġrenew ed
Ġrick ety
Ġemblaz oned
Ġcrocod ile
Ġpinstri ped
Ġabsentmind edly
C ho
D raco
E AR
F Y
H edwig
I L
L avender
M ost
S h
S il
W as
a ult
d ain
g en
g om
g ro
h oles
i ber
o logy
p ot
r ation
r ors
r action
v an
w orthy
Ġ idly
Ġ QU
Ġ Âĵ
Ġt um
Ġt ack
Ġt ide
Ġt ug
Ġa ck
Ġs ore
Ġw ink
on ia
ar o
nd id
Ġb rew
Ġf udge
Ġf ret
Ġo o
Ġo w
Ġo pt
Ġo wing
ĠH im
at ching
at ory
is m
it er
Ġc af
Ġc ackle
Ġhe atedly
Ġd il
Ġd iet
Ġd rill
Ġd ots
Ġm orn
Ġm ix
Ġm ousy
Ġl ain
Ġl ord
Ġl uminous
Ġth us
Ġth inner
Ġp ang
Ġp ies
Ġp ants
Ġha unted
Ġg un
Ġn ut
ly m
Ġy elp
om ber
Ġbe ef
Ġe c
Ġe cl
Ġhis tor
Ġst ung
Ġst rolling
Ġst aggering
Ġon ion
Ġon coming
et hing
ic rous
Ġwh ir
Ġwh oos
ro per
ĠM et
ĠM ain
ĠM ist
ĠM onsieur
ĠS ays
ut es
ĠW A
ent ine
ĠD er
ĠD ID
ĠD iddy
ĠD UMBLEDORE
Ġat tended
Ġre ct
ur a
ur ious
ur ance
ag ues
ĠR od
ĠR UN
ke mpt
ĠA a
ĠA c
ĠA ct
ĠA ng
ĠP ur
ĠP ri
ĠP udd
ĠP ene
ĠP oss
ill es
ard ed
ĠHe m
ĠHe x
ĠB ole
em br
Ġup s
Ġup turned
Ġout break
Ġout lines
ĠG RY
ĠG reen
un ior
ĠC ool
ĠC oot
ĠC ottage
ĠC elest
Ġne phe
Ġr ic
Ġr umbled
ĠF o
ĠF uture
if ully
to gether
ĠL ight
ĠN ight
ble ed
lo ding
qu ired
qu oise
ud icrous
Ġle aked
Ġex tended
ink le
ist s
ist ra
ist inct
ra ke
Ġro b
Ġal m
ul ent
ff ic
ff ees
oy les
Ġsu p
Ġch atter
Ġch unks
Ġsp attered
Ġsp uttered
Ġsp indly
ĠE at
ĠE asy
ĠE dgecombe
el ia
Ġun kempt
Ġwor ries
Ġsc orn
Ġpl ac
Ġpl us
Ġpl ug
Ġcl anged
Ġsl ower
Ġsl apped
Ġsl ouched
Ġhead less
Ġtw irling
Ġtw inge
Ġsm iles
Ġdoor bell
Ġvo iced
Ġtr ooped
ĠK indly
Ġgl ued
Ġgl azed
Ġgr acious
ĠPot ty
Ġsw im
Ġfl anked
ling ly
aus es
ol k
Ġman ners
od ied
Ġpre f
Ġpre y
Ġim ages
Ġim itation
Ġim itated
Ġwhere as
Ġdis li
Ġdis dain
row ed
Ġke eled
Ġlo aded
Ġbr ush
ĠCh udley
uff ing
ru cted
Ġwa x
Ġcont rib
Ġsn ore
Ġsn oring
Ġsn arling
Ġneed ing
ough ing
ĠQu otes
ung i
Ġimp enetra
Ġhur led
Ġcr ushing
Ġcr ude
Ġcr umbling
ĠIn j
pl itting
Ġend ing
Ġter se
Ġcur l
Ġcur sing
Ġcall s
Ġra il
Ġstr ict
Ġsk idding
ail able
Ġbook ed
Ġmat tered
Ġsqu el
Ġcor k
ĠPer fect
Ġcare ers
Ġcare lessly
Ġunt ied
Ġexpe cto
ten ance
Ġkill er
amp h
Ġres olved
Ġres ume
ph ant
ĠGr an
Ġrec overed
Ġrec over
Ġcou p
Ġdro ppings
Ġbad ger
Ġad j
Ġexp ulsion
Ġco iling
Ġco inc
Ġwork ers
Ġdec l
Ġind ec
Ġind ivid
Ġsle et
Ġfur rowed
Ġgu ide
Ġvis ions
Ġstop s
Ġstraight er
Ġbur den
Ġri bb
ci o
ĠSh op
ĠKn owing
Ġcomp ut
Ġexam in
Ġsurpr isingly
ĠEx plain
Ġbright er
Ġins ulted
Ġcomple ted
Ġref uge
ĠSn ive
Ġten nis
Ġpocket ed
Ġodd s
Ġsaf est
Ġshut ting
Ġrep orter
ĠPr ot
Ġdiffere ntly
Ġru in
Ġspr aying
Ġpur ch
Ġtri als
Ġburn s
Ġburn t
Ġreg ain
Ġreg urg
Ġquestion ed
Ġesc ort
ye h
Ġcreat e
Ġve in
Ġemer ge
Ġinv iting
Ġign or
Ġmention ing
ĠAh a
Ġz oo
Ġir re
Ġcons ult
Ġfear fully
IN KS
IN IST
Ġtrans fer
Ġtrans fig
Ġdeser ves
Ġtem pered
Ġsister s
not us
ament i
Ġbas ic
Ġbas ement
Ġguard ian
ON E
ĠDis posal
ĠGet ting
Ġabs ently
Ġabs olute
Ġ1 9
Ġclassroom s
ĠMar cus
Ġcount less
Ġfain ter
Ġpack ages
Ġwarm er
Ġsol ution
Ġfixed ly
Ġrock ing
Ġdress er
Ġgrim ace
Ġgrim aced
Ġpol tergeist
Ġhon ored
Ġalarm ingly
AT E
Ġgrave ly
Ġvill agers
Ġcompl ained
Ġink y
Ġexplo ding
ĠLove ly
Ġappl aud
Ġban isters
Ġspl ash
Ġnois ily
Ġbrilli ance
Ġbrilli antly
ĠPo int
Ġexper t
Ġremain der
Ġswall ow
Ġdam aged
Ġeight een
ĠAm elia
Ġunf ocused
Ġsque al
arr anged
Ġstick y
OO M
Ġgul ping
Ġscrat ches
Ġgener ations
Ġstation ed
Ġsour ces
Ġdev ast
Ġpump ing
Ġpump kins
Ġconst ric
Ġtort uring
Ġviol ence
ĠST INKS
ĠOF F
Ġeng raved
Ġrese arch
Ġgrate fully
ĠStand ing
Ġcelebr ate
Ġcelebr ated
Ġfort night
Ġscra pe
Ġgras ping
Ġdism issed
Ġcapt ured
que ly
Ġaband oning
Ġboat s
ĠExp loding
An y
Ġpred iction
Ġcoat s
Ġappreci ated
ĠBulgar ia
RI D
Ġfrag ile
Ġweekend s
ĠCl unk
Ġequ ally
Ġreck less
Ġaccus ing
Ġbull et
ĠRu beus
aa aa
Ġcra zy
Ġexamination s
Ġsubst it
Ġrevol ted
Ġrub ies
ĠParse lm
Ġpup il
ĠWhe ther
Ġwhee zed
ĠEng land
Ġmed d
Ġmed i
ĠSk iving
Ġoccup ants
Ġassist ance
ĠDr ag
ĠOb liv
Ġprov ided
Ġdiv ided
Ġdisappro val
Ġling ering
Ġvac ation
How ever
Ġtur quoise
Ġrad io
Ġobsess ion
Ġbark ing
ĠIg notus
Ġdwell ing
FF IND
Ġpul se
Ġslipp ers
Ġpunct uated
Ġprow ling
Ġevent ually
Ġras ping
Ġremark ably
Ġcontempt uous
Ġfascin ated
Ġcoward ly
Ġtempor ary
ĠRest ricted
ĠRest riction
Ġshaw l
Ġbru ised
Ġast ounded
ĠBel by
ĠGu ide
ĠGold en
ĠUnf ogging
ĠUnf orgivable
ĠGoblin s
Ġrejo ined
ĠPol tergeist
Ġencourag ement
then ing
Ġinex pl
Ġsphere s
Ġskelet al
Ġcub icle
Ġdign ified
Ġreassuring ly
Ġanticip ation
Ġbol ted
Ġfanc ied
Ġpine apple
Ġwhiz zing
ĠMon ster
Ġchallen ge
Ġsplin tered
Ġcolle agues
ĠRep aro
ĠFort escue
Ġinsp ir
Ġleprechaun s
Ġwiz ened
Ġhaught y
Ġintrig ued
Ġsoothing ly
Ġaggress ively
mar ked
Ġhed ges
Ġmill ion
bber worm
Ġcleve rer
Ġflex ing
Ġexecution er
Ġtoss ed
Ġcul pr
Ġshrunk en
het ically
Ġlem on
ĠAB OUT
Ġfrank ly
Ġroo ster
Ġsple ndid
Ġremin isc
Ġprob ation
Ġfurt ive
ĠSnackbox es
Ġdepos ited
Ġinhabit ants
Ġsacrif ice
Ġfab ulous
Ġgilly weed
Ġvirt ually
ĠEX PE
Ġplung ing
Ġdisemb odied
ĠChamp ions
Ġterrif ying
Ġemph as
ĠDisillusion ment
belie vable
Ġvert ical
Ġapr on
Ġding y
Ġeld est
ĠSus an
Ġclums ily
Ġsnoo zing
Ġcob we
Ġdiam ond
Ġzig z
ĠElix ir
Ġtum ult
Ġack now
ĠPene lope
ĠGRY FFIND
ĠCoot e
Ġnephe w
INIST RY
ĠGRYFFIND OR
A IN
C rabbe
F e
F awkes
K reacher
M agic
P eeves
R ight
S e
W inky
a ign
b stones
d om
d own
e al
f ire
g a
g my
g aph
h or
h ire
k ind
l ius
l ished
m ens
n orm
p in
r us
r usted
t es
t imes
u k
u led
u its
w all
w atch
y l
y le
y gmy
z ily
Ġ 0
Ġt attered
Ġt akin
Ġs ly
Ġw igg
er k
nd ane
Ġb i
Ġb aw
Ġb ows
Ġf urs
Ġf its
Ġo l
Ġo ve
it led
it iously
Ġc ured
Ġc ere
Ġc aptain
Ġc rawling
Ġhe ars
Ġd om
Ġd anced
Ġd ash
en ch
Ġm angled
Ġm aker
Ġl il
Ġl ank
Ġl inked
Ġl oop
Ġl enses
Ġl udicrous
Ġp ant
Ġp ained
Ġp igg
Ġp ork
Ġp ane
Ġp ony
Ġp amph
es e
Ġg ou
Ġg um
Ġg agged
Ġg uts
Ġn ave
Ġn icked
Ġn urse
Ġn aked
Ġn agging
Ġn avy
le ction
Ġsa lt
ot he
ot ions
om en
Ġbe f
Ġbe ad
Ġbe ech
ac ock
im med
im ply
us sed
Ġst itch
Ġst ee
Ġst owing
Ġst inking
Ġst ony
Ġst umbling
Ġit ems
oo led
ver bal
ro ken
ir c
ir able
ĠM U
ĠM ed
ĠM en
ĠM ull
ĠM ade
ĠM ine
ĠM ove
ĠM imb
ĠM ount
ĠM ummy
ĠM INISTRY
ĠS te
ĠS we
ĠS olution
ĠT ook
ĠT roll
Ġwe aving
ĠW alk
ĠD im
ĠD umble
Ġre ly
ag ne
Ġwit hered
ch ie
ĠA ge
ay be
ĠP AT
ĠP res
ĠP ygmy
Ġse al
Ġnot ices
ĠThe m
Ġsh ack
Ġher d
ĠB an
ĠB arry
ĠB ind
ĠB ra
ĠB ody
ĠB ye
ĠB ACK
ĠB eneath
Ġfr on
Ġdo zed
Ġout s
ĠG I
ĠC R
ĠC ream
ĠC oming
Ġme als
Ġme gaph
Ġkn ack
Ġkn itting
Ġr h
Ġr ay
Ġr ue
Ġr aced
ĠF ide
Ġshe er
Ġshe af
ĠWe ather
Ġj ars
Ġj ackets
ĠL ess
ĠL ine
ĠL ies
ĠL ived
ĠN ast
ĠN ine
ck ing
Ġso pping
Ġso cc
Ġwhe els
lo d
Ġback ground
Ġli ber
Ġv ase
Ġle nd
Ġle ered
ĠO ld
ĠO lym
ra ight
Ġro ot
Ġal ike
Ġal together
Ġde ck
Ġde br
Ġde pend
ul s
ul se
ff in
Ġover l
Ġsu ited
Ġsu itc
Ġpo lit
Ġpo lic
Ġpo ker
Ġch ink
Ġch ipped
Ġch alk
Ġch ann
Ġdown right
Ġdown fall
iz zy
Ġsp it
urn ing
Ġqu a
Ġqu iver
ĠE lf
ĠE ither
Ġcon so
el ine
Ġus hered
Ġun he
Ġun rave
Ġun ique
ie ves
op ed
Ġbl ushed
Ġbl aze
Ġbl ustered
are nts
Ġjust ice
Ġcan n
Ġsc al
Ġsc rabb
Ġsc rawled
Ġ' .
Ġcl ad
Ġcl am
Ġcl attered
Ġcl ues
Ġcl amm
ĠHagrid s
Ġsl ime
Ġsl anting
ap or
bb ish
Ġhead quarters
Ġhead first
Ġcom ments
Ġsm ash
Ġvo s
Ġtr aced
Ġtr udged
Ġar row
Ġgr ad
Ġgr ade
Ġgr anted
Ġgr ues
au c
inn ings
pt itiously
Ġfl ap
Ġfl aw
Ġsay in
Ġop eration
Ġpre ten
Ġpe pp
Ġdis arm
Ġdis hes
Ġbec omes
Ġlo lling
Ġmu ndane
Ġspe ck
Ġspe cul
mb er
Ġac id
act ory
Ġtry outs
Ġpr inting
ĠOh o
Ġcont ent
Ġarm ful
Ġtal es
Ġtal ented
Ġatt racted
Ġatt racting
Ġdr um
Ġwind s
Ġimp ass
Ġimp ulse
Ġhur ts
Ġent itled
Ġcr ates
Ġcr unching
ĠJ oke
Ġsur ly
Ġhel m
Ġwr inging
Ġsecond hand
Ġword lessly
Ġem an
ee ee
Ġper il
az ing
Ġret ching
Ġnothing ness
Ġstr ate
Ġstr angle
aw d
Ġair pl
Ġsqu aw
Ġstud ied
lin qu
ĠAn th
ĠPer ce
ib uster
Ġunt r
Ġgre ed
ĠPet rific
ĠNot t
pr ints
Ġpart ing
Ġrest lessly
sh op
Ġtre asures
Ġglass y
ĠBlack s
Ġad vert
Ġexp anded
Ġco bbled
Ġpain t
Ġfoot ed
Ġdec ip
Ġind ex
Ġind istinct
rac ed
Ġgu est
Ġdet ached
Ġdef lected
Ġswe ep
Ġlaugh s
ub s
Ġinte nd
ĠRe ckon
Ġins isting
ĠFil ibuster
Ġpat rol
Ġref erence
Ġmis mat
oc he
Ġwatch ful
Ġfight ers
abb ling
Ġears plitting
Ġrun es
ĠCharm ing
Ġpur sed
Ġgas ps
Ġrepe l
Ġappro ve
Ġfa iry
Ġreg ime
Ġwrit es
Ġev apor
vo ked
OU R
OU LD
Ġwarn ings
ĠGo bstones
Ġsun set
Ġreason able
Ġvisit or
Ġdisc omfort
ĠPat rick
Ġdoub ts
ĠYour s
Ġform er
Ġsing ed
Ġcop ying
Ġchamp agne
ĠTr ust
Ġhung er
Ġglo ssy
Ġtight er
Ġtra ffic
Ġmark et
ON S
Ġpost p
Ġ1 7
Ġbound aries
blet onia
Ġview s
Ġsmell y
Ġproper ties
ĠRem embr
atter gro
Ġwarm ing
Ġwarm ly
Ġimpati ence
Th rough
Ġeyeb row
Ġcirc led
Ġpassage ways
Ġpow dered
Ġgen ially
Ġtrick led
Ġess ays
Ġbew itching
ĠEven ing
Ġrece iver
Ġrece iving
Ġspark led
ceed s
Ġprep ar
Ġjinx ed
Ġappre hension
Ġthreat en
Ġposition ed
Ġspl ashed
Ġgra pef
Ġlur ked
Ġsnat ch
Ġwhist led
Ġfat al
Ġeight y
Ġfold s
Ġstri pped
Ġstri ped
Ġkid ney
Ġeffect ive
Ġunf ur
Ġwra pper
Ġconcern s
ific ation
Ġtest ily
Ġconce aling
OO D
Ġinnoc ently
ĠDisappar ating
Ġtreat ment
ĠHad n
terbe ers
Ġconvin cing
zz le
Ġcounter c
Ġbuild ings
Ġlad ies
Ġunw orthy
Ġpin ch
Ġenvelo pes
Ġbeaut y
Ġval i
Ġaston ishing
Ġcontr act
Ġmurder ous
ĠAcc ident
Ġrese mb
Ġhorn ed
Ġscra ped
Ġinterv als
Ġfal tered
Ġlength s
Ġpred icted
Ġopport unities
Ġaccompan ying
Ġarr ange
Ġidi ots
Ġdesc ent
Ġsniff ing
Ġintrod uction
ĠTed dy
Ġblast ing
ĠBulgar ians
Ġpurs ued
Ġfail ing
hens ible
Ġhill s
Ġprick led
Ġwaist coat
Ġnecess arily
Ġenthusi astic
Ġcra wl
Ġwithd rawing
Ġvic iously
Ġvic inity
Ġblaz ed
Ġclamb ering
Ġreass ured
Ġshield ing
Ġappo int
Ġver ge
Ġhamm ered
Ġbeckon ing
icis m
Ġsmo ky
Ġacce pting
Ġfalse ly
ĠCle ar
Ġsched ules
Ġresist ance
Ġlaz y
ĠDr agon
ĠEv idently
ĠTe am
ĠTe ars
Ġdiv ide
ĠFrog s
Ġcurre nt
Ġvac ant
ĠInfer ius
Ġbeam s
ĠRom ania
Ġconfess ion
Ġhost age
Ġhost ages
ĠChe ers
Ġcrim inal
Ġpul sing
Ġowners hip
Ġindiffere nt
Ġwise ly
Ġrot ten
Ġqual ities
Ġincant ations
Ġaward ed
Ġsal am
ĠSH E
ĠTurn ing
Ġreco very
Ġhicc up
Ġens l
Ġcommunic ating
Ġdefens es
Ġting ling
Ġsess ion
Ġwrigg led
Ġwrigg ling
Ġcreep y
Ġconceal ment
Ġperiod s
Ġcomb ination
Ġperf umed
Ġapolog ize
Ġmalic ious
Ġsip h
Ġrejo in
Ġshrewd ly
Ġentr ances
Ġinvol ving
Ġsympat hetically
Ġtact ics
Ġmim bletonia
uber ant
Ġbully ing
Ġdign ity
ĠBas ilisk
Ġclas ped
Ġresign ation
Ġrefer ring
Ġfreck les
Ġded uced
ĠTot alus
Ġspo il
Ġdisag ree
Ġelb ows
Ġmusc les
Ġskept ically
Ġtext book
Ġcris p
ĠImp roper
Ġexhaust ion
Ġreproach ful
Ġintrud ers
Ġest ab
Ġsid led
Ġniff ler
Ġkit ten
Ġsocket s
Ġunner ved
Ġcritic ize
Ġunnecess ary
Ġav idly
Ġfulf ill
ĠSin istra
Ġwel coming
ĠWIT H
ĠAnt i
Ġrout e
Ġexer cise
Ġoverwhe lm
Ġchort led
Ġdisple asure
Ġprof ile
Ġmalevol ently
look ers
Ġpomp ous
iche ver
Ġsham rock
ĠGol gom
Ġbackf ired
Ġspi ked
Ġquant ity
Ġimpl oringly
Ġaccur ate
Ġsubd ued
Ġeavesd ro
Ġ= '
Ġthestr al
orp us
ĠCorre ct
Ġtwil ight
Ġvolum e
Ġobed iently
Ġobliv ious
Ġabsor bed
Ġlam pl
omplete ly
ĠThing s
Ġbutt ons
Ġsolit ary
Ġwaf ting
Ġsurre ptitiously
Ġcompre hension
Ġreput ation
Ġdisconc erted
ĠDisarm ing
Ġengulf ed
Hog warts
Pe ople
Ġnick n
ĠSorc ery
Ġweigh ing
Ġanc est
Ġskir ting
Ġdisting uish
ĠExpect ations
Ġphr ase
Ġjudg ment
Ġdrill s
Ġec st
ĠMain tenance
ĠPoss ibly
ĠCelest ina
Ġric oche
ĠFo e
Ġimpenetra ble
ĠInj uries
Ġterse ly
Ġcomput er
Ġapplaud ed
Ġinspir ation
Ġculpr it
Ġlil ac
Ġnave l
ĠMull et
ĠMimb ulus
Ġmegaph one
ĠFide lius
Ġdebr is
Ġsuitc ase
Ġclamm y
Ġgrues ome
ĠPetrific us
Ġmismat ched
ĠRemembr all
Ġgrapef ruit
ĠGolgom ath
1 3
A K
A U
B ill
B oth
C l
C ome
F ive
G W
I CK
L una
M ore
N ever
O o
P et
S m
T en
U p
Y our
a unted
b are
b od
b age
c ap
c ary
c ited
c ingly
d og
e er
e ar
h ap
h ouse
h inx
j ured
l ance
l ies
m ath
n old
o f
o ons
o cle
p id
p ers
p ite
p ower
p ret
p riate
r al
r ans
r omed
t ter
t ress
t ips
u f
u amenti
v est
w en
w ith
y th
Ġ 9
Ġ iced
Ġt id
Ġt ire
Ġt ies
Ġt awn
Ġt rod
Ġt aut
Ġt ipping
Ġa iry
Ġa xe
in ished
Ġs omber
Ġw ool
Ġw icked
Ġw retched
re mon
ou ble
Ġh ing
Ġh ither
Ġh ints
on ies
ing le
er b
er ate
ar gh
Ġb isc
Ġb umping
Ġf ame
Ġf ile
Ġf ried
Ġf rying
Ġo af
Ġo men
at able
at hery
Ġto ads
Ġto ffee
Ġto ffees
is ons
it ro
Ġc ore
Ġc ord
Ġc ages
Ġc aves
as ion
as el
id ark
id able
Ġhe ave
Ġd art
Ġd ump
Ġd angled
Ġd omed
Ġd arling
Ġd agger
en ior
Ġl ic
Ġl ent
Ġl od
Ġth udd
Ġth irst
Ġp ad
Ġp arl
Ġp ipes
Ġha w
Ġg aps
Ġg aining
Ġin ad
Ġin se
Ġin ward
an uary
Ġn at
Ġn utter
Ġn ational
le gged
Ġsa le
Ġsa iled
Ġsa uc
Ġsa cks
ĠI F
om ora
Ġwas p
Ġwas t
Ġbe in
Ġbe an
Ġbe ans
Ġbe gged
Ġbe gging
Ġe arm
Ġe cc
im ents
im ps
Ġst ated
Ġst ale
Ġst inging
oo ps
oo peration
Ġon lookers
et een
et ops
ic tly
Ġwh a
Ġwh irling
ir ingly
ĠS ur
ĠS lo
ĠS ect
ĠS erv
ĠS uch
ĠS enior
Ġwe ars
Ġwe ighed
ĠW ing
ĠW OR
ĠW ANT
ent a
ent ric
ĠD u
ĠD am
ĠD est
ĠD udd
ĠD iff
ĠD read
Ġas hes
Ġre nt
Ġre arranged
Ġre linqu
ur st
ur ably
ur dy
al ers
ĠR igh
ĠR ON
ĠR ipper
st ant
ĠA round
ĠA LL
ĠP en
ĠP ull
ĠP ret
ĠP anting
Ġse ction
Ġse aling
Ġse lected
Ġse ething
Ġsh unted
Ġk icking
erm ent
ĠHe alers
pe nding
ĠB L
ĠB ed
ĠB es
ĠB ring
Ġfr idge
Ġout b
ĠG h
ĠG orn
ĠG ames
ce ly
ce pted
ce remon
un ing
ĠC ar
ĠC ress
ĠC ON
ĠC ompletely
ĠC ooperation
Ġbut ter
and ers
Ġr auc
il ized
il iar
ĠF er
ĠF riend
ĠF ren
ĠF irs
Ġshe pher
Ġj umble
ĠL ying
ĠL ET
ĠL EA
ĠL adies
Ġgo at
ĠN iff
ĠN orth
Ġso ar
Ġso aking
Ġso ciety
Ġli ver
Ġle athery
Ġex isted
ink hard
ĠO y
ĠO dd
ist ent
ist ration
Ġde g
Ġte nded
Ġover he
Ġover night
Ġpo les
Ġpo ised
Ġch int
Ġoff ense
iz zing
Ġsp an
Ġsp ared
Ġsp ine
Ġsp attergro
Ġsp hinx
ĠE yes
Ġcon ver
Ġcon sequ
Ġcon venient
ick ering
Ġhand y
Ġun ch
Ġun sure
Ġun ceremon
ie val
Ġwor m
Ġsc abbed
Ġsc uffling
Ġsc hem
Ġpl ot
Ġpl um
Ġpl ucked
Ġpl astered
Ġcl ang
Ġsl owing
up hor
Ġhead lights
Ġmo les
Ġcom bat
Ġtw elf
Ġsm acking
The se
ound s
Ġstill ness
Ġtr und
Ġtr otting
ĠK iss
ĠK ILL
Ġgl immering
Ġar c
Ġgr otes
Ġsw ap
Ġfl agged
Ġfl ourish
ĠU m
ĠU nt
Ġman or
Ġen able
wn y
idd led
ft ily
Ġpre occupied
Ġim it
Ġpe acock
th at
th ought
Ġdis ent
ĠĠĠĠ ĠĠĠĠ
Ġafter math
Ġlo oming
Ġlo ftily
te rest
Ġbet ting
Ġbr us
Ġbr ings
Ġbr aced
Ġpro ven
Ġpro ving
ĠCh ief
Ġpr int
Ġcont am
Ġcont racted
Ġcont ented
Ġho ver
Ġho isting
Ġflo ck
Ġflo bberworm
Ġatt ach
Ġwal rus
Ġwind sh
Ġwind sw
Ġopen ly
Ġpass ers
Ġcr ad
Ġcr imes
Ġcr ushed
Ġcr ashes
Ġcr onies
ĠIn vis
ĠIn ner
ell ing
Ġend ured
Ġstand ards
Ġgi ld
be es
Ġsound lessly
iet ies
Ġem itted
Ġem otions
Ġset tling
ĠDeath stick
ip sed
Ġret al
Ġstr ictly
Ġhelp lessly
Ġbook l
Ġmat es
Ġmat tress
Ġfire work
Ġmind ed
ĠDark ness
Ġclass mates
Ġcare less
Ġunt ouched
Ġmut il
Ġmut inous
Ġob lit
Ġrest ore
Ġrest less
Ġrest ored
Ġtre mend
Ġtre etops
ĠBe g
ĠBe aky
Ġrec oll
Ġrec ru
Ġrec alled
Ġfore se
Ġdist ressed
Ġdist orted
Ġad op
Ġexp ensive
Ġgirl ish
Ġhour glass
Ġcontin ually
ĠEr ised
Ġdet ected
Ġdet ailed
ĠAl ong
Ġhit ched
Ġhope less
Ġsort ing
Ġswe aring
Ġdi ag
cept able
ĠKn ut
Ġblood stained
Ġtalk in
Ġcomp osed
ĠRe asonable
Ġkind s
Ġmon ocle
Ġrel ish
Ġins ults
Ġfle cked
Ġinter pret
Ġinter cepted
ĠOr d
Ġref r
Ġbu zz
Ġbu bbling
Ġheav ier
Ġthick er
Ġforg iven
Ġinterest s
Ġland sc
Ġpres um
Ġrun e
Ġspr ung
Ġspr int
Ġspr outs
Ġtri es
Ġtri angular
Ġappro ved
Ġappro priate
Ġgiant ess
Ġph ys
Ġsoft en
Ġchest s
Ġwrit hed
Ġdraw led
Ġcoll aps
ER E
Ġton ic
Ġesc orted
ye ar
Ġenorm ously
Ġexpression less
Ġattack er
OU GH
Ġinform ing
Ġsword s
Ġint act
Ġint ention
ĠAg uamenti
Ġflat ten
Ġball oon
Ġz is
str ing
Ġir res
Ġcons ulted
Ġcons ulting
Ġtor so
Ġdisc ern
Ġrat tle
Ġcabin ets
Ġstom ped
Ġshrie ks
Ġadm ired
Ġhast e
Ġwild er
ĠFl ore
Ġgrow l
Ġgrow ling
Ġann ouncing
Ġchild hood
Ġprom pted
Ġtall est
Ġdem anding
Ġ1 6
Ġtail ing
Ġsmell s
Ġcrack s
wh ite
Ġtow ered
AR TS
Ġconv iction
Ġweak ened
Ġsecret ly
Ġpresent ed
ĠRem emb
Ġgray ing
Ġrepl acing
Ġfinger tips
Ġpossess ing
ogra pher
Ġele phant
ĠWas n
Ġsol ve
Ġgard ens
Ġmag enta
Ġpol ishing
Ġfist ful
Ġsy ll
Ġcurtain ed
Ġaff air
Ġdri ver
Ġsmoot hing
ĠPh leg
Ġune ven
Ġune ase
ias co
Ġfil m
Ġund o
Ġspect ators
Ġsatisf ying
Ġspl attering
Ġmer c
Ġbin oculars
Ġinterrup tion
Ġfold ing
Ġrev ive
Ġmurd ering
Ġunf air
Ġsurv iv
Ġremo ving
Ġpriv ile
Ġmood ily
Ġcorre spond
Ġstream ed
Ġstation ary
Ġva ults
Ġaim s
ĠGrawp y
Ġlim ited
ĠHalf way
Ġwren ching
Ġchar ging
Ġtoile ts
Ġstorm y
ĠSp orts
Ġsuit able
Ġhippogriff s
Ġearn est
Ġscree ching
ĠTw elve
Ġrust led
Ġflick er
Ġclock wise
Ġwound ed
Ġcamp aign
Ġrisk y
Ġchuck ling
Ġwis dom
Ġhorn s
Ġfort ress
Ġmod ified
Ġreport s
Ġcard board
Ġris ks
mp ra
Ġamb er
Ġdawn ing
An other
Ġweap ons
Ġembarrass ment
Ġband aged
Ġdel ay
ĠUnder ground
Ġwrist s
Ġden ying
Ġnon verbal
Ġvelve ty
Every body
Ġgarg oyles
Ġneighb oring
Ġlump s
Ġpurs ue
Ġdod gy
Ġwar lock
Ġwar locks
Ġhill side
Ġpuff s
Ġfeat hery
Ġtear ful
Ġsuccess fully
ĠRu bbish
ĠPortkey s
Ġharm less
Ġreb ounded
Ġmyster iously
Ġrecord s
IT OR
Ġdelic ately
Ġbeet les
Ġrub y
Ġrub ble
Ġresent fully
Ġpit iful
Ġpudd ings
Ġtart ly
Ġclub s
fall en
gr ate
ĠDr ink
ĠComm on
Ġflower bed
Ġconcl uded
Ġloc ation
Ġretrie ved
Ġvers us
Ġinvent ing
Ġchess men
Ġtroub les
Ġmas ks
Ġthread bare
ĠGl ad
Ġgogg led
Ġteac hes
Ġadmir ing
Ġpouch y
Ġdemonstr ating
Ġtim et
Ġconfess ed
Ġorgan ized
Ġvig il
Ġnightmare s
Ġpati ence
ĠSl inkhard
Ġpunct ured
ĠHold ing
Ġras p
Ġras ped
Ġremark s
Ġjerk ily
Ġimprison ment
Ex ceeds
Some one
__ __
ĠSH UT
Ġsecure ly
Ġaddress ing
Ġ3 1
Ġfish y
Ġcream s
Ġmor ale
Ġsaus age
Ġorn ament
Ġrestr ain
Ġmaintain ed
Ġmaintain ing
Ġredd er
Ġscut tling
Ġmourn ful
Ġwhim per
ĠMand rake
ĠGu ess
Ġdish on
Ġvom iting
Ġchoo ses
Ġcompan ions
ĠWhee zy
De ar
Ġinqu iry
Ġjew el
Ġcongratul ate
Ġcongratul ations
Ġaver ted
Ġaver age
ĠRed u
Ġunin jured
RON UM
Ġunse en
Ġsilhouet ted
Ġsilhouet te
Ġcolle ague
Ġhyster ical
Ġrepresent atives
Ġwire less
Ġcrest fallen
Ġgar age
Ġincident ally
Ġreproach fully
Ġintrud er
sk i
ĠMis use
ĠLI KE
inks ap
ĠDoxy s
Ġobst acles
Ġsust ained
Ġcal cul
Ġlun atic
ĠSlu g
Ġunbe atable
Ġwisp y
Ġprecaut ion
Ġtil ted
Ġsan ct
ĠHO GW
ĠPass word
Ġsem idark
Ġentertain ing
Ġblackm ail
Ġcorp se
Ġbenef it
Ġoppon ent
Ġadmire rs
Al bus
hearted ly
ĠMir ror
Ġjost ling
ĠLo ads
Ġprem ises
Ġderis ive
Ġalle gi
Ġplumm eted
Ġmisunderst ood
Ġdustb ins
Ġunconcern ed
turb ed
Ġdrows y
Ġunl ucky
Ġglimm ered
Ġproduc ing
Ġincompre hensible
ĠForg ive
Ġbookshe lves
Ġmirac ulously
Ġoo zing
Ġmorn in
Ġwhir ring
Ġrect angular
ĠAa ah
Ġdisli ked
Ġcoinc idence
Ġindec ent
ĠParselm outh
ĠChampions hip
Fe eling
Ġpigg y
othe cary
Ġstee ly
ĠDim itro
ĠPAT RONUM
ĠWeather by
Ġsocc er
ĠOlym pe
Ġcann on
Ġgrad ually
ĠAnth ony
Ġresemb lance
romed a
Ġhing es
Ġparl or
Ġearm uffs
Ġecc entric
ĠSlo per
ĠSect um
ĠDudd ers
ĠPret ty
ĠGorn uk
ĠCress well
ĠFren ch
Ġchint z
Ġmoles kin
Ġtwelf th
Ġwindsh ield
Ġwindsw ept
ĠPhleg m
ĠHOGW ARTS
Ġsemidark ness
Ġallegi ance
ĠDimitro v
B E
E n
G ryffind
G oyle
G riphook
I Z
K rum
L ook
M c
M any
O L
O g
P ar
P ig
R e
U RE
W here
a fter
a fts
b led
b ility
c on
c ogn
c ibly
c ival
e v
f old
f ish
g n
g ent
h omora
i ing
i able
j ud
l ting
l ap
l ated
l ery
n y
n ces
p ole
r ace
s he
t r
t lap
v als
w y
w it
w ter
w ings
z ard
z il
Ġ ounce
Ġt our
Ġt rif
Ġt ub
Ġt icking
Ġt ackle
Ġt idy
he asant
Ġa er
Ġa rou
Ġa qu
Ġa ched
Ġa ura
Ġs outh
Ġw ad
Ġw ove
Ġw arily
Ġw add
re x
re nt
ou ghed
Ġh ord
Ġh ump
Ġh ired
Ġh inky
Ġh ike
Ġh unch
er ro
er ting
ar ity
Ġb id
Ġb ay
Ġb led
Ġb ers
Ġb ade
Ġb ord
Ġb anshee
Ġb ickering
Ġf est
Ġf ade
Ġf actly
Ġf iasco
Ġo ven
Ġo ily
Ġo mens
ĠH um
ĠH ung
ĠH OW
ĠH ardly
is ure
it ious
Ġc abb
Ġc uffs
Ġc auses
as ily
or i
or ph
ll en
Ġd ore
Ġd ough
Ġd ank
Ġd agg
Ġd angers
Ġd izzy
Ġd awd
en a
en sed
en ger
en cio
Ġm arm
Ġm aimed
Ġl as
Ġl ick
Ġl icking
Ġl ament
Ġl inger
Ġl idded
Ġl yin
Ġth ri
Ġp ra
Ġp est
Ġp ans
Ġp ets
Ġp imp
Ġp awed
Ġha lves
Ġg aw
Ġg arl
Ġg agg
Ġg oose
Ġg urg
Ġin it
ow ls
Ġsa ves
Ġy ield
ot hes
om in
Ġe ard
Ġe ast
Ġe tern
im ate
im sy
ve mber
Ġst ress
Ġst unning
Ġst ates
oo ling
et ch
ic y
ic orpus
ro ach
ro ying
ĠM ess
ĠM uch
ĠS pl
ĠS een
ĠS leep
ĠS elw
ĠT ut
ĠT orn
ĠT aking
ut in
ut ting
Ġwe ary
Ġwe bbed
ĠW ater
ĠW ister
ĠW illy
ĠD ily
ĠD rop
ĠD UD
Ġas ce
Ġre ent
Ġre un
Ġre op
Ġre ced
Ġre vis
Ġre cept
Ġre vision
al ade
al ator
se l
ĠR R
ĠR ever
ĠR unning
ri l
ri ar
ch n
ĠA G
ĠA R
ĠA lo
ĠA ss
ĠP R
ĠP u
ĠP ow
ĠP ast
Ġfor ces
Ġfor cibly
Ġse am
Ġse lection
am iliar
um ors
um per
erm int
ĠHe l
ĠB R
ĠB arn
ĠB ott
ĠB ert
ĠB OY
Ġfr u
Ġfr aud
Ġfr ayed
Ġdo gged
ight y
Ġout sk
ĠG ro
ĠG irl
ĠG aunts
ĠG wen
ĠG urdy
ĠC all
ĠC ast
ĠC omet
ĠC oll
ĠC abin
ĠC AR
ĠC omp
ĠC auld
ind o
ind le
Ġme lt
and a
and s
Ġr ud
Ġr ings
Ġr idden
Ġr aging
Ġfe ature
ĠF ull
ĠF ancy
ĠF izzing
ĠF riar
ĠWe rew
Ġj ing
Ġj abbing
Ġj owls
ĠL ost
ĠL ater
ĠL oc
Ġgo lf
ast rous
lo ss
Ġv ent
Ġv iv
Ġis h
Ġis ol
ud ent
Ġle v
Ġle vels
Ġle isure
Ġex act
Ġab ashed
Ġab use
Ġab norm
our s
ĠO t
ist ically
ra wn
Ġro g
ous ed
ong ratul
Ġde ars
Ġde leg
ul ci
ff it
Ġover s
Ġover st
Ġover turned
ĠWh ose
Ġsu nd
ep aper
Ġch arts
Ġch ip
Ġch ops
Ġoff ensive
Ġsp indle
ĠE ight
ĠE xt
ick le
Ġhand ling
Ġun st
Ġun imp
Ġun believable
Ġun grate
Ġbl amed
ĠV e
ĠV old
ĠV ect
Ġwor ms
Ġye w
Ġsc en
Ġsc ary
Ġsc ooping
reat h
Ġpl astic
Ġpl aque
Ġcl ing
Ġcl ipping
Ġsl ice
Ġsl unk
Ġsl aught
ap ter
ap able
up iter
Ġhead long
Ġmo pped
Ġmo ons
Ġmo ssy
ĠTh inking
og s
Ġtw eed
Ġtw iddling
Ġdoor ways
Ġtr ot
Ġtr ance
Ġtr ump
Ġtr ash
Ġtr icked
ĠK ept
ĠK EE
Ġgl imps
ĠAnd romeda
Ġgr umbling
inn ers
Ġsw ish
Ġfl inging
Ġfl agon
Ġfl urry
ire ment
ĠU s
other s
Ġman ic
Ġop aque
ab ary
ab ility
Ġpre car
Ġpre jud
Ġpe ll
Ġdis o
Ġdis lod
Ġdis astrous
Ġhapp iest
ĠPotter watch
Ġbeh aving
Ġlet h
Ġapp ly
Ġapp ra
Ġapp lic
Ġlit ter
Ġbr amb
Ġbr acket
Ġlast ing
Ġpro ject
Ġpro pelled
ĠNo se
ĠNo vember
ful ness
Ġpr aying
Ġpr udent
Ġho ot
Ġflo at
Ġflo pped
ple ase
Ġsn og
Ġsn uff
Ġsn ogging
Ġneed n
Ġneed le
Ġdr ooped
Ġdr oop
Ġche ap
Ġmust y
uck ily
Ġent ry
Ġcr iss
Ġcr unch
ĠJ ell
ĠJ anuary
ĠJ upiter
ell ed
pl ussed
Ġday break
ĠSt upid
ĠSt raight
ĠSt inksap
Ġwr ath
Ġside board
Ġkeep in
Ġcur t
Ġcur ls
Ġnight fall
Ġnight shirt
Ġnight dress
Ġnew com
Ġra ven
Ġwhis kers
Ġlau ndered
Ġhair cut
Ġstr ayed
Ġhelp s
Ġhelp ings
Ġsk ipped
Ġsk irt
Ġsk illed
Ġfin est
Ġreal ization
Ġair born
Ġmat ched
Ġsat in
av a
Ġfire side
ĠUn break
Ġwait ress
lin ed
Ġfoll ows
Ġquiet er
ĠPer cival
ib ilities
ĠWho ever
Ġgre edy
ĠAr nold
Ġres isted
Ġres ulted
ret ary
Ġpast y
Ġbo il
ey ond
Ġtre sp
ĠBe ing
Ġinst ructed
Ġscar cely
Ġcar ol
Ġrec ited
Ġrec ounted
Ġstart ling
Ġcomm it
Ġfour post
ĠSe nd
ĠSe lf
Ġexp ressed
Ġco in
Ġco ach
Ġco iled
Ġfoot prints
Ġmem os
Ġind e
sw er
ĠAl ready
Ġmother s
Ġaw a
Ġaw e
Ġstraight en
Ġri ff
Ġact ual
ci ence
Ġhope lessness
Ġstay s
Ġcloak ed
Ġext racting
ĠKn arl
ĠRe ad
Ġbag gy
Ġce ased
Ġser ving
Ġrel ative
Ġins erted
Ġins ulting
Ġfle cks
Ġdesk top
Ġpat rolling
ĠSn ow
Ġmist reat
Ġmist aking
Ġbu ry
Ġlay er
Ġspeak s
cl othes
Ġmay hem
sp ons
ĠTon ight
Ġburst s
Ġrep ress
Ġdeath day
Ġplan et
Ġstair cases
Ġtri ple
Ġchest nut
ount ered
Ġstupid ity
ren ce
Ġesc alator
Ġap ology
Ġbar gain
Ġcut lery
ĠAg es
Ġrememb ers
Ġrecogn izable
Ġbat like
Ġthro bbed
Ġcons umed
Ġcons cience
Ġdisc our
Ġeag led
imm er
Ġgri zzled
ĠPl enty
ĠLe ague
Ġadm itting
Ġobject ion
Ġhung rily
Ġthroat s
Ġposit ions
Ġfer re
Ġfield s
ĠSke le
Ġann ouncement
ĠFr is
Ġnice ly
Ġchild ish
Ġhuge ly
Ġbound ing
Ġproper ty
OR D
OR T
Ġsnow ball
Ġlisten ers
AR GH
Ġdest ruction
Ġpan icking
Ġfain ted
Ġmoon stone
Ġpossess or
Ġbre ast
Ġble ed
Ġble ak
Ġspir aling
Ġhesit ation
Ġeyeb all
Ġremind s
Ġremind er
af e
ĠKeep ing
Ġdoubt fully
Ġrock s
Ġenc irc
Ġenc ountered
Ġsevent y
Ġje ers
Ġearth y
Ġphot o
Ġphot ographer
rib ble
LE D
LE N
LE S
ĠBur bage
Ġdra ft
Ġdra ught
Ġsy c
ograph y
Ġcand y
Ġcand id
Ġemb race
Ġfool s
Ġcro ak
Ġdread ed
Ġpar ked
Ġbusiness like
ĠSpell ot
Ġsuff icient
Ġinj ust
Ġirrit ating
Ġund et
Ġclot hing
Ġban ished
Ġcour te
Ġgra ffit
ĠWor se
ĠSm all
Ġcolor less
Ġbitter ness
ĠMe aning
RE E
RE AT
Ġfo am
Ġrev olved
Ġrev ulsion
VE N
Ġwra pping
Ne arly
Ġpersu ading
Ġpoison ing
Ġgrand son
Ġstick s
OO L
Ġserv ices
Ġserv ants
Ġcas c
ĠBr ut
Ġva ulted
Ġexch anging
Ġplain er
zz er
Ġexh ilar
Ġlim ply
ĠEn ter
Ġdesp ised
aun ting
ĠMur tlap
Ġunw illing
Ġwren ch
In stead
aj or
Ġslo ped
Ġslo pping
Ġconst ricted
Ġdistinct ive
Ġthunder ous
Ġshif ty
Ġstorm ing
Ġdeli very
ĠOut side
EN TS
Ġscree ches
Ġchuck le
Ġtot ally
Ġdisturb ing
Ġerup t
Ġris ked
Ġscra wny
Ġamb itious
Ġcapt ioned
ĠFirst ly
Ġincre ase
Ġpred icting
Ġprison er
Ġcous ins
Ġband y
asc ots
Ġshape less
Ġdel ayed
Ġspeech less
Ġregret ted
Ġden ied
Ġnon plussed
Ġrespect able
ĠDec oy
Ġpassword s
Ġsuppor ter
Ġdisappear ances
Ġtransp orted
Ġpublic ity
Ġinterview ed
Ġaccus ations
Ġprick le
Ġsuccess ful
Ġcarpet ed
iment al
Ġimpress ively
Ġargum ents
Ġbra ver
Ġdisbel ieving
Ġcompet ing
Ġrevol ting
ĠMal adies
ĠWar lock
Ġripp led
Ġencour aged
Ġpenetr ated
Ġwo e
Ġwo bbled
Ġloc ate
Ġloc ated
Ġsilk ily
Ġfi I
Ġvac ated
Ġobsc ure
Ġdefi ant
Ġtroub ling
Ġdazz led
Ġtur rets
ĠOoo oo
Ġbub ot
ĠIg or
Ġet c
Ġorgan ization
Ġrepro vingly
ĠSquib s
ĠChe ering
Ġvibr ate
Ġchim ed
Ġdisp ir
Ġstal king
ĠBook s
Ġflatt ening
Ġpunct ure
Ġtro dden
Ġteles copes
Ġcontempt uously
Ġunmistak ably
Ġfever ish
Ġswer ve
ampire s
Ġsarc asm
Ġhar assed
Ġmor ose
omb ie
Ġdevelo p
Ġrestr aining
Ġrestr aint
Ġreco vering
ĠAT T
Ġunb al
Ġens ured
Ġcommunic ation
ĠAnimag i
ĠHerm y
ĠDet on
Ġredd ening
Ġgovern ment
Ġbru ise
Ġskill s
Ġinterf ering
Ġinterf ere
Ġinterf erence
Ġsprout ing
Ġteacup s
Ġrou sed
Ġmourn fully
Ġyel ping
Ġast r
Ġteen agers
Ġcomb ined
Ġdrunk en
Ġfrequ ent
Ġapolog ies
Ġcust ard
Ġcust omers
sec retary
Ġunre cogn
Ġprocess ion
Ġexcl aimed
Ġinvol ve
ĠLev ski
ĠLegilim ens
TH ER
Ġmaterial ized
Ġglist ened
Ġinterrog ated
Ġachieve ment
Ġinhab ited
cr ack
fe w
Ġcub icles
ann y
Ġrein st
ĠOther wise
Ġclas p
Ġimper iously
Ġreappear ance
Ġanticip ated
Ġwhiz zed
Ġhearth rug
Ġparaly zed
Ġhyster ically
Ġbun ches
Ġdumb struck
Ġblunder ing
Ġreflect ing
Ġniff lers
Ġonward s
Ġreli able
Ġvap our
ĠOR DER
Ġunner ving
Ġblot ch
Ġintens ity
Ġintens ified
Ġunnecess arily
Ġfav ors
Ġimmob ile
Ġdescri be
Ġcavern ous
Ġprecaut ions
col ored
ĠSupp ort
Ġgoss ip
Ġscandal ized
Ġrelent less
Ġperman ently
Ġunconvin cing
Sc rimgeour
Ġramp arts
ĠFam ous
Ġjog ged
ĠEle ven
Ġprop ort
ĠArt ifacts
Ġdisco very
Ġhumili ation
ĠConfund ed
Ġvolunte ered
Ġassoci ated
itt any
Ġunsc athed
Ġcance led
Ġelabor ate
Ġintern ational
Ġimmort ality
Ġtarn ished
Ġthw arted
ĠSPE W
Ġimperson ating
Ġintellig ence
Ġmirth less
ĠMist ress
ĠDer rick
Ġalm ighty
Ġscorn fully
Ġplac idly
Ġdisdain ful
Ġrail ings
Ġribb on
Ġexamin er
Ġdevast ated
Ġsubstit ute
ĠDrag ons
Ġinexpl icable
ĠEXPE CTO
Ġacknow led
Ġsly ly
ĠBra zil
Ġfron ted
Ġrue fully
ĠNast y
uls ively
Ġscrabb ling
Ġpreten se
Ġimpass ive
Ġadvert is
Ġevapor ated
Ġtawn y
Ġwast epaper
Ġoutb urst
Ġrauc ous
ĠLEA VE
Ġspattergro it
Ġunceremon iously
Ġschem es
uphor ia
Ġbrus quely
Ġdiag ram
ĠOrd inary
Ġlandsc ape
Ġphys ical
ĠFlore an
Mc Gonagall
Par vati
Ġhinky p
erro ff
Ġbers erk
Ġdagg ers
Ġmarm alade
Ġthri lled
Ġpimp les
Ġgagg le
Ġeard rums
ĠSelw yn
ĠWister ia
ĠDily s
ĠDUD LEY
Ġoutsk irts
ĠGwen og
ĠGurdy ro
ĠCast le
ongratul ations
ulci ber
Ġungrate ful
ĠVect or
ĠKEE P
Ġglimps es
Ġprecar iously
Ġdislod ged
Ġbramb les
Ġcriss cross
ĠUnbreak able
Ġfourpost er
A Y
A gain
B Y
B ag
B ack
B ye
B US
D id
D ementors
F l
G ood
I RE
J ames
L I
L P
L ike
L udo
M P
M aybe
P UFF
S ee
S ec
S now
T w
T urn
U ST
W izard
a os
b out
b acked
c ies
c entr
c over
c uts
e an
e ches
g at
g row
h anded
i ating
j inx
k iss
k ov
l med
l aze
l ava
m out
m and
m ering
m itted
m ony
n ants
p ow
p al
p our
p osed
p ical
r ated
r aged
s b
s pe
s ions
s pecially
t il
u cc
u ishing
v ag
v ius
w ined
w inked
y r
z or
Ġ /
Ġ iv
Ġt le
Ġt ame
Ġt ang
Ġt ape
Ġt umbling
Ġt ailed
Ġt inkle
Ġt aunted
in ate
in als
in arily
Ġs um
Ġs urn
Ġs orcerer
Ġs omers
Ġw en
Ġw ow
Ġw ars
Ġw ont
Ġw ages
Ġw inner
Ġw ob
Ġw innings
ou st
Ġh om
Ġh ater
Ġh ooking
ar acter
Ġb er
Ġb ud
Ġb old
Ġb ough
Ġb anks
Ġb umped
Ġb oos
Ġf u
Ġf aking
Ġf rill
Ġf umbling
Ġf uming
Ġf iddling
Ġf ooled
Ġo ption
ĠH ot
ĠH am
ĠH ard
ĠH ome
ĠH unt
ĠH OU
ĠH over
ĠH IS
ĠH UFF
at urn
it uary
Ġc her
Ġc od
Ġc ity
or ked
Ġhe aling
Ġd ent
Ġd ies
Ġd umped
Ġd ummy
Ġm ic
Ġm ould
Ġm ul
Ġm idd
Ġm ush
Ġm agg
Ġm illing
Ġm ummy
Ġm oust
Ġl u
Ġl ured
Ġl ashed
Ġl isted
Ġl inks
Ġth inned
ry ce
Ġp ing
Ġp iling
Ġp heasant
es irable
Ġha ul
Ġha vin
Ġg e
Ġg ag
Ġg ushed
Ġg ash
an o
an es
an us
Ġn um
Ġn ail
ow ard
ow ling
Ġy anked
ot hed
ot cher
Ġe re
Ġe bbing
ac u
ac lava
im ated
us ively
Ġst em
Ġst ooping
Ġst abbing
Ġit ching
et ing
ic a
ion e
ion al
Ġwh iff
Ġwh ichever
ro pe
ĠM ary
ĠM ug
ĠM mm
ĠM ORE
ĠM ulciber
ĠS P
ĠS et
ĠS ort
ĠS up
ĠS uddenly
ĠS aturn
ĠT R
ĠT ent
ĠT rou
ĠT un
ĠT est
ĠT reat
ĠT able
ĠT ale
ĠT iny
ĠT ongue
ĠT alking
ut y
Ġwe eds
ĠW otcher
out ed
ent ially
ĠD ora
ad os
Ġas hen
Ġre n
Ġre pt
ur ther
ur able
ur pr
al uff
se mpra
ag ra
ĠR ain
ĠR idge
ĠR umors
st le
ri ved
Ġwit s
Ġwit ted
ke eping
ch a
ch ard
ch ten
ĠA S
ĠA ward
ĠP or
ĠP erm
ĠP ain
ĠP ity
ĠP rew
Ġfor ks
Ġfor ged
am orph
um erable
pp et
all ing
Ġnot ed
ard ium
Ġsh ins
Ġsh atter
Ġsh afts
Ġk ing
ĠHe ar
pe c
ĠB on
ĠB at
ĠB less
ĠB ryce
em ing
em ade
Ġup t
Ġup hold
ight ed
ĠG as
ĠG ri
ĠG iving
ce nd
un ately
ĠC ons
ĠC aps
ĠC AN
ĠC atch
ĠC ongratulations
ind ict
ge l
Ġme rest
Ġme asured
Ġme chan
Ġne ared
ĠY EAR
Ġr ally
Ġr ump
Ġr ash
Ġr ammed
il ess
ĠF ant
ĠF right
ĠF air
ĠF ab
ĠF anged
ĠF lying
ĠF ungi
Ġall y
to ed
to ld
Ġshe lt
Ġj angling
Ġj ogging
Ġj umper
ĠL ia
ĠL ead
umb ered
Ġgo ate
ĠN ich
ĠN ational
ck le
Ġwhe eling
ast s
lo ad
lo ved
Ġv ote
art ial
Ġle ak
Ġab ys
Ġab ilities
Ġab laze
ĠO l
Ġno sy
lf ig
Ġro d
Ġro le
Ġro bed
Ġro sy
Ġal b
Ġal tered
Ġal che
ul ate
ul ated
ul ating
ff ect
ace ful
Ġte chn
Ġte eming
Ġover fl
Ġover pow
oy ant
ĠWh iz
ĠWh ite
Ġsu llen
Ġknow in
Ġpo ck
Ġpo isons
Ġch ute
Ġoff ices
Ġoff end
Ġsp awn
Ġsp ik
Ġsp angled
Ġsp ades
Ġsp urt
Ġqu aking
Ġqu een
ĠE ar
ĠE ve
ĠE mm
Ġcon sp
el come
Ġhand les
Ġun ison
Ġun ste
Ġbl aming
Ġbl undered
ĠV ow
ĠV ance
ĠV icky
ĠV ampires
Ġsc re
Ġsc reen
Ġsc ampered
Ġsc ribble
reat hing
Ġcl un
Ġcl aimed
Ġsl ashing
Ġsl iver
Ġor bs
Ġor chard
Ġwand less
Ġmo lt
Ġcom ical
Ġtw inkled
Ġdoor mat
Ġtr aged
Ġtr acing
Ġface less
Ġgl ide
Ġright ly
Ġright ful
au gh
Ġsw itched
Ġsw oop
Ġsw ipe
Ġfl our
Ġfl avor
Ġfl ute
Ġbefore hand
ĠU h
ol as
Ġen ab
Ġwill ow
Ġop erating
idd ikulus
ab s
Ġlong ed
Ġpre ced
Ġwat ers
Ġwat ered
Ġpe wter
Ġsomet ime
Ġtell in
Ġdis reg
Ġbeh aved
row ing
Ġlo in
Ġlo fty
Ġlet s
Ġrem nants
Ġspe cially
Ġpro fess
Ġpro fessor
Ġpro ced
Ġpro cl
ĠNe v
Ġac he
ĠCh arity
Ġmoment ary
He ad
Ġfirst ly
Ġpr one
Ġpr inted
ish op
Ġcont ains
Ġcont acts
Ġho ist
Ġho bbled
Ġdark est
Ġflo pping
Ġmight a
udd led
Ġtal ons
Ġsn ee
ock s
ock et
Ġwal t
Ġwal nut
Ġneed les
Ġfeel in
Ġdr ooping
Ġdr ooling
Ġwind ed
Qu idditch
Ġche ese
ĠQu iet
arm y
Ġimp artial
Ġhur ric
Ġcr umble
Ġcr unched
ĠIn n
ĠIn s
ĠIn terest
ĠJ ane
unn ers
Ġsur ged
Ġsur ging
Ġter ribly
ĠBl aise
ĠSt ation
Ġel ong
Ġkeep ers
Ġcur few
oot steps
be e
Ġboy friend
iet h
ĠSo ciety
Ġra zor
Ġwhis key
ĠYe ar
Ġwindow less
Ġper cent
Ġloud est
get ic
ip ment
Ġret irement
Ġstr ung
Ġstr angling
Ġsk ins
Ġsk immed
Ġlif eless
os ity
os ition
Ġfire crack
ĠUn like
Ġsqu ir
Ġsqu irmed
ump ent
Ġmind edly
Ġmagic ked
ĠAn swer
Ġmout hing
Ġple a
Ġple aded
Ġcare ss
Ġelse where
Ġgre ase
ten ham
Ġkill in
ĠAr mand
Ġhold s
Ġmut e
urs ing
Ġob tain
Ġob ituary
Ġpart ially
Ġbo a
Ġbo bbed
Ġbo asting
Ġread ers
Ġtop s
Ġtop ic
Ġtre ading
Ġtre pid
Ġtre stle
Ġinst ruction
Ġfull est
Ġlist s
Ġrec apt
Ġwond ers
Ġfore bod
Ġdist racting
Ġhor rific
Ġad o
Ġad ults
Ġfour teenth
ĠSe er
ĠSe arch
Ġco ils
Ġpain s
Ġposs ibilities
Ġsight ed
Ġsign ing
Ġdet ection
ĠAl as
ĠAl ice
ĠAl most
Ġvis ual
Ġred headed
Ġcat ast
ĠSc ar
ĠSc ared
Ġri f
Ġri ot
Ġri val
Ġact ions
Ġdef lect
Ġbreak s
Ġplay ground
Ġshort s
Ġshort cut
Ġdi ver
Ġdi ving
Ġext ent
Ġext ric
ĠSh ow
Ġblood s
Ġexc ruci
ĠRe c
Ġhall uc
Ġsurpr ises
Ġarri vals
Ġhat ching
Ġrel ive
Ġacc ounts
Ġins c
ĠWhere ver
Ġref illed
Ġfast en
Ġsent enced
ĠSn arg
Ġfree ze
Ġconf ett
sp oken
Ġport ly
Ġport ion
Ġprot uberant
Ġmur ky
ĠAt t
Ġvan qu
Ġrep ay
Ġrep orting
Ġexpect antly
Ġland l
esc ent
Ġtou g
Ġrun s
Ġspr inging
Ġtri ps
Ġsumm ons
Ġev as
Ġap iece
Ġmad am
Ġpict ured
Ġcertain ty
let chley
Ġbar ric
Ġint ake
Ġshad owed
Ġlead ers
ĠProphe ts
ĠProphe cy
Ġthro b
ĠSee kers
Ġflat tering
oul s
Ġmiss hap
Ġball ed
Ġshow ering
Ġz ey
Ġthrow s
Ġcons ented
Ġled ge
Ġscr uff
Ġscr amble
Ġscr utin
Ġsky ward
ane ously
Ġgri ffin
Ġprete xt
Ġfro gs
ipp ers
Ġglo ve
Ġwild est
Ġlock s
Ġtight ening
Ġtra ipsed
amb ling
ĠDiggory s
Ġcre ase
Ġdem and
Ġdem ol
Ġdrink er
Ġ1 1
Ġbound ary
Ġforget ful
OR M
OR ES
Ġextra vag
Ġdest iny
Ġdest roying
Ġconv ulsively
Ġdeal t
Ġconvers ing
Ġpan icky
Ġenjoy ment
ĠTom orrow
Ġtrust worthy
Ġmoon lit
Ġbre eding
Ġble arily
Ġhesit ate
Ġhesit antly
Ġpri zed
Ġborn e
Ġele ment
Ġur ging
Ġsol ved
Ġdep ressed
Ġenc rusted
Ġsevent eenth
Ġglad ly
rib ution
LE PUFF
Ġgro aning
clock wise
Ġsy st
Ġsy mpt
Ġconversation ally
Ġbew itch
Ġpret ence
Ġemb oss
ĠPe pper
Ġwin ter
Ġcompl ic
Ġsqueak ily
Ġsplit ting
Ġcloud less
Ġimm inent
Ġyer self
ott ages
Ġcharm ed
Ġsens itive
Ġagre es
Ġsatisf actory
Ġinterested ly
Ġnois elessly
Ġsnat ches
Ġpatch work
ĠSm iling
Ġswall owing
Ġcool er
Ġinf ur
Ġinf lic
Ġstri king
Ġstri pping
Ġstri ps
Ġrev iew
Ġbelong ing
Ġcompartment s
Ġunf amiliar
VE S
Ġhood s
Ġgoal post
Ġincred ulous
ĠCon j
ĠCon centr
Ġpriv ately
OO K
Ġben ign
mer ized
ĠBr others
Ġsad ness
ĠImper io
ĠImper vius
Ġcounter clockwise
Ġtoad stool
Ġkeen ly
Ġbul b
Ġstrid es
Ġunw elcome
ache ry
ĠWH Y
ĠWH AM
ĠGot ta
Ġdev otion
Ġbrave ly
Ġtemper ature
ĠSp inner
Ġstare s
ĠRos ier
Ġglow ered
Ġindic ate
Ġillumin ate
Ġweird ly
ĠAN Y
Ġsepar ately
Ġcontr ast
ĠDelacour s
Ġdue led
Ġconj uring
Ġtransform ing
Ġtransform ation
Ġanim atedly
Ġprevent ing
Ġskull s
Ġmotion ed
Ġdry ly
ĠFe ar
ĠOU R
Ġcard igan
Ġris king
Ġrap id
Ġbewild erment
An gelina
ĠHE LP
Ġrequ ested
Ġdecis ions
Ġident ify
Ġsteal th
ĠImperius ed
Ġrele asing
Ġflight s
ĠUnder secretary
Ġpu ppet
Ġartic les
Every thing
Ġpet ty
Ġcandle lit
Un fortunately
Ġpurs uit
Ġagree ing
Ġheight s
Ġthud s
Ġdod ges
Ġhill top
Ġlab or
Ġlab el
Ġgate way
Ġequ ipment
ĠCaptain s
Ġaccus ation
Ġharm ed
Ġbree zy
ĠIN QU
Ġwithd rawn
Ġdut ies
Ġknot ted
Ġcompet ition
Ġilleg ally
Ġreass ure
Ġexplan ations
tin ent
Ġripp le
Ġmed ieval
ĠCle arly
Ġencour aging
Ġpenetr ating
Ġbal aclava
ĠSil encio
ĠEv il
Ġtopp ling
upp orted
ĠBar na
Ġmal ice
Ġgall oped
Ġstamp s
Ġdefi ance
ios a
Ġfus sing
Ġfus sy
Ġrad ish
Ġgogg les
ĠOoo oh
Ġeyel ashes
Ġdispl aying
Ġadmir able
Ġdemonstr ated
Ġtim id
Ġhy p
Ġorgan ize
ĠChe ck
Ġdisp osed
Ġcong reg
Ġpati ent
ĠSpe aking
ĠVan ished
Ġindiffere nce
Ġguilt ily
inc ip
Ġremark able
Ġnin eteen
Ġcoward ice
Ġcruel ty
Ġexasperated ly
orks hire
Ġdevelo ping
Ġpod ium
Ġreco iled
Ġunwra p
Ġunwra pping
Ġhicc oughing
Ġlangu ages
Ġeer ily
icol ored
Ġcommunic ate
Ġsuspect s
Ch ristmas
ĠDet ention
Ġredd ish
Ġlegend ary
izz ling
ĠVol kov
Ġdescrib ing
Fr ank
Ġstif ling
ĠGold stein
Ġperf ume
AA AA
Ġtu fty
Ġtooth less
Ġart ifacts
ĠUr gh
ĠLev iosa
ĠSTU PE
ĠSTU BE
ĠHAVE N
ĠSkrew t
Ġsandw ich
Sever us
Ġtact less
Ġheir lo
ĠAp othecary
ĠAp ril
Ġsmart ly
Ġswive ling
Ġjew els
Ġjew eled
Ġbould ers
Ġdot ted
Ġmeal times
Ġintense ly
iven ess
Ġbol ts
Ġfanc ies
ĠMon sters
ĠTot tenham
Ġscru bbed
Ġdisag re
Ġproceed ings
Ġelb owed
Ġconfisc ate
Ġregard ing
ĠPeverell s
Ġtant al
Ġgif ts
Ġreflect ions
Ġfortun ate
Ġhaught ily
Ġneg lect
Ġvap or
ĠEver ard
Ġsmugg le
Ġflu id
Ġaggress ive
ĠSnorkack s
Ġmarry ing
ĠSin us
ĠDI ED
Ġshred ded
Ġoverwhe lmed
Ġchort ling
Ġunbe ar
Ġinterven ing
Ġpattern ed
Ġimmob ilized
Ġdescri ption
Ġmalevol ent
ĠNEWT s
Ġtil ting
Ġforb id
Ġforb idding
Ġdeb ating
Ġoppon ents
Ġferoc ious
Ġperman ent
Ġunconvin ced
Ġbump s
ĠWr ack
ĠAL BUS
ĠFam ily
ĠEN OUGH
Ġconqu er
Ġimpost or
ĠStr ong
Ġaccompl ished
Ġdisco vering
ĠSmelting s
Ġconnect ing
Ġtradition al
Ġfant astic
Ġcant ered
Ġdiscipl inary
Ġsquirm ing
Ġreser ved
ĠIgn ore
Er nie
Ġou ch
ĠMid night
ĠSens or
ĠDAR K
ĠRow le
ĠLie chten
Ġroset tes
Ġblunt ly
Ġremed ial
Ġoblig ed
Ġguarant ee
Ġrefus al
Ġcontrad ict
Ġintimid ating
Sil ence
Ġopt ions
Ġmix ing
Ġecl airs
Ġwhoos hing
ĠMet amorph
ĠWA IT
Ġplug s
Ġindivid ual
ĠSnive llus
ĠProt ection
Ġirre spons
Ġtransfer red
Ġtransfig ured
Ġconstric tor
Ġcobwe bs
Ġtumult uous
Ġove rex
Ġloop y
Ġpant ry
Ġpane led
ĠSwe et
Ġunhe lp
Ġstrate gy
Ġunfur led
Ġcounterc urse
Ġappoint ments
Ġkitten s
Ġoverwhelm ing
Ġnickn ame
Ġricoche ted
Pet unia
Ġcord s
Ġthudd ed
Ġinad vert
Ġnat ured
ĠPull ing
ĠFriend s
Ġconsequ ences
Ġunch aracter
Ġgrotes que
ĠUnt il
Ġcrad ling
ĠInvis ib
Ġgild ed
Ġbookl ist
Ġmutil ated
Ġtremend ous
Ġrecru iting
Ġforese en
Ġpresum ably
ĠRememb ering
Gryffind or
Pig widgeon
Ġtrif le
Ġaqu iver
Ġhord e
ĠHung arian
ĠSpl in
ĠTorn ados
Ġrecept ion
ĠAG AIN
ĠAlo homora
ĠPu king
ĠBert ie
ĠCauld rons
Ġrud eness
Ġjing ling
ĠLoc om
Ġviv idly
ĠOt tery
Ġslaught ered
Ġdiso bey
ĠJell y
Ġairborn e
Ġtresp ass
Ġinjust ice
ĠBrut us
Ġbubot uber
Ġdispir ited
ĠATT ACK
Ġunbal anced
Ġunrecogn izable
Bag man
mout hed
mitted ly
pal ott
Ġiv y
Ġsurn ame
Ġhom emade
ĠHOU SE
ĠHUFF LEPUFF
Ġmidd ay
Ġmush room
ĠTun ey
agra ph
ĠRidge back
ĠFant astic
Ġshelt ered
ĠLia ison
Ġgoate e
ĠNich olas
Ġabys m
Ġoverfl owing
Ġspik y
Ġmolt en
Ġtraged y
ĠArmand o
Ġtrepid ation
Ġexcruci ating
ĠSnarg aluff
Ġconfett i
Ġmisshap en
Ġsympt oms
Ġemboss ed
ĠLiechten stein
Ġirrespons ible
0 0
1 2
A B
A c
A g
A BLE
A bout
B arely
B uckbeak
C A
C L
C Y
C on
D Y
D es
E M
E LL
F E
F in
F ORE
G rawp
G RID
I m
I s
I ts
I ES
K ark
L et
L ily
L ondon
M er
M ar
M ust
M ugg
M iss
M udblood
N arcissa
O ver
O IN
P lease
R R
S pe
S qu
S ure
S lytherin
S uddenly
T on
T oo
T rying
T ogether
U L
U nder
V ernon
W ould
a unch
b as
b ute
c up
c hest
c ieties
d ening
d ash
e z
e ing
e nder
f r
g one
g ie
g ian
h ins
i ation
j ust
k i
k ie
k irk
l ad
l ang
l ied
l ia
l uded
l asting
m ark
m ate
m ple
m ity
m akers
n et
n al
n erv
o lf
p it
p ering
p ies
p ans
p oon
p ipe
p iece
p arents
r ot
r ust
r ant
r ise
r ings
s ir
s omething
t ie
t te
t here
v ant
v ated
v oc
v ald
v iew
w art
y w
z zy
Ġ 6
Ġ _
Ġ erm
Ġ ____
Ġ ickle
Ġt ong
Ġt iled
Ġt ax
Ġt icked
Ġt aunt
Ġt abby
Ġt ampered
Ġt att
Ġt aunting
he nded
Ġa in
Ġa pt
in ces
Ġs ill
Ġs ardon
Ġs izzling
Ġw ry
Ġw art
Ġw ist
Ġw arts
Ġw ince
Ġw ins
Ġw agg
Ġw iry
Ġw agging
Ġthe ft
Ġthe ories
re m
ou ch
ou ching
ou ple
ou gat
Ġh inted
Ġh oney
Ġh omes
ing ton
er dash
nd ry
Ġb ated
Ġb ale
Ġb ait
Ġb erth
Ġf ul
Ġf ath
Ġf und
Ġf ren
Ġf aked
Ġf olk
Ġo g
ĠH it
ĠH op
ĠH undred
is ion
it able
it ty
it ored
Ġc ot
Ġc ig
Ġc uff
Ġc rib
Ġc ooked
Ġc ottages
as ions
or ill
or ous
or por
Ġhe n
Ġhe ated
Ġhe aps
Ġd up
Ġd arn
Ġd ens
Ġd aily
Ġd reg
Ġd abbed
Ġd izz
en ious
Ġm oody
Ġm aid
Ġm umbling
Ġm akers
Ġm ajor
Ġm ascots
Ġl oo
Ġl ull
Ġl ame
Ġl ids
Ġth rees
Ġth ieves
ry one
Ġp ed
Ġp our
Ġp ate
Ġp awn
Ġp ens
Ġp inning
es y
es ters
Ġha ck
Ġha ff
Ġha unting
Ġha unts
Ġg al
Ġg na
Ġg orm
Ġg agging
Ġg orill
Ġin fect
Ġn ause
Ġn inny
Ġn ip
Ġn uth
Ġn aught
Ġn uts
Ġn ailed
Ġn iche
Ġn ursing
le e
le ased
Ġsa gged
Ġsa mple
ĠI ce
ĠI van
Ġbe head
Ġbe loved
Ġe ve
Ġe et
Ġe uphoria
ac led
ac ula
us to
Ġst ark
Ġst ile
Ġst ored
Ġst ains
Ġst ores
Ġst oop
Ġst umping
Ġst yle
Ġst ubs
oo sh
ic ine
ic ip
ic ably
ic iently
Ġwh ining
Ġwh ooping
Ġwh acking
Ġwh oosh
ro red
ir ke
ĠM a
ĠM erm
ĠM alf
ĠM AR
ĠM arsh
ĠM imsy
ĠS M
ĠS N
ĠS O
ĠS U
ĠS on
ĠS to
ĠS ub
ĠS ER
ĠS orted
ĠS itting
ĠS CH
ĠS igned
ĠS angu
ĠS yll
ĠS ixty
ĠS ounds
ĠT W
ĠT AL
ĠT alk
Ġwe eping
ĠW ent
ĠW ay
ĠW ard
ĠW idd
ĠW ON
ĠW rons
ĠW RON
ent al
ent hus
ent ials
ĠD um
ĠD ist
ĠD erv
ĠD uddy
ĠD ouble
ad er
Ġre ind
Ġre aring
Ġre eled
Ġre edy
Ġre ndered
ur sed
ur ances
al thy
al ties
al entine
ag m
ag ious
ĠR ather
ĠR ose
ĠR ob
ĠR uddy
ĠR ID
st and
ri age
ri be
ch and
ĠA f
ĠA qu
ĠA cross
ook s
red ict
Ġan gel
ĠP an
ĠP uff
ĠP ump
ĠP uffs
Ġse w
Ġse ating
her s
all ic
ĠRon nie
ack s
ard ing
Ġsh y
Ġsh ine
Ġsh ards
Ġsh attering
Ġsh rug
Ġk ip
ĠHe aring
pe l
Ġlook outs
ĠB Y
ĠB re
ĠB ro
ĠB ung
ĠB ank
ĠB ridge
ĠB arely
ĠB OR
ĠB RE
ĠB anges
ĠB UT
Ġdo ll
Ġdo le
Ġdo se
Ġdo ck
Ġdo zing
Ġout c
Ġout n
Ġout er
Ġout come
Ġout stri
Ġout do
ĠG um
ĠG ave
ĠG os
un ction
ĠC o
ĠC ed
ĠC arry
ĠC rou
ĠC old
ĠC ock
ĠC ount
ĠC ards
ĠC ouple
ge y
ge ance
Ġme as
Ġme nding
Ġne aring
Ġkn ick
Ġbut to
Ġbut terbeers
ĠY ES
ĠY orkshire
Ġr om
Ġr ained
Ġr aged
Ġr ays
Ġr aked
il ize
ĠF ar
ĠF ain
ĠF ree
ĠF ord
ĠF les
ĠF aw
ĠF rance
ĠF oul
ĠF ascin
ĠF ootsteps
if oot
to on
Ġj ail
Ġj abb
ĠL ower
ĠL iar
ĠL iving
umb ed
ĠN on
ĠN arg
ĠN urm
Ġso ap
Ġso ggy
Ġso cieties
ast e
lo ise
qu al
ort ant
own ing
Ġv ot
Ġv indict
ud es
ant ula
art hed
rid ges
Ġle er
Ġex tend
Ġex tending
our ne
Ġag on
Ġro ved
Ġro ses
Ġal erted
ct uous
Ġde ce
Ġde are
Ġde lu
ul ner
ul chan
Ġte et
Ġte nder
Ġte ens
Ġte ash
Ġte nding
Ġover c
ers hins
oy s
oy ages
ĠYou ng
Ġsu g
ig o
Ġpo x
na ble
Ġch ant
Ġch iv
Ġch anced
Ġch oc
Ġch illing
Ġch urning
Ġch aos
Ġdown pour
old ing
Ġsp ur
Ġsp ines
urn ed
Ġqu arry
Ġqu oting
Ġqu izz
ĠE ile
ĠE VER
ĠE loise
Ġcon ge
Ġcon ced
Ġcon vey
el vald
ick s
Ġun m
Ġun le
Ġun set
Ġun bidden
Ġun pre
Ġun rolling
Ġun acc
Ġun occupied
Ġun marked
Ġun enthus
Ġun ctuous
ass o
Ġbl ouse
Ġbl iss
Ġbl istered
ĠV is
ĠV alentine
ĠV ulchan
ĠV oyages
are tte
Ġsc or
Ġsc aven
Ġsc off
Ġsc oring
Ġsc ope
Ġpl ait
Ġpl umed
Ġcl amber
Ġcl ustered
Ġsl ung
Ġsl iced
Ġsl aughter
Ġsl umping
ap sed
Ġor chest
Ġhead dress
Ġmo or
Ġmo ans
ĠTh us
ĠTh ief
ĠTh irty
Ġtw iddled
Ġhow ls
Ġtr ays
Ġtr aces
Ġtr otted
Ġthan ked
Ġgr udge
au bles
Ġfl aring
Ġfl ies
Ġfl ags
Ġfl ailed
Ġfl anking
Ġevery thin
fter s
ol ving
ol ph
Ġen h
Ġen l
Ġen qu
Ġen quired
Ġen mity
Ġwill ingly
Ġop erate
Ġlong est
Ġim b
Ġwat chers
Ġpe g
Ġpe an
Ġpe el
Ġpe op
Ġdis pose
Ġdis armed
Ġunder cover
Ġunder grow
Ġlo ver
Ġlo af
Ġmu ck
Ġlet tering
Ġspe w
Ġbr ace
Ġbr anded
Ġbr ittle
Ġbr imming
Ġbr ackets
ĠWell ington
ect ions
ks ome
Ġpro ves
oll owed
He re
Ġsil enced
Ġsec recy
Ġpr im
Ġwa xy
Ġwa vy
Ġdes ired
Ġdes igned
Ġwell ed
Ġcont rolling
Ġho se
Ġatt ent
Ġatt raction
Ġsn ored
Ġsn arl
per ate
Qu irrell
Ġche ating
Ġopen mouthed
ĠQu est
ĠQu ality
ost s
Ġimp act
me re
Ġent wined
Ġcr inkled
ĠJ ets
ĠJ unior
ĠJ UST
Ġend lessly
ĠBl owing
Ġbit es
Ġbed sp
Ġhard est
Ġsupp er
Ġsupp lied
ĠSt ep
ĠSt icking
ĠSt atus
Ġlight ened
Ġel ated
ank ers
Ġnight cap
oot ing
be h
Ġra ving
Ġra pping
Ġra ided
Ġra fters
Ġlau ndry
ĠYe ars
Ġper se
Ġper using
Ġhair pin
Ġhouse hold
Ġstr anded
Ġhelp ful
Ġhear ted
Ġsk ipping
Ġsk iing
Ġfin er
Ġreal ity
Ġreal ise
Ġreal izes
Ġjo v
Ġbook cases
Ġmat ured
Ġquick ened
Ġsqu ashing
Ġcor ked
udge on
Ġang les
Ġang uish
Ġple as
aster s
Ġunt id
Ġmin ce
Ġkill ings
ĠAr chie
Ġmut ual
urs ion
Ġappe aling
Ġres ur
Ġres ort
Ġres idence
Ġres olution
Ġres ounding
pr oof
Ġpart icle
Ġpart icip
Ġbo ast
Ġbo ars
Ġbo iled
Ġbo oms
Ġrest ricted
li est
Ġtre ad
Ġtre asured
Ġtre achery
ĠBe w
Ġgive away
Ġinc on
Ġinc ensed
Ġinc orpor
Ġcar ving
Ġcar toon
ĠGr and
ĠGr inning
Ġrec om
Ġsto pper
Ġdist antly
Ġdist raction
Ġdist aste
Ġhor rors
Ġdeep ened
ult aneously
ĠSe vent
Ġexp an
head s
Ġco ated
Ġpain less
Ġfoot fall
Ġfoot ball
Ġfoot stool
Ġfather ly
Ġbes pect
ere st
Ġsle eps
Ġfur the
Ġsight ings
ĠEr umpent
ĠAl one
ĠAl bert
Ġvis ibility
Ġvis ibly
Ġheart string
Ġmar gin
Ġmar vel
Ġcat c
ĠSc rim
Ġact s
Ġdef ined
Ġswe aters
Ġdi pping
Ġunderstand s
ĠSh ort
ĠSh aking
ĠSh ooting
ĠKn ows
rel s
Ġexc ess
Ġcomp ost
Ġcomp osition
ub ble
ĠRe pell
ĠEx per
Ġce ase
Ġbright est
Ġbright ness
ĠFor ce
Ġhat ched
itc ake
Ġkind er
Ġmon key
Ġmon itored
Ġacc omm
Ġins ol
Ġins ub
Ġins ider
ĠCloak s
Ġinter ior
Ġinter pre
Ġpat rolled
Ġfast est
Ġmis ted
Ġsent ences
Ġmet allic
Ġbu rying
Ġspeak er
Ġwatch in
Ġed ition
Ġconf using
Ġwrong ly
Ġwrong do
Ġpocket ing
Ġunc o
Ġunc anny
Ġunc orked
Ġexpl ore
Ġsub jected
Ġprot ested
Ġprot ests
Ġsim pl
Ġsim pered
Ġsim mering
Ġsim pering
Ġrep ul
Ġexpect s
ĠPr om
ĠPr act
oun ting
Ġbell ow
ĠGood ness
ĠFire whisky
ĠEvery where
Ġtou ches
Ġspr ay
Ġpur se
Ġtri bute
Ġrepe ating
Ġappro vingly
Ġfa ults
Ġclut ch
Ġclut ches
Ġceiling ed
Ġshock ingly
Ġyell owing
Ġph ase
Ġsix teenth
Ġev ade
Ġcoll ide
Ġmad dening
ĠHer bs
Ġcreat ing
Ġpict uring
Ġthr one
Ġthr ashed
Ġear rings
Ġve iled
Ġconc o
Ġluck ily
off ee
Ġinv inc
Ġass ent
Ġass orted
Ġass igned
Ġsun rise
Ġrecogn izing
Ġbat hed
Ġbat ty
ĠSee ing
ĠCan ary
Ġreason ed
Ġir ksome
Ġecho es
Ġill ness
Ġill ustr
Ġcons ent
Ġtor ment
Ġtor rent
Ġdisc ord
Ġdisc arded
Ġmir rored
Ġhum med
Ġform ation
Ġform idable
IN K
IN S
Ġsing led
Ġfro ck
ĠTr icky
Ġcalm ing
ĠTH INK
Ġhast y
Ġdifficult ies
Ġbow ls
Ġtight en
Ġposit ive
Ġnarrow ing
Ġnote book
Ġtip toed
Ġann ounce
ON D
Ġ1 0
Ġ1 2
Ġcrack led
Ġbang les
Ġtow ers
Ġdest ab
ĠMiss ing
Ġsecret ary
Ġpan el
Ġenjoy s
Ġappear ances
Ġwondering ly
Ġinn it
ĠNor we
Ġlibr arian
Ġbre ach
Ġtouch y
Ġsick ened
Ġele g
Ġworth while
Ġrock ed
Ġdep ressing
the y
eng ard
Ġreve als
Ġgro pe
Ġpol ish
Ġtom ato
Ġjump y
AT HER
Ġbew are
Ġsho ppers
Ġdri p
Ġdri pped
oph antically
Ġpoor ly
Ġcompl ac
Ġcompl iment
Ġsqueak s
ĠTHE M
ĠTHE Y
Ġcro aky
wizard s
Ġpar ano
Ġink ling
Ġsoul s
Ġsuff ice
Ġexplo sions
Ġune arthed
Ġirrit ation
Ġguess work
Ġthreat s
Ġund ers
Ġund erest
Ġclot hed
Ġban qu
Ġban ners
Ġspl utter
Ġspl uttering
Ġchampions hip
AN CE
Ġcour sing
Ġgra vy
ĠWor ple
Ġlur ching
Ġthank ful
Ġthank fully
Ġmer ry
Ġmer chand
Ġbeat s
Ġpatch y
Ġbirthday s
ĠSm eth
ĠPo inting
Ġexper iment
Ġexper iments
Ġinterrup ting
ĠMe et
Ġinf in
Ġinf usion
ĠAm azing
Ġrev ived
Ġeffect ively
VE D
Ġwra p
Ġhood winked
Ġspectac ularly
Ġdefe nding
Ġgrand parents
Ġremo val
Ġpill ar
ĠMost e
Ġclean er
Ġinnoc ence
Ġstream s
Ġstream ers
Ġpou f
Ġpou ff
Ġblind ed
Ġindign ant
Ġdim inished
Ġdragons kin
ov a
Ġant lers
Ġtriump hed
Ġfair ies
Ġpen cil
Ġpen alties
Ġjourney s
Ġjourney ed
ĠGrind elvald
ĠOW N
Ġpop ulation
Ġtired ness
Ġunw anted
Ġdu els
Ġsuggest ions
Ġmagn et
Ġslo pped
Ġsweat shirt
Ġchar red
Ġpick led
we ar
Ġstiff ened
Ġval entine
Ġdeli vering
Ġhandle b
ĠOut er
Ġvar ied
Ġtransform ations
Ġexperi ences
Ġexperi encing
Ġcamp ing
Ġchuck ing
Ġgreet ings
Ġstreng then
Ġwis er
Ġwis ps
Ġbust le
Ġtot tered
ĠFe ast
ĠFe int
ogg arts
Ġclen ch
Ġscra p
Ġamb ush
Ġcapt ion
ĠGreg ory
Ġprog ressed
Ġaut umn
ĠHA GG
ĠHA GRID
Ġsav oring
ĠHigh ly
Ġimpro ving
Ġcarp ets
ĠBet ween
Ġdel uded
Ġregret ting
Ġcomment ating
ĠDec ember
Ġcrump et
Ġextraord inarily
St an
olo g
Ġpurs u
Ġsuper v
Ġsitu ations
ĠMaraud ers
Ġcheek b
Ġfail ure
Ġfocus ing
Ġlab yr
ĠBE H
Ġprick ly
Ġbull ied
Ġnecess ity
Ġflow ered
aa ah
Ġcra b
Ġcra ving
Ġreb u
Ġscrew ing
Ġbra vest
Ġfet ched
Ġpurpose fully
Ġfart hest
ĠWar locks
Be hind
Mad ame
ĠDO B
Ġrever ie
Ġrever sed
Ġuns m
Ġuns ucc
Ġuns urpr
Ġuns upported
ĠStud y
Ġripp les
Ġgentle man
ĠEng org
Ġsteady ing
Ġrelax ing
ĠFour th
Ġorph ans
ĠQuick ly
Ġoccup y
Ġdisgu ises
Ġmagnific ently
Ġbal anced
Ġbal ancing
Ġpeace fully
IS ITOR
ĠTe a
ĠTe ach
ĠOb ject
Ġconcl ude
Ġloc ations
Ġprov oke
Ġprov iding
Ġcomplain ts
Ġdiv iding
Ġpainting s
Ġridicul ously
Ġhid in
Ġleaf y
Ġduel ers
Ġumbrell as
Ġsou ven
Ġfus sed
Ġrad i
Ġrad ishes
Ġdiss olving
go ing
Ġbark s
Ġmil ky
ĠMA D
ĠRom ulus
Ġcrit icism
Ġadmitted ly
Ġdeliber ate
ĠWond ering
ĠBrit ish
Ġcrim inals
Ġsen ior
Ġlung ing
ĠSpe ak
ĠTre es
Ġhandful s
Ġscroll s
Ġexception al
Ġtrolley s
fl akes
Ġwrest le
Ġbill owed
Ġagg ra
Ġobser ve
Ġfleet ingly
Ġimprison ing
Ġtin sel
Ġsal ute
Ġsal mon
Ġstack s
Ġrespond ed
Ġtit les
Ġhar p
Ġmor on
Ġpal omin
Ġpod s
Ġsteep ly
Ġinclin ing
Ġinclin ation
Ġens uring
Ġinsist ence
Ġting e
Ġaud ience
Ġbund led
ĠHerm es
Ġrequire s
Ġarrog ance
Ġrou se
ĠHar pies
ĠHmm m
Ġtomb stone
ĠBel ow
Ġsnout like
Ġtrem ulously
Ġfog gy
Ġcust om
ĠUr gent
ĠUr anus
Ġexcl usively
Ġinvol unt
ĠLev icorpus
Ġjeal ousy
De ath
UR N
Ġmim ed
Ġinqu ired
Ġinqu iringly
Ġstrang ers
Ġmouthful s
Ġaffection ate
Ġaffection ately
Ġachieve ments
Ġskelet ons
ĠDungb omb
Cr ack
Ġmound s
ĠBas il
Ġvampire s
Ġhandwrit ten
Ġclaim ing
Ġimper tinent
Ġfreck led
Ġtown s
Ġlat eness
ĠSI LEN
ĠGO ING
Ġscru bby
Ġsmug ly
Ġsmug ness
ĠInc ant
Ġmusc ular
Ġskept ical
Ġtant rum
Ġmes merized
ĠSer iously
Ġtext books
Ġcris ply
Ġfortun ately
ĠBowtruck les
ĠSC ORES
Ġreli ving
Ġfruit less
Ġneg lected
Ġjoy fully
Ġsmugg ling
Ġintrig uing
ĠMAGIC AL
Ġcritic izing
Ġav ailable
Ġbond s
Ġhed ger
ĠSw itching
ĠSlu gh
ĠWIT CH
Ġrout ine
Ġexer c
Ġclaw ing
Ġdisple ased
Ġcleve rest
Ġadvis ing
Ġadvis able
Ġflex ible
Ġinterven ed
Ġparent age
Ġinfl ated
Ġcourtroom s
Ġsan ity
ĠHippogriff s
Ġpomp ously
ĠMan or
ĠSupp lies
ĠGol palott
ĠCent er
Ġquant ities
Ġentertain ment
Ġrelent lessly
Ġsubd ue
Ġferoc iously
Ġdescend ants
Ġeavesd rop
Ġmerm aid
Ġloos ening
Ġreread ing
Ġjost led
Ġrocket s
Ġconqu ered
ĠUnd oubtedly
ĠUnd esirable
ĠInst inct
Ġflee ing
Ġdwarf s
Ġted ious
Ġted dy
Ġfant as
Ġfidget ed
Ġfidget ing
Ġmull ioned
Ġlumb ered
Ġlumb ering
Ġjubil ation
ĠLock er
Ġunsc rew
Ġstragg lers
Ġreser ve
Ġintern al
Ġsubm itted
Ġimmort al
Ġsuffoc ating
Ġbetray al
Ġmult icolored
Ġguff awed
Ġnest led
ĠDAR E
Ġshove ling
Ġsheep ish
Ġroset te
ĠEu an
ĠEu rope
Ġbrist ling
Ġrefus es
Ġkidna p
Ġrebell ion
Ġreverber ating
Ġnut ters
Ġhistor ian
ĠRod olph
ĠAc id
ĠAng lia
ĠPudd ifoot
Ġsup reme
Ġpref ers
Ġadj usted
Ġregurg itating
Ġignor ant
Ġignor ance
Ġreminisc ently
Ġzigz agged
Ġzigz agging
Se amus
eal ous
Ġbaw ling
Ġdash board
Ġpony tail
Ġpamph let
ĠPres ident
Ġrh yth
Ġliber ty
Ġoverl arge
Ġpolic y
Ġchann els
Ġqua vering
Ġconso lingly
Ġunrave led
Ġscal p
Ġpepp ermint
Ġspecul ation
Ġhelm et
Ġairpl ane
Ġpostp one
Ġprepar ations
Ġvali antly
ĠClear water
Ġensl aved
Ġeavesdro pping
Ġancest ors
Ġwool en
Ġhither to
Ġbisc uits
Ġinse ct
ĠServ ices
ĠWing ardium
ĠDu eling
ĠDam n
ĠDest iny
ĠDiff indo
ĠDread ful
Ġrelinqu ished
ĠBes ide
ĠGh ouls
Ġdeg rees
Ġflobberworm s
Ġpassers by
ĠBeg inners
Ġrecoll ections
Ġadop ted
Ġcollaps ing
Ġirres ist
Ġmerc ifully
Ġtimet able
Ġvigil ance
Ġrasp berry
ĠRedu ctor
ĠSectum sempra
IZ ARD
wit ness
Ġaer ial
Ġfest ive
ori ented
Ġpra ise
Ġgaw ping
Ġgurg ling
Ġasce nded
Ġreun ited
ĠPow der
ĠPast illes
ĠBarn y
Ġfru itcake
ĠCabin et
ĠWerew olves
Ġlev itating
Ġunst able
Ġscen es
Ġappra ising
ĠNose bleed
Ġcarol s
Ġmistreat ed
Ġdiscour aged
Ġsyc ophantically
Ġcandid ate
ĠSpellot ape
Ġundet ected
Ġcourte ously
Ġreinst ated
Ġadvertis ement
Ġhinkyp unk
sb ane
Ġsomers ault
Ġwob ble
Ġmoust ache
ĠTent acula
ĠTrou ble
Ġalb um
Ġoverpow ered
Ġpock marked
ĠEmm eline
Ġunste ady
augh ing
Ġflour ishing
Ġloin cloth
Ġproced ure
Ġprocl aimed
Ġhurric ane
ĠInterest ing
Ġelong ated
Ġobtain ed
Ġrecapt ure
Ġforebod ing
Ġcatast ro
Ġhalluc ination
Ġlandl ord
Ġevas ively
Ġscrutin izing
Ġdemol ished
Ġsyst em
Ġinflic ted
Ġgoalpost s
ĠBarna bas
incip les
ĠSTUPE FY
ĠSTUBE FY
ĠWrack sp
Ġoverex cited
Ġunhelp ful
Ġinadvert ently
Ġuncharacter istically
Ġabysm al
Ac ceptable
Ag rid
Des pite
Kark aroff
nerv ate
Ġtatt oo
ĠHop kirk
Ġcig arette
Ġdup lic
Ġdreg s
Ġloo ph
Ġgorm less
Ġnuth in
ĠIvan ova
ĠMerm ish
ĠSCH OOL
ĠSangu ini
ĠSyll abary
ĠTAL K
ĠWidd ershins
ĠWrons ki
ĠDerv ish
Ġreind eer
ĠPump kin
ĠBOR N
ĠGos h
ĠCock roach
ĠFles h
Ġjabb ering
ĠNarg les
ĠNurm engard
Ġdeare st
ulner able
Ġteash op
ĠEile en
Ġunenthus i
ĠVulchan ov
Ġorchest ra
Ġundergrow th
Ġbedsp read
Ġincorpor ating
Ġfootfall s
Ġbespect acled
Ġfurthe st
Ġaccomm od
Ġinvinc ible
ĠNorwe gian
Ġparano id
Ġmerchand ise
ĠHAGG ER
Ġlabyr inth
Ġunsucc ess
ĠRodolph us
' ..
A W
A ut
A pp
A cc
A LL
A VEN
B OL
B eyond
B reathing
C an
D ENTS
E H
E re
E AT
E VE
F ang
F urther
G rubbly
G ilderoy
H ad
H ave
I G
I O
I gn
J U
J inx
K inn
K ingsley
L e
L ove
L ee
L ER
L ucius
L AND
M o
M or
M undungus
M ENT
N ick
O F
O K
O r
O w
O CK
P r
R em
R os
R avenclaw
S P
S pect
T relawney
U E
U U
V ING
V iktor
W N
W and
W AY
a ur
a iry
b or
b ore
b urn
b ound
b ank
b ird
c er
c lo
c les
c iously
c ony
c omed
c omm
d ock
d ream
e w
e ur
e very
f ree
f ounded
f olded
f loss
g reat
g ins
g ency
g asted
g iving
i ot
i am
i vers
k ily
k ens
l ore
l ice
l ate
l ating
l ishing
l aid
l ict
m ag
m all
m ble
n og
o here
o bs
p ill
p ort
p ling
p ool
p ress
p ane
r ots
s al
s upp
t able
u um
u icy
v ious
w arn
w ere
w orth
x im
y a
y b
y t
z ied
Ġ ]
Ġ icing
Ġ uttering
Ġt at
Ġt ad
Ġt ain
Ġt umbled
Ġt ure
Ġt inny
Ġt acked
Ġt inkled
Ġt aunts
he ars
he ment
Ġa i
in en
in ter
in to
Ġs ion
Ġs ite
Ġs ine
Ġs ings
Ġs ipped
Ġs orrow
Ġs ane
Ġs izes
Ġw il
Ġw est
Ġw anna
Ġw reath
Ġthe r
Ġthe en
re p
re ed
ou ng
Ġh umb
Ġh ating
Ġh ush
Ġh ips
on ge
er ole
ar ked
ar ison
ar by
nd ium
Ġb out
Ġb art
Ġb ass
Ġb og
Ġb ile
Ġb iding
Ġb alm
Ġb rows
Ġb aked
Ġb ombs
Ġb ishop
Ġb oggarts
Ġf ou
Ġf ut
Ġf ans
Ġf anged
Ġf ishing
Ġf asc
Ġf ungi
Ġo st
Ġo aken
Ġo tter
ĠH ag
ĠH ill
ĠH ast
ĠH ide
ĠH ull
ĠH air
ĠH IGH
at em
at ius
at ched
at iously
at isf
Ġto b
Ġto en
is ly
is key
Ġc ass
Ġc aring
Ġc act
Ġc ater
Ġc rave
Ġc ooped
Ġc aved
Ġc ode
Ġc asket
or r
or is
or ice
or ient
id ated
id ery
Ġhe wn
Ġhe ft
Ġhe aped
Ġhe nce
Ġhe eled
Ġd re
Ġd ess
Ġd app
Ġd anc
Ġd itched
Ġd ented
Ġd yin
Ġd ittany
en er
Ġm a
Ġm all
Ġm ach
Ġm ah
Ġm igh
Ġm aps
Ġm ashed
Ġm akin
Ġl est
Ġl oun
Ġl akes
Ġl amb
Ġl ashing
Ġl ads
Ġl inen
Ġth irt
Ġp ry
Ġp ir
Ġp ud
Ġp ep
Ġp hen
Ġp umm
Ġp ug
Ġp int
Ġp als
Ġp ian
Ġp asted
Ġp uce
Ġp itching
Ġha n
Ġha p
Ġha il
Ġha gg
Ġha mb
Ġha unt
Ġha ph
Ġha uled
Ġha zard
Ġha voc
Ġha yw
Ġg ing
Ġg am
Ġg au
Ġg rie
Ġg ale
Ġg ush
Ġg ambling
Ġin ched
Ġin ade
Ġin ept
an ent
an ched
an ied
an ity
Ġn ic
Ġn udging
le ading
le mere
Ġsa ge
Ġsa iling
Ġsa int
Ġsa bot
ly head
ĠI D
ĠI RE
ĠI ckle
Ġy a
ot or
Ġbe a
Ġbe es
Ġbe ach
Ġe ased
Ġe ez
ac ting
ac iated
im al
im eter
im inal
us ions
us tering
ve ling
Ġst im
Ġst up
Ġst itches
Ġit em
oo o
oo ble
et ers
et ched
et ition
ic it
Ġwh iled
Ġwh acked
Ġwh oop
ro bes
ro ps
ir ies
ĠM od
ĠM ere
ĠM oon
ĠM omm
ĠM uttering
ĠM UR
ĠS aw
ĠS li
ĠS pect
ĠS aved
ĠS LY
ĠS yb
ĠT y
ĠT ab
ĠT rave
ĠT ON
ĠT ibb
ĠT RI
ut ing
ut ions
Ġwe asel
ĠW it
ĠW et
ĠW ord
ĠW anted
ĠW ild
ĠW itches
ĠW atching
ĠW IZARD
ent e
ent atiously
ĠD A
ĠD s
ĠD ot
ĠD ill
ĠD ud
ĠD ra
ĠD og
ĠD uring
ad ding
Ġas pect
Ġat tending
Ġre te
Ġre ign
Ġre pr
Ġre eling
Ġre hears
ur gh
ur us
ur iously
ur ger
se at
se emed
se ndium
ag ement
ĠR ise
ĠR iver
ĠR oyal
st ed
st op
st aking
st ains
ri ers
ri pt
ri ption
Ġwit hering
ch ant
ĠA C
ĠA M
ĠA w
ĠA dd
ĠA PP
ĠA aaaa
Ġan the
ĠP ay
ĠP ius
ĠP ure
ĠP ell
ĠP ower
ĠP ier
ĠP ushing
ĠP LE
ĠP roud
ĠP ausing
ĠP ops
ĠP RI
ĠP EE
ĠP ocket
Ġse ed
Ġse aw
am ation
am aged
am eless
um sy
all op
ill s
ill ingly
Ġsh ore
Ġsh ard
Ġsh ark
Ġsh unting
Ġk app
Ġk etch
erm ined
ĠHe ard
ĠHe art
ĠB le
ĠB ird
ĠB ald
ĠB inky
ĠB ob
ĠB ED
ĠB addock
ĠB IR
ĠB rock
ĠB anshee
ĠB roken
ĠB army
ĠB letchley
em ius
em ies
Ġup d
Ġup coming
Ġfr ay
Ġfr inge
Ġdo c
Ġdo ze
Ġdo dge
Ġout right
Ġout ward
Ġout cast
ĠG ra
ĠG org
ĠG RA
ĠG iven
ĠG OOD
ĠG erroff
ĠG adding
ce eding
un ed
un ct
ĠC ru
ĠC akes
ĠC aught
ĠC OW
ĠC ounter
ĠC atching
ĠC urious
ĠC oward
ind ed
ge o
Ġme and
Ġme ekly
Ġme lting
Ġne e
Ġkn it
Ġkn ob
Ġbut tering
and ly
Ġr unn
Ġr anged
Ġr uth
Ġr hin
Ġr iddikulus
Ġfe ign
ĠF lo
ĠF ace
ĠF ool
ĠF ail
ĠF anc
ĠF arewell
ĠF urious
ĠF IRE
ĠF ATHER
if iable
ĠWe nd
ĠWe ren
Ġj ugg
Ġj ourn
Ġj ury
Ġj aunt
Ġj awed
Ġj unior
Ġj uicy
ĠL arge
ĠL ots
ĠL osing
ĠL AST
ĠL uckily
ĠL OOK
umb ing
Ġgo ats
ust ing
ust omed
ĠN in
ĠN orm
ĠN arrow
ĠN UM
ĠN onsense
ĠN oooo
ĠN OOOO
ĠN ougat
ck er
Ġso fter
lo ps
lo gged
Ġback p
Ġback yard
Ġback seat
qu er
qu ate
ide o
Ġv ine
Ġv ines
Ġv oted
Ġv andal
Ġv ulnerable
Ġv ideo
ud ges
art emius
Ġex ten
Ġex its
Ġex tern
Ġab using
our g
ĠO K
ĠO oh
ist ine
ra p
Ġro ads
ct ing
ct ly
ct ors
Ġde eds
Ġde emed
Ġde pending
ul king
ul ity
ff le
Ġte asing
Ġover looking
Ġover long
Ġover bal
Ġover look
Ġwould a
ig ious
ig ible
Ġknow ingly
Ġpo em
Ġpo cus
Ġpo sing
Ġch amb
Ġch ival
Ġdown cast
Ġoff ic
Ġoff ers
Ġoff ence
Ġoff hand
Ġlike wise
iz ingly
Ġsp utter
Ġsp attering
Ġsp uttering
Ġsp orts
Ġsp asm
Ġsp onge
Ġqu ilt
ĠE nd
ĠE ric
ĠE ey
ĠE mpt
ĠE specially
ĠE urgh
Ġcon tend
el in
Ġus hering
Ġhand led
Ġun lo
Ġun ite
Ġun pr
Ġun sh
Ġun lock
Ġun heard
ie vingly
op ular
Ġbl ister
Ġbl urs
Ġbl andly
ĠV ot
ĠV iolet
Ġcan s
Ġcan ary
Ġcan tering
Ġsc ent
Ġsc ald
Ġsc rup
Ġsc oop
Ġsc ented
Ġpl un
Ġpl oughed
Ġcl u
Ġcl ashed
Ġcl anging
Ġcl uster
Ġcl umsy
Ġsl ot
Ġsl ur
Ġsl ap
Ġsl ab
Ġsl ouching
Ġmy th
Ġmy steries
ap idated
Ġhead board
ĠTh ir
og any
Ġtw irled
Ġsm e
Ġsm ould
Ġsm ock
Ġsm attering
Ġsm udged
Ġvo icing
Ġtr ade
Ġtr amped
ĠK een
ĠK ING
ĠK illed
ĠK IL
ĠK irke
orn ed
ĠBut terbeers
Ġthan king
Ġar d
Ġar k
Ġar ched
Ġar ts
Ġgr ime
Ġgr ins
Ġgr unts
Ġgr isly
Ġseem ingly
ĠPot ente
Ġsw an
Ġsw ished
Ġsw ings
Ġsw amp
Ġsw apping
Ġfl ing
Ġfl it
Ġfl are
Ġfl ip
Ġfl ier
Ġfl ushing
ol ates
Ġman ure
Ġclo cks
Ġen v
Ġen vy
Ġen viously
Ġen raged
Ġroom y
Ġop al
Ġop als
Ġop erated
Ġpe as
Ġpe gs
Ġpe bbles
Ġpe aky
Ġdis e
Ġdis arr
Ġdis par
Ġdis orient
Ġunder foot
Ġke p
Ġlo sers
ĠDe ep
Ġlit tering
Ġspe ar
Ġspe ars
Ġspe lled
Ġspe cks
Ġbr at
Ġbr ats
mb ridges
ect able
Ġpro long
Ġpro voked
Ġac qu
Ġac ne
Ġac cuse
Ġac quired
ĠCh aring
ĠCh uck
ĠCh ines
ĠCh apter
Ġtry out
ress ive
Ġsil ken
Ġsil ky
Ġtwo s
Ġsec ured
Ġsec luded
Ġpr ince
Ġpr uning
Ġpr istine
ped ed
Ġwa vering
Ġwa ils
Ġgood s
Ġwizard ry
Ġcont acted
Ġcont agious
Ġho pping
Ġho vel
Ġflo p
ple ts
udd ing
Ġtal ents
Ġsn aked
Ġsn uffed
rie ved
Ġdr umming
ĠMc Kinn
Ġwind y
Ġmust a
Ġimp osed
ced ented
ign ific
Ġput rid
Ġhur tle
Ġpass enger
Ġcr umbled
Ġcr inging
Ġcr ush
Ġcr amming
ĠIn k
ĠIn to
Ġbel ching
ĠJ ack
ĠJ ump
ĠJ udging
pl ace
pl ish
pl ott
Ġend uring
Ġend urance
Ġgreat ness
Ġbed stead
Ġbed time
Ġbed clothes
Ġhard ened
ĠSt ar
ĠSt ink
ĠSt ick
ĠSt uff
ĠSt unners
Ġgi bb
Ġgi vin
ugg ish
Ġel usive
Ġel apsed
ern ess
Ġside lines
Ġkeep er
Ġschool boy
be ck
Ġnew born
Ġlarge ly
Ġfound er
Ġem aciated
Ġsit tin
Ġper ches
Ġper sec
Ġper turbed
az ardly
acher ous
ip ly
Ġret ched
Ġret ribution
ement ed
Ġstr and
Ġstr utting
Ġhelp less
ild ered
Ġsk ive
Ġsk imming
Ġhalf heartedly
aw k
Ġreal ms
Ġbook case
Ġbook shop
Ġlif el
av ored
Ġcast les
Ġyear ning
Ġyear ned
Ġbeing s
ĠUn ited
Ġsqu ared
ng thening
Ġcor ks
ĠDark est
ĠPer u
ib ited
Ġple ad
ĠWho a
riend ly
Ġste er
Ġste el
Ġste eling
Ġexpe lling
Ġmin ister
Ġeye witness
Ġkill s
Ġhold er
amp ering
Ġres uming
Ġres idents
Ġgold fish
pr int
Ġpast ies
Ġbo ards
Ġbo ssy
ĠMy st
Ġtop ics
li o
Ġtre acherous
ĠBe asts
Ġreturn s
form ed
Ġsna ils
Ġinc apable
Ġinc ohere
ĠGr ay
ĠGr unn
Ġrec iting
Ġrec ipe
ither wings
Ġcou nts
Ġdro plets
Ġdist ress
Ġad ol
Ġad ept
Ġad orned
ĠSe nding
ĠSe emed
ĠSlughorn s
Ġexp anding
Ġdead ened
igg s
Ġco il
Ġco ax
Ġwork load
Ġstra p
Ġstra pping
Ġmem o
Ġdec ay
Ġind ul
Ġind isting
Ġbes ee
Ġfur led
Ġpers ons
Ġpers istent
Ġgu iding
Ġcontin ues
Ġsight less
Ġowl ery
Ġsign post
Ġdet our
Ġdet ach
ĠAl so
ĠAl gie
Ġwhole heartedly
iv ity
Ġred oub
ĠWhen ever
Ġask in
Ġstraight for
Ġmar bles
Ġmar gins
Ġcat hed
Ġcat ches
ĠSc owling
Ġcorn ering
Ġcorn flakes
Ġbur ly
Ġbur ial
Ġact ive
Ġpot ted
Ġpot ential
Ġpot entially
Ġdef lated
Ġbreak in
Ġshort cuts
Ġsort a
Ġfall s
Ġnose bleed
cept ibly
ĠSh ock
Ġblood stains
Ġbus ied
Ġexc ursion
Ġcomp ass
Ġcomp ens
Ġcomp ressing
Ġcomp arison
ĠBill y
ĠRe ve
ĠEx am
Ġpower less
Ġfly away
Ġmon um
Ġmon ks
Ġspot light
Ġacc ustomed
Ġins ens
Ġins cr
Ġins ignific
Ġfle xed
ĠFil th
ĠFil thy
ash io
ĠWhere as
ĠOr b
Ġwater logged
Ġref illing
Ġfast ening
Ġmis d
Ġmis fortun
Ġmis beh
Ġmis giving
Ġmis leading
Ġsent in
Ġmist rust
Ġperson ality
Ġbu bbled
Ġbu oyant
Ġthick et
Ġthick ening
oc r
oc re
Ġed itor
Ġconf ined
Ġconf ronted
Ġfight s
Ġexpl ains
Ġsub mer
icul arly
ĠGreat er
Ġsim ultaneously
abb er
abb led
abb itty
ĠTrelawney s
Ġrep acked
tail s
Ġexpect ant
Ġnumb ly
Ġnumb ness
Ġinterest ingly
Ġdiffere nces
Ġhundred th
Ġru ining
Ġbell s
Ġplan ner
Ġpres er
Ġpres ume
ping ton
Ġspr ayed
Ġpur red
Ġpur pos
Ġtri lled
Ġappro aches
Ġclut ter
Ġburn ished
Ġph ial
Ġreg en
Ġreg aining
Ġwrit he
Ġev acu
Ġcross es
Ġpract ically
Ġmid riff
ER O
Ġmad man
Ġcreat ion
Ġeff ing
Ġeff ic
Ġattack ers
ident ally
bus hes
Ġbar red
Ġbar riers
Ġthr ot
Ġear ring
Ġve ined
Ġve hement
Ġemer gency
ĠGo bbled
ask ets
Ġlead en
Ġcut e
Ġinv ention
Ġinv olves
Ġass urances
Ġrecogn ition
Ġbat ch
Ġtrain s
Ġmiss es
Ġpale ly
Ġball et
Ġball oons
Ġegg nog
ĠCr iminal
Ġill usion
Ġcons uming
Ġought a
Ġdisc ons
ĠPat hetic
Ġeag erness
orrow ed
Ġpun ishing
Ġform al
IN E
Ġsing ularly
Ġtrans lation
Ġfre s
ĠPl imp
ĠLe ast
ĠLe gs
ĠLe vels
Ġrose bushes
Ġbottle brush
Ġadd led
Ġcalm er
ĠTH ING
Ġadm on
Ġobject ions
Ġglo ved
medi ately
ĠFl ag
Ġord eal
ĠSec ure
Ġbas is
Ġfer til
Ġgrow th
Ġbath robe
Ġprom oted
ĠDis armed
Ġstrong est
Ġpost ed
Ġpost man
Ġbottom s
Ġ1 3
ote cted
Ġview ed
Ġoppos ition
Ġcrack er
bl ack
bl ue
Ġnone x
Ġdest ined
Ġconv ict
Ġweak er
Ġsecret ive
ĠRem over
Ġrepl ic
Ġrepl ay
Ġarg u
Ġing enious
Ġinn umerable
lic it
Ġble ary
Ġble nded
Ġspir aled
Ġnotice able
Ġeyeb alls
Ġsend s
Ġpath s
ĠKeep ers
Ġaftern oons
Ġbeard s
Ġrock er
rib ed
Ġbathroom s
omp anied
Ġreve rence
Ġsusp ension
Ġgro ggy
ĠPatron um
Ġdra wl
Ġglit ter
Ġexcit able
ĠZ ey
Ġess entials
Ġsho e
Ġdri bbled
Ġemb raced
Ġstat us
Ġgrass y
Ġfool hard
Ġvill ages
ĠTHE IR
Ġpub lished
Ġpar agraph
ĠSpell man
ĠWand ering
Ġsuff iciently
Wh ite
Ġexplo sive
Ġhide out
ĠTrans yl
ĠTrans port
Ġmen ace
Ġjinx ing
Ġune asily
Ġcupboard s
ĠXen o
Ġappre hended
Ġfil tering
Ġpay ment
Ġund amaged
Ġban king
Ġban ning
Ġspl ashes
Ġplat ters
Ġgra pp
Ġgra zing
ĠStone wall
Ġlur id
Ġdisappo inting
Ġprotect ing
Ġannoy ingly
Ġfit ting
ĠPo ppy
Ġexper ts
ruct ive
ĠTransfig ured
Ġinf irm
ĠAm ong
Ġhorror struck
Ġaware ness
Ġsolid ified
Ġfo als
ĠAber cr
Ġunf olding
Ġsque als
Ġwra ppings
Ġsurv ival
Ġconcern ing
ĠFin ite
Ġgrand eur
Ġfinal ity
Ġincred ulity
Ġpriv acy
Ġgul ps
Ġweight less
Ġgener osity
ĠBr ain
Ġindign ity
ĠLovegood s
Ġdim med
Ġconvin cingly
Ġflash light
Ġsour ly
ĠEn joy
ĠEn chant
ĠEn emies
Ġdesp ise
Ġlad ling
Ġbul k
Ġbul ky
ST ER
Ġpin ts
Ġpin ching
ĠWH ERE
ĠGot cha
Ġdev ice
Ġdev ised
Ġmuff ling
Ġsuggest s
In side
Ġbeaut ifully
Ġconst it
Ġcryst all
Ġleng thy
Ġleng thening
ĠSp iders
we eps
ĠST ILL
Ġsweet shop
Ġweird os
ĠOcc asion
ĠOWL S
Ġrum ored
ibb ering
Ġbod ily
Ġbod ied
Ġbald ly
Ġrese ar
Ġrese mble
Ġtunn els
res pec
Ġself ish
Ġconsider ation
Ġwis hers
Ġcelebr ity
Ġcelebr ations
Ġdaz edly
Ġclen ching
Ġhorse less
Ġlip less
Ġdism al
Ġdism ay
Ġdism ally
Ġdism ounted
On ly
ĠAd am
ĠAd rian
ĠAd mittedly
Ġpred e
Ġdiscuss ions
ĠOcclum ens
Ġaut ob
Ġsink s
ĠHA D
ĠHA S
Ġsav ior
Ġstu pend
Ġident ifying
Ġident ification
Ġpajam a
Ġband age
Ġrele vant
Ġdel usion
ĠUnder neath
Ġfoolish ly
Ġpu zzle
Ġnon stop
Ġmeaning ful
Ġmeaning fully
Ġrespect s
Ġcollect ive
ĠConf isc
Ġthir teenth
Ġblast s
Ġcomment ator
Ġtransp ired
Ġstrength s
ES S
ĠRo bes
ĠOwl s
ĠCl ankers
Ġloss es
Ġingredi ent
Ġpublic ized
Ġtick led
Ġequ als
ĠBE FORE
Ġoutst anding
Ġtear fully
Ġwaist band
Ġsuccess ion
Ġbull dog
Ġdecor ation
ĠHor rible
ĠHor rified
Ġcra ved
ĠMore over
Ġrecord ed
AS H
AS S
Ġcond em
Ġdisbel ievingly
Ġpurpose ful
Ġboot h
Ġfond ness
ĠMal col
ĠWar beck
Ġreass urance
Ġshield s
Ġhedge h
Ġpit iless
Ġpudd le
Ġuns us
Ġuns atisf
Ġflesh y
Ġver min
Ġapolo getic
Ġmountain side
Ġantid ementor
Ġmed icine
ĠFour teen
Ġsched uled
Ġoccup ant
Ġserpent ine
Ġauthor ities
Ġbal cony
ĠSil ently
ĠSil encing
ĠDr ooble
Ġscur ry
Ġflower pot
Ġobs erv
Ġshare s
Ġshame ful
Ġloc al
Ġcomplain t
Ġvers ions
Ġinvent ions
Ġimpr int
ĠStu bby
Ġdisappro ved
Bl ood
Ġi h
ĠBus y
Ġven geance
Ġvac uum
Ġexting uishing
Ġque ued
Ġque uing
Ġque asy
Ġobsc uring
Ġleaf lets
Ġwre cked
ĠSumm on
Ġdispl ays
Ġcourt esy
Ġmort ified
ĠMA KE
ĠMA STER
Ġswarm ed
Ġcrit ically
Ġdeliber ation
Ġdwell ed
Ġdwell ings
Ġsand y
Ġnod s
Ġwandering s
Ġhonest y
Ġhab its
Ġstal act
ĠUse ful
Ġrig idly
Ġpopular ity
fl ies
Ġwrest led
Ġinh aled
Ġpron ouncement
Some body
Ġnin th
rop hes
ĠSH OULD
ĠTurn s
ĠCad wall
Ġstring y
Ġstring ent
Ġdiscover ies
ĠStupef ied
Ġ3 0
Ġhar ness
Ġpal p
Ġpal ace
Ġpalm istry
Ġconscious ness
Ġdespair ingly
Ġhicc u
uish able
Ġunb locked
Ġunb roken
Ġemotion al
Ġsuspect ing
Ġdisgr ace
Ġdepartment s
ĠSneakos copes
OP H
UN G
Ġting ed
ĠHerm i
ĠHand s
ĠHand book
ats head
Ġshrive l
Ġshrive lfig
ĠNE VER
ĠShh h
Ġrepres ented
Ġvenom ous
Ġ2 2
Ġmourn ing
Ġstif le
Ġreward ed
ĠBel ieve
Ġener getically
Ġtrem ulous
Ġdismiss al
Ġtu ft
Ġtu be
Ġtooth brush
Ġstock ing
ager ie
ĠPol kiss
Ġunre asonable
Ġentr usted
Ġstraw berry
Ġriver bank
Ġexcl amation
Ġjeal ously
Ġsleek ly
ĠSTU DENTS
Ġsinister ly
De an
Out side
Ġais les
Ġinex press
Ġattract ive
Ġinterrog ate
Ġinterrog ation
Ġinterrog ating
Ġspring y
Ġscreech y
Ġskelet on
Ġcondu cted
ĠStre ngthening
Ġded icated
Ġforth coming
ĠFif th
Ġspo iled
Ġunse ated
Ġsnigg er
Ġamid st
ĠInc urably
Ġsignific antly
Ġregard ed
Ġparaly sed
Ġskept icism
Ġrepresent ing
Ġtant rums
Ġdumb founded
Ġnet tles
ĠSer p
ĠSer ious
ĠFort unately
ĠUN DER
Ġboss ing
Ġactiv ities
Ġinsp ired
Ġveget ables
Ġtut ting
Ġwhit eness
Ġneg ot
ĠEver lasting
Ġslack ened
Ġsmugg led
Ġaccord ance
Ġpureblood s
ĠPrefect s
Ġsust ain
Ġfav ored
Ġfulf illed
Ġcal med
Ġthrill ing
ĠSw ed
Ġwel comed
Ġtragic ally
Ġmutter ings
Ġrecall ing
Ġmemor ial
Ġpattern s
Ġinfl ating
Ġcontempl ation
Ġcontempl ated
Ġcontempl ating
ĠCleans weeps
ĠEgypt ian
Ġtoss ing
Ġcul min
acc ord
ĠCent ury
Ġgoss iping
Ġdeb t
Ġspi kes
Ġcorp ulent
Ġabsurd ly
Ġautograph s
Ġsuperior ity
Ġthestr als
Ġmerm en
Ġmerm an
Ġloos en
ĠMir anda
ĠSE C
ĠWr ite
ĠWil bert
ĠAL ONE
ĠBreak fast
ĠCorre spond
Ġunp ro
Ġunp opular
Ġtwil it
Ġvolum es
Ġflag ons
Ġprem ature
Ġimpost er
ĠInst ant
Ġfloorboard s
Ġobliv ion
Ġhumili ated
Ġvolunte er
Ġassoci ate
Ġbuff eted
ĠHo lyhead
Ġtoler ance
Ġmull ed
Ġjubil ant
Ġlect ure
Ġtend ency
Ġcance lled
Ġplumm eting
Ġtramp ling
Ġdiscipl ine
Ġbrood ing
Ġstragg ly
Ġmisunderst and
Ġuncertain ty
Ġsubm it
Ġdustb in
ĠIgn oring
Ġtarn ish
Ġbon us
Ġmult iply
Ġthw art
Ġguff aw
Ġsauce pan
ĠMid gen
ĠSens ors
ĠDumb ly
ĠRow ena
ĠRel ashio
ĠBo gey
ĠFight ing
ĠVen us
Ġdisrup tion
Ġremed ies
Ġproc ure
Ġproc uring
Ġgenuine ly
Ġkidna pped
Ġbloss oming
Ġbloss omed
Ġrebell ions
Ġreverber ated
Ġacceler ated
Ġfret fully
Ġopt im
Ġgun shot
Ġwhoos hed
ĠAct ually
ĠPudd lemere
ĠLight s
Ġsquel ch
Ġsquel ching
Ġcoup led
Ġcoup les
Ġdecl are
ĠSnive lly
ĠProt ect
Ġpurch ased
Ġexpert ise
Ġmedi wizards
Ġmedi ocre
ĠObliv i
ĠObliv iate
Ġemphas is
Magic al
Ġwigg ling
Ġbi ography
Ġbaw led
Ġcere al
Ġpork y
Ġpamph lets
Ġgou ge
Ġgou ging
Ġbead ily
ĠMU GG
ĠMen agerie
ĠTroll s
Ġouts ider
Ġdepend s
Ġclam oring
Ġdrum med
Ġeman ating
Ġairpl anes
Ġsquaw ked
Ġgreed ily
Ġdecip her
Ġpostp oned
Ġprepar ation
Ġvali ant
Ġastonishing ly
ĠAccident al
Ġsalam ander
Ġestab lish
Ġlampl ight
Ġancest or
Ġecst atic
rans fig
Ġtire lessly
erb ock
Ġlic ense
Ġthirst y
Ġhaw k
Ġhaw thorn
Ġinward ly
Ġsauc ers
ĠSur rey
ĠPen alty
ĠBL ACK
ĠNiff ler
ĠNiff lers
Ġoverhe aring
Ġtrund led
Ġtrund ling
Ġimit ate
Ġimit ations
Ġcontam inated
Ġoblit erating
Ġoblit erated
Ġrefr ain
year old
Ġsyll able
Ġsurviv or
Ġsurviv ors
Ġprivile ges
Ġcorrespond ent
Ġornament al
Ġdishon or
Og den
Ġarou n
Ġwadd ling
Ġhunch backed
Ġbled ore
Ġbord ered
Ġcabb ages
Ġdawd led
Ġpest le
Ġgarl ic
Ġreent ered
Ġreop en
Ġrevis ing
ĠRever sal
ĠBR OOM
Ġdogged ly
ĠGirl s
Ġisol ated
Ġabnorm ally
Ġrog ue
Ġdeleg ation
Ġovers ized
ĠExt ra
Ġtrump et
Ġprejud iced
Ġleth al
Ġsnog ged
Ġsnuff box
Ġnewcom ers
Ġinde pend
Ġawa ited
ĠKnarl s
Ġplanet ary
Ġferre ting
ĠFris bees
Ġbleak ly
Ġencirc led
Ġgraffit ied
Ġmorose ly
ĠDeton ators
Ġastr ide
Ġdrunken ly
Ġblotch y
ĠGurdyro ot
Ġcrisscross ing
See ing
Turn er
spe ak
Ġtang les
Ġsum pt
ĠHome work
Ġge our
Ġnum erous
Ġere cted
ĠPor pington
ĠPerm anent
ĠPrew ett
ĠBon accord
ĠCons ider
ĠCatch pole
ĠFright ened
ĠFab ian
Ġrod s
ffect s
Ġconsp ic
Ġscre ening
Ġclun king
Ġenab led
ĠNev illes
ĠQuiet ly
Ġfirecrack ers
Ġcaress ed
Ġmute ly
Ġdiver ted
Ġvanqu ish
Ġrepay ment
Ġinfur iating
ĠConcentr ating
ĠINQU ISITOR
Ġdisagre ement
Ġtantal izingly
Ġunbear able
ĠLocom otor
Im mediately
Ton ks
Ġapt itude
Ġwist fully
Ġwagg ling
Ġfath om
ĠHundred s
Ġcot ton
Ġlame ly
Ġgorill a
Ġnaught y
Ġbehead ing
ĠMalf ay
ĠSU PP
ĠSto atshead
ĠSER V
ĠWRON G
ĠRob ins
ĠRID D
ĠAf ric
Ġoutn umbered
Ġoutdo ors
ĠCrou ching
ĠCount ry
Ġmeas uring
Ġknick erbock
ĠFree zing
ĠFaw c
ĠFascin ating
qual ified
Ġvindict ive
Ġteet ering
Ġchoc olates
Ġquizz ical
Ġconge aled
Ġunset tled
Ġunpre cedented
Ġunacc ompanied
Ġscoff ed
Ġpean uts
Ġprim ary
Ġjov ially
Ġresur f
Ġbooms lang
Ġincon ven
Ġrecom mend
Ġexpan se
Ġmarvel ous
Ġcatc alls
ĠExper imental
Ġinsub stant
Ġrepul sed
Ġmaddening ly
Ġeleg ant
Ġunders ide
Ġbanqu et
Ġpouf s
Ġhandleb ars
ĠDOB BY
Ġunsm iling
Ġradi ant
Ġpalomin o
Ġinvolunt ary
ĠSILEN CE
ĠIncant atem
ĠInstinct ively
Ġrhyth m
Ġcatastro phe
ĠWracksp urt
Ġlooph ole
ĠGosh awk
Ġunsuccess ful
Ign oring
Mor fin
Ros merta
Ġsings ong
Ġbart ender
Ġfasc ination
Ġost entatiously
ĠHast ily
ĠHull o
Ġcass erole
Ġcact us
Ġcater pill
Ġhence forth
Ġmah ogany
Ġloun ge
Ġthirt ieth
Ġpud gy
Ġphen omen
Ġpumm eling
Ġpian o
Ġhamb urger
Ġhaph azardly
Ġhayw ire
Ġgam bo
Ġgrie v
Ġsabot age
ĠIRE LAND
ĠMomm y
ĠMUR DER
ĠSpect respec
ĠSLY THER
ĠTab oo
ĠTrave ls
ĠPell ets
ĠPLE AS
ĠPEE VES
Ġketch up
ĠBald erdash
ĠCOW ARD
ĠFanc ies
ĠFIRE BOL
Ġjourn al
ĠNUM BER
Ġexten sive
Ġextern al
ĠEey lops
ĠEmpt y
Ġunpr otected
Ġunsh aven
ĠKIL LED
ĠChines e
plott able
Ġindisting uishable
Ġstraightfor ward
Ġinscr ut
Ġinsignific ant
Ġmisfortun e
Ġmisgiving s
Ġpurpos es
ĠGobbled e
ĠPlimp ies
Ġinfirm ary
ĠAbercr ombie
ĠOccasion ally
Ġstupend ous
ĠMalcol m
ĠCadwall ader
ĠSpectrespec s
. :
/ '
2 2
4 5
8 1
A d
A m
A re
A ng
A FF
A KE
A GE
A ARGH
B RID
C he
C orn
C OM
C IO
D is
D ep
D inner
E ach
E ater
E CY
F ort
F our
F ire
F litwick
F ORM
G ot
G et
H orcrux
H aving
H ING
H oping
H ardly
I P
I VE
I BLE
J udging
K n
L F
L o
L ast
L ord
L ost
L ittle
L ooking
M ag
M um
M ungo
M uch
N ight
N amed
N ING
O ther
O lliv
O LD
P o
P re
P ER
R el
S H
S upp
S LEY
T Y
T er
T is
T ime
T ell
T ower
T oday
T ransfig
U nd
U nt
W P
W he
W ar
W or
X en
Y axley
Z ERO
a i
a er
a ft
a urs
a ising
b et
b ush
b reath
c it
c ard
c age
c ured
d r
d on
d ling
d ens
d ict
d rop
d rops
e et
e ers
e ks
e nding
e cked
e vin
e bore
f ed
f it
f ly
f ur
f ted
f ice
f ound
f ord
f udd
f ited
f orce
f olk
f etched
g ly
g ic
g ook
g ering
g ies
h r
h im
h ad
h ome
h ave
h ab
h arts
h iv
h austed
h ooks
h ibited
i h
i very
i ors
i pl
i be
i ably
i ased
i bbled
i ography
j usted
k able
k ery
l or
l im
l orn
l ause
l sh
l ph
m aking
m agic
m ans
m aid
m aybe
n ate
n uts
o k
o ving
o ors
p o
p ick
p ie
p aper
p ants
p etr
p erson
p ipes
p assed
r om
r out
r age
r agg
r ants
s m
s le
s ie
s chool
s aw
s ating
t d
t est
t ale
t ively
t uce
t hens
u h
u u
u an
u als
v ice
v ial
v ailable
w a
w at
w ent
w and
w est
w orn
w hen
w ump
x es
y an
y lum
y ram
Ġ 7
Ġ 8
Ġt us
Ġt ink
Ġt ous
Ġt ier
Ġt aped
Ġt uning
Ġt esters
he nd
he ll
he ast
he nding
Ġa ro
Ġa ust
Ġa ven
Ġa ft
Ġa val
Ġa aaah
in ions
in ously
Ġs ed
Ġs her
Ġs ud
Ġs izing
Ġs ipping
Ġs izable
Ġw ick
Ġw ade
Ġw int
Ġw aded
re o
re aking
Ġh u
Ġh ous
Ġh ipp
Ġh ushing
Ġh ides
Ġh oof
Ġh ilar
Ġh oused
Ġh ollowed
ed ded
on in
ing ed
er an
er ic
er ts
er oom
er by
er hooks
ar b
ar p
ar ound
ar ged
nd urable
Ġb rid
Ġb aking
Ġb os
Ġb ins
Ġb idden
Ġb oun
Ġb icy
Ġb aubles
Ġb askets
Ġf ri
Ġf oy
Ġf ie
Ġf arm
Ġf iss
Ġf igh
Ġf tom
Ġf ogging
Ġo d
Ġo oh
Ġo intment
Ġo xy
ĠH m
ĠH ass
ĠH iding
ĠH ug
ĠH anging
ĠH ags
ĠH oping
ĠH AND
ĠH uf
ĠH iggs
ĠH uh
at al
at ast
at ant
at ement
at form
Ġto er
Ġto aster
Ġto sh
Ġto ga
Ġto othed
Ġto kens
is al
is to
is king
is man
is lation
it he
it all
it ate
it ory
it ors
it ten
Ġc u
Ġc ate
Ġc ue
Ġc arts
Ġc ove
Ġc ower
Ġc av
Ġc rouch
Ġc upp
Ġc herry
Ġc ogs
as ked
as poon
or us
or ley
or ation
or ily
or king
or iously
or rible
or ters
or ges
or ium
id an
id ue
id ences
Ġhe ed
Ġd at
Ġd um
Ġd ome
Ġd ood
Ġd ink
Ġd ab
Ġd ip
Ġd ict
Ġd aught
Ġd ivination
Ġd iction
Ġd andel
Ġd ucking
Ġd oused
Ġd orr
Ġd emented
en ance
Ġm and
Ġm ous
Ġm ers
Ġm au
Ġm alf
Ġm ish
Ġm ater
Ġm ops
Ġm unching
Ġm ione
Ġl y
Ġl ore
Ġl acked
Ġl icked
Ġl ooped
Ġl agged
Ġl acy
Ġl asso
Ġl oung
Ġth orn
Ġth igh
Ġth ither
Ġth uggish
Ġp oo
Ġp um
Ġp ust
Ġp ap
Ġp ite
Ġp ung
Ġp ince
Ġp ins
Ġp ored
Ġp ounced
Ġp iping
Ġp imply
Ġp yth
Ġp yram
es maid
Ġha iled
Ġha vers
Ġha zy
Ġha zily
Ġha cking
Ġha lting
Ġg ut
Ġg rid
Ġg ull
Ġg room
Ġg orge
Ġg uttering
Ġg abbling
Ġg erroff
Ġg usto
Ġg ills
Ġin app
Ġin aud
Ġin ert
Ġin att
Ġin ev
Ġin laid
Ġn ag
Ġn uff
Ġn ipped
Ġn icking
Ġn iece
Ġn ursed
Ġn ibbled
Ġsa il
Ġsa ils
Ġsa cra
ĠI R
ĠI ll
ĠI MP
ot est
ot ten
om ir
om ous
Ġbe ars
Ġbe acon
Ġe bb
Ġe ared
Ġe els
ac us
ac iously
ac ement
ac co
ld a
im on
im en
im um
im ble
im ple
im ony
ve re
Ġst y
Ġst on
Ġst ow
Ġst ain
Ġst ake
Ġst ings
Ġst aining
Ġst unted
Ġst uttering
Ġst umble
Ġst alls
Ġst ench
oo red
et le
et ts
et elling
ic um
ic ament
ion ing
ion ately
Ġwh ites
Ġwh oops
Ġwh ipl
ro c
ro val
ro cks
ir ch
ĠM igh
ĠM OR
ĠM AN
ĠM aj
ĠM asons
ĠM IST
Ġhad dock
ĠS i
ĠS ent
ĠS un
ĠS ave
ĠS word
ĠS ettle
ĠS EE
ĠS aint
ĠS imply
ĠS afe
ĠT all
ĠT ap
ĠT uck
ĠT RA
ĠT iber
ĠT ouch
ĠT offee
Ġthat ched
ut o
ut ching
ut inous
Ġwe nd
Ġwe nding
Ġwe athered
Ġwe arer
ĠW ake
ĠW orm
ĠW imb
ĠW ays
ĠW ales
ĠW AND
ĠW olf
ĠW atched
ĠW itherwings
out heast
ent ines
ĠD one
ĠD umbled
ĠD ied
ĠD ress
ĠD ement
ĠD raw
ĠD ANG
ĠD UR
ĠD AD
ĠD ingle
ĠD ittany
ĠD oris
ad ill
ad able
Ġas ph
Ġas ylum
Ġat ion
Ġu pending
Ġre nd
Ġre em
Ġre side
Ġre aw
Ġre aping
ur ge
al u
al og
al th
al ia
se e
se ll
se led
ag o
ĠR et
ĠR oll
ĠR ET
ĠR UD
ĠR AVEN
ĠR yan
st ill
st orm
st ream
st antly
ri pp
ri ven
Ġwit her
ĠA ra
ĠA li
ĠA ging
ĠA ye
ĠA ustr
ĠA uthor
ĠA UN
ĠA AAAA
ĠA cker
ĠA idan
ĠP A
ĠP L
ĠP O
ĠP ick
ĠP ee
ĠP os
ĠP ye
ĠP ipes
ĠP arents
ĠP redict
Ġfor ked
Ġfor lorn
Ġse v
Ġse ep
Ġse iz
Ġse wn
Ġse lves
Ġse eping
am ity
am ount
um a
um ents
um ption
um ero
pp osed
all ied
Ġnot ing
Ġnot ion
Ġnot able
Ġnot ified
Ġnot ify
Ġnot orious
ack ling
rou bled
Ġsh oo
Ġsh ru
Ġsh aven
Ġsh abb
Ġsh akes
Ġsh roud
Ġsh irts
Ġsh ivery
Ġk ipper
erm ark
ĠHe Who
ĠHe avy
pe nded
pe rer
Ġher bs
ĠB oo
ĠB out
ĠB and
ĠB lo
ĠB right
ĠB ang
ĠB orn
ĠB od
ĠB IN
ĠB eth
ĠB irth
ĠB OT
ĠB ilius
ĠB ouncing
ĠB road
ĠB OOM
ĠB eyond
ĠB ubble
ĠB artemius
ĠB orrowed
ain ess
em on
em en
em pl
Ġup sw
Ġfr othed
Ġdo om
Ġdo ctors
Ġdo lph
Ġout l
Ġout lined
Ġout spoken
ĠG lo
ĠG ide
ĠG round
ĠG ree
ĠG ern
ĠG ene
ĠG lit
ĠG arr
ĠG inger
ĠG ibb
ĠG ONE
ĠG REAT
ĠG udgeon
un es
un ias
ĠC ri
ĠC ass
ĠC ap
ĠC ave
ĠC ather
ĠC ause
ĠC ere
ĠC aut
ĠC OM
ĠC ode
ĠC rock
ĠC oughing
ĠC OULD
ĠC atast
ind ling
Ġme ll
Ġme wing
Ġme llow
Ġne gl
Ġkn ots
Ġbut tered
and ra
and oning
ĠY EH
Ġr am
Ġr ant
Ġr ice
Ġr up
Ġr ans
Ġr iddle
Ġr aces
Ġr anting
Ġr acking
Ġr hod
Ġr iches
Ġr allied
il f
il arly
il ian
Ġfe aring
ĠF all
ĠF ound
ĠF itch
ĠF ell
ĠF ub
ĠF RI
ĠF resh
ĠF uming
ĠF RON
to ise
ĠWe asel
ĠWe lsh
Ġj umbled
Ġj ig
Ġj ol
Ġj udd
ĠL ur
ĠL oud
ĠL ung
ĠL os
ĠL ib
ĠL awn
ĠL ets
ĠL ibr
ĠL AD
ĠL iber
ĠL ORD
ĠL aughing
umb ering
hing ed
Ġgo aded
ust ly
ust worthy
ĠN ame
ĠN icked
ĠN ept
ĠN ature
ĠN IGHT
ĠN ICK
ĠN umero
Ġso les
Ġso licit
hed ore
one l
lo g
Ġback up
Ġback tr
Ġback drop
Ġli ken
Ġli zard
Ġli kable
qu es
qu iet
qu hart
ort us
Ġwho lly
Ġv at
Ġv ice
Ġv est
Ġv ary
Ġv estig
Ġv ases
ud s
ud ger
Ġle ash
Ġle eches
Ġle etle
Ġex ile
Ġex ped
Ġex ceed
Ġex iting
Ġex agger
Ġex uberant
Ġab ide
Ġab ated
Ġab used
our ite
ĠO H
ĠO wn
ĠO ops
ĠO ught
ĠO do
ĠO wing
ĠO CTO
Ġno on
Ġno sing
ist ant
ist urb
Ġag ility
Ġag itation
ra ff
ra pt
ra isal
Ġro ving
Ġro bbed
Ġal as
Ġal ter
ct ic
Ġde arly
Ġde jected
Ġde wy
Ġde pended
ul ing
ul as
ul ge
ul ty
ul ations
ace ls
Ġte h
Ġte ab
Ġte aspoon
Ġover d
Ġover th
Ġover ru
Ġover work
Ġover rode
Ġover turn
Ġover cast
oy ed
Ġthere by
Ġthere after
ĠWh izz
ĠWh ichever
ig ley
Ġknow itall
ep uffs
Ġch op
Ġch ips
Ġch urned
Ġoff col
Ġoff ending
old ering
Ġlike li
iz er
iz tic
Ġsp out
Ġsp aring
Ġsp ies
Ġsp ike
Ġsp aces
Ġsp rawling
Ġsp idery
Ġqu er
Ġqu iz
Ġqu ake
ĠE d
ĠE p
ĠE mer
ĠE mp
el tering
ick ly
Ġus ur
Ġun g
Ġun ass
Ġun per
Ġun rel
Ġun read
Ġun cl
Ġun mas
Ġun stick
Ġun used
Ġun reg
Ġun iver
Ġun stead
Ġun gain
Ġun kind
Ġun spoken
Ġun obs
Ġun hinged
Ġby es
ass ing
Ġey eless
op ortus
Ġbl ah
Ġbl ows
Ġbl ush
Ġbl ades
Ġbl uish
Ġbl uster
Ġbl anched
ĠV ic
ĠV ill
ĠV ern
ĠV ER
ĠV aise
ĠV OLD
ĠPro ve
ĠPro fess
ĠPro be
Ġwor s
Ġwor med
Ġwor ship
Ġjust ify
ark s
ark ing
Ġtoo ls
Ġsc ale
Ġsc uffle
Ġsc ores
Ġsc orp
Ġsc uffing
ake ably
Ġsee in
Ġsee ks
Ġsee ker
est ruct
Ġpl unk
Ġpl ucking
Ġcl ar
Ġcl amp
Ġcl ipped
Ġcl inked
Ġcl unks
Ġcl anked
Ġcl imate
Ġsl ing
Ġsl ash
Ġsl umbering
ap et
ap ted
ap ier
Ġwand lore
bb s
Ġhead ache
Ġhead stones
Ġmo b
Ġcom ic
Ġcom pelled
ĠTh ieves
Ġsm acked
Ġsm arting
Ġsm oldering
Ġvo c
Ġtr u
Ġtr immed
ĠK ent
ĠK ne
ĠK evin
ond s
Ġgl utinous
Ġar ry
ath s
Ġgr it
Ġgr oo
Ġgr umbled
Ġgr ubs
Ġgr aciously
Ġgoing s
Ġseem ing
gg er
gg ily
Ġsw oon
Ġsw oos
Ġsw igging
Ġsw eltering
Ġfl air
Ġfl uff
Ġfl owed
Ġfl owing
Ġfl anks
Ġfl amed
Ġfl itting
Ġfl ipping
Ġfl ounced
Ġfl ippers
Ġfl abber
ĠU sed
ĠU sing
ĠU nable
ĠU mbridges
ling s
Ġevery day
ol ored
Ġman s
Ġman uf
Ġclo pping
Ġclo gging
Ġen vis
Ġhere by
ched ule
Ġop era
Ġop inions
ft ly
ft ainess
od end
Ġpre occup
Ġpre amble
Ġpre gn
Ġim me
Ġim peded
Ġwat ches
Ġpe ar
Ġpe nd
Ġpe aked
Ġpe eled
Ġpe pper
Ġpe cking
th is
th rough
ts ying
Ġdis aster
Ġdis eng
Ġdis fig
Ġdis oriented
Ġdis quiet
Ġunder wear
Ġunder pants
Ġkne ed
Ġkne el
Ġbeh alf
Ġafter thought
row ded
Ġlo ll
Ġlo ser
Ġlo bbed
Ġlo ony
Ġlo ses
Ġlo ading
Ġlet tin
Ġlet tuce
Ġapp ar
Ġapp alling
te am
te llig
Ġeven ly
Ġrem edy
Ġrem otest
Ġspe ared
Ġspe eches
Ġbr ide
Ġbr ute
Ġbr acing
ĠSirius s
Ġlast ly
Ġpro sec
Ġpro xim
Ġpro hibited
ĠNe ed
ĠNe arby
Ġac rid
Ġac rom
ĠCh air
ĠCh ange
ĠCh orley
ĠNo ble
ĠNo bility
act ure
act orily
act acus
ine a
Ġshould ering
ching ly
ord er
ord inary
Ġsil ences
Ġpr ise
Ġpr ints
Ġpr inciples
Ġwa ver
Ġwa ffle
Ġgood night
Ġdes irable
Ġwizard kind
Ġcont est
ber ries
ber nate
Ġho bby
Ġho bbling
Ġmight n
Ġmight y
ross ed
Ġarm pit
Ġarm adill
Ġtal isman
Ġatt rib
Ġsn ive
Ġsn owing
Ġsn ug
Ġsn orting
Ġsn acks
itch y
Ġam i
Ġam use
Ġam end
Ġam ended
Ġam ok
Ġfeel ers
Ġdr one
Ġdr oned
Ġwind mill
Qu iet
ise lda
Ġche at
Ġche ated
Ġold s
ĠDo ing
ĠGe orges
ĠQu igley
ost ed
Ġmean est
arm s
Ġimp re
Ġimp osing
me led
ĠGinny s
ream s
Ġent angled
ons ciously
Ġpass eng
Ġown s
Ġcr ook
Ġcr am
Ġcr aned
Ġcr ane
ĠIn v
ĠIn cend
Ġbel ch
Ġbel ched
.. .
ĠJ im
ĠJ imm
ĠJ AM
ĠJ ORD
ĠJ ealous
ell e
Ġcle ars
Ġend e
Ġsur lier
ĠBl ibbering
Ġbed ecked
Ġbed ragg
Ġsupp le
ĠSt ag
ĠSt art
ĠSt ab
ater n
Ġlight ed
Ġlight en
Ġlight ening
Ġlight hearted
Ġwr ing
Ġwr ung
Ġel im
Ġel ation
Ġcur rant
Ġcur tsying
ĠHow lers
Ġnight mar
Ġnight clothes
Ġblack and
oot h
Ġschool work
Ġschool books
be at
be cause
Ġnew t
Ġboy ish
Ġra ids
Ġthree quarters
Ġfound ed
Ġfound ation
Ġem it
Ġem blem
Ġwhis ked
Ġwhis perer
ĠYe a
Ġwindow pan
Ġper used
Ġper imeter
Ġper petr
Ġhair st
Ġhair brush
Ġhouse elf
Ġret ained
app ened
Ġstr ut
ĠYes terday
Ġhelp ers
Ġhear tedly
Ġsk it
Ġsk ating
Ġreal iztic
Ġjo kin
ne ck
Ġmat ure
Ġmat ron
Ġwall ed
Ġwall paper
Ġbeg ins
Ġbeg innings
ĠUn believable
ĠUn speak
Ġquick est
Ġsqu al
Ġsqu igg
Ġsqu int
Ġsqu irt
Ġwait in
Ġwait ers
unt il
Ġcor rup
ister ous
ĠAn gelin
ib ble
ib ition
ric t
Ġunt ie
Ġunt roubled
lu cent
Ġste reo
Ġfam ously
Ġhold up
Ġmut ters
Ġmut inously
Ġappe aled
Ġob li
Ġres iding
Ġres orting
Ġres pected
Ġres idue
ĠPet unias
ret ching
ĠNot hin
awn ing
Ġpast e
Ġfriend less
Ġbo om
Ġbo isterous
Ġread in
Ġread justed
Ġrest oring
Ġrest aur
ey s
li able
ĠBe ar
ĠBe fudd
form ing
form ation
Ġsna pp
Ġscar ab
Ġinc omplete
Ġcar rots
Ġfull er
Ġcold ness
ĠGr angers
ĠGr iselda
Ġrec on
Ġrec ount
Ġrec ruit
Ġfore told
Ġfore warn
Ġdist raught
Ġstart lingly
ĠLord s
Ġad apted
ĠSe a
ĠSe v
ĠSe ers
ĠSe ems
Ġexp and
ĠPercy s
Ġco co
Ġco ffin
Ġco con
Ġfing ering
Ġpain staking
Ġwork men
Ġfoot ing
Ġstra ps
der ick
Ġdec ree
Ġdec ides
Ġdec ency
Ġdec oys
Ġind is
Ġind uce
Ġind igo
Ġind oors
Ġind estruct
Ġbes ides
ere nt
ere ffects
rac ing
Ġsle nder
Ġgu inea
sw allop
sw eet
Ġcontin ual
Ġfar away
Ġfar fetched
Ġsight s
Ġsign aling
Ġdet est
Ġleg islation
ron ting
Ġvis or
Ġvis age
Ġaw ry
Ġaw ak
Ġlow ly
Ġheart ened
Ġheart beat
rest ed
Ġmar chers
Ġmar riage
Ġempt ier
Ġempt iness
Ġcat like
ĠSc um
ĠSc ott
ĠSc ourg
ĠSc riven
umm er
umm ies
anc he
Ġbest ows
Ġbur gl
Ġri pe
Ġri ps
Ġri gging
Ġsupposed ly
Ġact or
Ġhit ching
Ġdef ied
Ġsir s
Ġbreak f
Ġbreak er
Ġbreak neck
Ġshort est
Ġshort ened
Ġdi ves
Ġdi als
Ġext inct
Ġunderstand able
ĠKn own
Ġblood less
Ġbus es
ĠCedric s
Ġcomp aring
Ġpoint lessly
ub arb
ĠRe f
ĠRe v
ĠRe lease
Ġce asing
Ġspell ing
Ġspell work
Ġbright ened
ĠFor ces
Ġmon ot
Ġrel ic
Ġrel ations
Ġrel ieving
Ġspot less
Ġacc osted
Ġins ight
Ġins pected
Ġins erting
Ġins anity
Ġteam mates
Ġinter sp
ĠFil ius
Ġcomple ting
Ġpat tered
Ġref ined
Ġref ere
orc a
Ġmis read
Ġmis heard
ĠSn out
ĠSn ogging
ĠSn itches
Ġmist rusted
vent h
vers kin
Ġthick ened
Ġthick ness
Ġthick set
oc ation
Ġdirect ing
Ġed ible
Ġconf idences
sp awn
Ġunc overed
Ġunc omm
Ġunc ompre
Ġport ents
Ġport holes
Ġexpl icit
Ġsub sc
Ġprot racted
rugg ling
Ġforg ave
Ġrep osed
Ġrep ressed
Ġrep otting
Ġrep orters
Ġexpect ations
ĠPr inces
Ġyoung sters
Ġdeath bed
Ġshar per
Ġru led
ĠGood bye
ĠFire ball
ĠFire works
Ġsleep in
Ġwitch craft
Ġpur ge
Ġpur plish
Ġtri angle
Ġtri gger
Ġappro ving
Ġfa ulty
uth fully
Ġph ials
Ġsoft est
Ġsoft ened
Ġreg ion
Ġreg row
Ġreg rets
Ġreg istration
Ġreg ulations
eed s
Ġwrit er
Ġsumm ers
Ġsumm oning
Ġev ident
Ġev illy
Ġcross ings
Ġquestion ingly
Ġdraw back
Ġdraw string
Ġopp osed
Ġcoll ision
Ġesc orting
ye es
stick s
Ġmad der
Ġer ror
Ġtent h
Ġtent ative
Ġtent acle
Ġtent erhooks
ĠHer bert
ĠHer inion
Ġcreat es
vo id
vo idable
Ġeff icient
OU N
OU S
int el
Ġbar ring
Ġthr ice
Ġconc ert
kes kin
Ġhang man
Ġwood lice
Ġass a
Ġass u
Ġass uring
Ġass ault
ĠAg ripp
Ġrecogn ised
Ġbat on
Ġblue bell
Ġweek ly
Ġflat ter
Ġflat tery
Ġegg ing
ĠPar lor
ĠPar acels
Ġshow ers
Ġshow ered
Ġvisit in
Ġz ombie
Ġdragon ish
Ġcons iders
Ġtor toise
Ġimag in
Ġreckon ed
Ġdisc om
Ġdisc omp
Ġdisc redit
Ġdisc olored
Ġdoub ling
Ġhappen in
Ġdorm ant
Ġthird s
ĠYour self
Ġform ally
Ġsing er
Ġtruth ful
Ġforest s
Ġforest alled
Ġcop se
Ġcop iously
ĠApp raisal
Ġtrans lucent
Ġdeser t
Ġtem pting
Ġtem pers
Ġstom ping
ĠPl an
ĠPl ay
ĠPl atform
ĠLe ft
rit ten
ĠTr uth
ipp ings
ĠTH AN
ĠTH ERE
ĠTH REE
Ġwonder fully
Ġadm its
Ġobject ive
Ġhast ening
Ġnews print
Ġbow led
Ġbow ling
Ġbow els
Ġbow truck
Ġlock ing
ĠFl utter
ĠSec urity
Ġbas king
Ġbas ics
Ġnarrow er
Ġgrow ls
Ġguard in
Ġguard ians
ĠSke eters
Ġdinner time
Ġmess enger
ĠFr ag
Ġprom ising
Ġadv ance
ĠDis m
ĠDis gu
ĠDis sendium
Ġcho pping
Ġcho ices
Ġdem ean
ĠIm m
ĠIm ps
Ġabs ences
Ġpost card
Ġbottom ed
Ġbottom most
Ġ1 4
Ġ1 8
Ġforget s
Ġtail coat
Ġaf resh
Ġuna vailable
Ġuna voidable
Ġtow els
Ġhospital ity
AR M
AR T
AR Y
AR ATE
Ġdust pan
Ġstaff ing
Ġcount ries
Ġsingle handed
Ġpan es
ĠRem ove
Ġgray er
Ġrepl ace
Ġrepl acement
Ġcoun cil
Ġfavor ably
Ġpack et
Ġpack aging
Ġmoon stones
Ġinn keeper
Ġbre ached
Ġble nd
Ġstep lad
Ġhesit ating
Ġeat s
arth ly
Ġpri zes
Ġcirc ulating
Ġbedroom s
Ġele ction
Ġele venth
ĠWas ps
Ġsol idly
Ġlive ly
Ġremind ers
Ġjoin ts
Ġprophe cies
Ġbeard less
Ġdep rive
Ġdep uty
Ġenc oun
ĠAppar ation
ĠOlliv anders
Ġlocket s
Ġsurf aces
Ġreve lio
LE M
LE T
Ġgro ggily
Ġtrave ls
Ġtrave lling
Ġhon ors
Ġdra fty
Ġperm itting
Ġsy rup
Ġtrick ery
Ġconversation al
AT H
ĠDep uty
Ġsho el
Ġdri er
Ġdri vers
Ġdri bbling
Ġemb ers
Ġemb edded
Ġcheer ily
Ġfool proof
ĠList ening
Ġrow dy
Ġcompl iments
Ġcro pped
Ġcro aking
Ġcro pping
Ġcro oned
Ġcro oning
Ġinvis ibly
Ġcloud ing
Ġpar ade
Ġpar rot
Ġpar apet
Ġnervous ness
Ġsuff used
Wh atever
Ġyer selves
Ġrain bow
Ġexplo its
Ġfun ction
Ġlunch times
ĠDel ighted
ĠLongbottom s
Ġjer ky
Ġune ndurable
Ġune arthly
Ġsens ational
urb an
Ġund erm
Ġund ressed
Ġsatisf y
Ġsatisf actorily
Ġban an
Ġspl ayed
Ġgra zed
ĠWor st
ĠWor ried
ĠWill iam
ĠReg istration
Ġrefle xes
Ġcomfort s
Ġcarri es
Ġcarri ers
Ġannoy s
Ġmer its
Ġmer person
Ġpure ly
Ġpure st
ĠMer chie
ding er
Ġbird cage
ĠSm ile
ĠPo ison
cess or
Ġgloom ier
ĠTransfig ure
ait ing
Ġdam ned
Ġinf est
Ġinf ern
Ġinf ilt
Ġeight eenth
ĠAm eric
RE N
Ġfo e
Ġfo es
Ġfo aming
Ġfold er
Ġunf inished
Ġunf riendly
Ġwra ppers
Ġring ers
Ġring lets
Ġsurv iving
Ġspectac le
Ne w
Ne ar
Ġfier cer
ific ations
Ġpersu asion
Ġdefe ating
Ġdefe nded
Ġtest imony
Ġug liest
ĠFin ished
Ġserious ness
ĠDisapp o
OO O
OO KS
OO SH
ĠCol onel
Ġlie ve
Ġclean ly
Ġrubb ery
Ġfeast s
Ġgener ation
Ġblind fold
Ġblind folded
Ġplain tively
LL Y
Ġflash y
Ġinstruct ing
Ġinstruct ive
Ġwave red
Ġexh ibition
ĠImper turb
Ġcounter arg
Ġtoad less
Ġlim bo
ĠEn id
ĠEn nervate
Ġdesp icable
Ġkeen er
Ġspeed y
Ġbroad cast
Ġwet ter
Ġbul ge
Ġbul bs
Ġunw itting
Ġunw illingly
Ġslip stream
Ġkey holes
Ġunpleasant ness
Ġpin ched
ĠWH OOSH
Ġjud ged
Ġdev il
Ġdev ote
Ġmuff ler
Ġmagn itude
Ġmagn ifying
Ġtriumph s
In stantly
Ġgest ures
Ġgest icul
Ġprefer ring
Ġsneak in
Ġsneak ers
ED S
For bidden
Ġpick s
ĠHat s
Ġgn oming
Ġearn ing
Ġval ued
Ġphoenix es
Ġurg ency
Ġlap sed
Ġweird o
Ġsepar ation
ĠOut standing
ĠOcc asions
Ġboard ing
Ġcrystal ized
EN D
ĠAcc idents
Ġupset ting
Ġvar iously
Ġvar ieties
Ġeng age
Ġeng agement
Ġbattle ments
Ġbald er
Ġrese aled
Ġcoo ling
Ġcoo peration
Ġcoo perate
Ġself s
Ġstudy in
Ġstreng thens
Ġhorn y
Ġcow ered
ĠFe el
Ġsucc inct
Ġsucc umbed
Ġmod els
Ġmod estly
Ġerup ting
Ġic ily
Ġic icles
Ġscra wl
Ġscra ps
Ġamb led
Ġamb ushed
Ġamb itions
Ġwid en
Ġwid est
Ġfal ter
Ġcapt or
Ġcapt ive
ĠAd vis
arrass ed
Ġwed ged
ĠHE E
ĠHE AD
Ġpred icament
ĠTO LD
Ġrequ ests
Ġfan ning
Ġsong s
Ġhex ing
Ġpajam ass
Ġbear able
Ġstar ved
Ġvast ness
Ġarr ay
Ġaccept s
Ġaccept ance
ĠHorn by
ĠAb andoning
ĠBet tie
ĠUnder standing
Ġregret fully
Ġappreci ation
Ġappreci ative
Ġach ieving
Ġborrow ing
use ly
Ġknowledge ably
Ġmeaning less
Ġrespect ful
ĠConf using
Ġbuck le
Ġbuck ets
Ġcrump ling
St ay
St anding
Ġpurs uits
ustr ade
Ġsuper st
Ġsuper cil
Ġsitu ated
ĠCl uster
Ġtick ling
Ġfoul est
Ġlab els
Ġgate au
Ġreck lessly
ĠPre post
ĠPre tending
ĠBE LI
Ġfeat ured
Ġtear stained
Ġaccus atory
Ġsuccess or
Ġsuccess ive
Ġbull ets
Ġalley ways
Ġdeaf ened
Ġthirteen yearold
aa a
Ġharm ony
ĠIN JU
Ġreb orn
Ġreb irth
Ġreb ounding
IT CH
Ġbra ke
Ġbra ided
Ġfet ching
Ġknot gr
Ġnostri l
Ġclip s
Ġbetr aying
Ġrevol ve
Ġrevol ution
Ġpier cingly
Ġrub ied
Be cause
Be Named
Ġhero es
Ġtha i
ĠDO ING
ĠDO WN
Ġrever ted
Ġstead ied
Ġsteam y
Ġver dict
Ġhem s
Ġhamm er
ĠWhe eling
Ġdept h
Ġsmo ked
Ġsmo other
Ġsuspe nd
Ġcutting s
Ġmotor way
Ġdrive way
Ġstool s
ĠCle ver
Ġsuc ceeding
Ġspend s
Ġparce ls
vin ced
Ġwo bbling
Ġbal ustrade
Ġment ally
Ġment ions
Ġmud like
Ġsack ing
ĠSil ver
ĠComm ission
ĠEv an
Ġscur vy
Ġenclo sing
IS E
Ġtopp le
ĠId iot
ĠTime Turner
Ġconcl usions
Ġunkn owing
Ġarrest s
Ġloc ating
Ġprov ocation
Ġmagaz ines
OW ED
ulf a
Ġdiv ine
Ġdiv ulge
Ġuseless ly
Ġresc uing
Ġdisappro vingly
Not BeNamed
Ġi he
Ġi ind
Ġfi ber
Ġloose ly
Ġgall ant
Ġgown s
Ġfrustr ating
Ġchess board
Ġobsc ene
Ġexpress ing
Ġmixt ures
Ġpel t
ĠPOT ION
ĠGl ory
Ġsoot he
Ġeyel id
Ġdispl ayed
Ġadmir ingly
Ġobsess ive
ball s
go blin
Ġtim ing
Ġtast y
Ġunmist akeably
Ġcrit ical
Ġrepro ving
Ġming ling
ĠChe er
Ġknuck le
Ġvibr ant
Ġvibr ated
Ġblur ring
Ġdisp ersed
Ġcasual ties
ites imal
Ġpul p
Ġpul sed
Ġpul sating
Ġpity ing
Ġpati ents
Ġsaving s
ĠSl ave
ĠSl ightly
Ġinspect ing
Ġfeeb ler
fl avored
Ġwrest ed
Ġevent ful
Ġrot ter
Ġrot ating
Ġagg ression
Ġagg rieved
Ġqual ify
Ġpron ounce
Ġinstinct s
Ġintr ude
Ġintr uding
ĠSneak o
Ex cept
rop riate
ĠTurn ers
Ġswer ving
ĠUp stairs
Ġbrut ally
Ġbrick s
Ġinvestig ation
Ġinvestig ating
Ġinvestig ations
ais ley
Ġhar bor
Ġmor al
ĠTer rible
ĠTer ror
ĠTer geo
Ġunh urt
Ġrestr ained
Ġreco il
Ġautom atic
Ġhicc ough
Ġhicc oughed
Ġty ke
Ġhell ebore
Ġlaun ching
Ġcliff s
Ġmyst ical
Ġdefense less
Ġinsist s
Ġanti que
Ch oo
Ch apter
IC E
Ġting le
Ġaud ibly
Ġwrigg le
Ġbund les
Ġrequire ments
ĠAugust us
Ġantic s
Ġshrive lled
Ġlegend s
Ġbru ising
Ġbru ises
Ġprotr uded
Ġdazzling ly
ĠWonder ful
Ġrou n
Ġrou sing
ĠHar old
Ġyel ps
Ġteen ager
Ġperf ected
Ġcomplex ion
Ġcomplex ity
Ġapolog ized
bell a
forc ements
Ġtooth ily
Ġder anged
sec urity
ĠPol ish
ĠUr quhart
Ġentr ust
Ġforeign ers
Ġexcl usive
Ġbuz zed
Ġunaware s
ĠSTU P
Ġmim icked
Ġinex per
ĠMom ent
ĠDipp er
Ġexec uted
Ġstew ed
fe it
fe ather
uber antly
Ġturb ulent
Ġferv ent
Ġca ul
Ġinher it
Ġrein forcements
ĠBas ic
ĠBox ing
Ġcondu ct
Ġunin v
Ġclaim s
Ġimper vious
Ġimper ceptibly
Ġdetect s
Ġdetect ors
Ġfreck ly
Ġhind quarters
Ġlace wings
ĠTot al
ĠFif teen
Ġchallen ging
Ġspo kes
Ġscru b
Ġscru bbing
Ġtwit tered
Ġdisag rees
ĠInc arc
ĠInc identally
Ġelb owing
Ġeduc ated
Ġaffect ing
Ġparaly ze
Ġparaly zing
Ġmusc led
ĠMerry thought
Just in
Ġgar ments
Ġnet tled
ĠSer ves
ĠRep l
Ġclick s
ĠUN S
Ġemplo yees
Ġskul ked
Ġprior ities
Ġfortun etelling
Ġoutrage ous
Ġchimney s
Ġtroph ies
ĠHope fully
Ġdw indling
Ġstreak s
Ġstamped ed
Ġwhit er
Ġwhit en
Ġwhit ened
ĠMis chief
ĠSA W
ĠSA Y
ĠSA VED
ĠSC AB
Ġfruit lessly
ĠFen rit
Ġchor used
Ġblot ches
Ġcompr om
Ġflin ch
ĠDev ils
Ġobst acle
Ġforearm s
ĠSnat cher
Ġfrost ed
Ġboo ed
Ġboo st
Ġfav ourite
Ġfreak s
Ġcock ro
Ġcock tail
Ġmoth s
Ġlun asc
Ġpall or
ĠRE M
ĠRE AL
Ġunbl inking
Ġclaw like
Ġprof usely
ĠNew t
ĠJinx ed
Ġmemor able
Ġmemor ized
Ġmemor izing
Ġinterven e
Ġinfl amed
Ġcharacter istic
Ġcontempl ate
My rtle
Pot ions
Ġhi bernate
ĠHO LD
Ġpix ie
Ġwhirl pool
Ġsham rocks
ĠCent aurs
Ġbackf iring
ĠEduc ation
Ġuniform s
Ġbless ed
Ġbless ing
Ġblackm ailing
Ġaccur ately
Ġbenef its
Ġferoc ity
Ġdescend ant
Ġmotorcy cles
BER S
Sc abbers
Ġlog s
Ġlog ic
Ġloos ened
Ġpark ing
Ġpond er
Ġpond ering
ĠWil kie
ĠDes pite
Ġroo sters
Ġrapt ly
ĠLo ad
Ġrocket ing
ĠEN D
ĠEle ment
Ġscare s
Ġgran ite
Ġflag stones
Ġimpost ors
ĠStr ange
Ġobed ience
Ġfurt ively
Ġaccompl ice
Ġtorch light
Ġabsor b
Ġconnect ions
Ġprogram s
ĠConfund us
Ġderis ively
Ġtarget s
Ġtoler ant
Ġtoler ate
itt al
Ġlam pp
Ġstout ly
ĠDE M
Ġreact ions
sequ ently
Ġjubil antly
ĠLock harts
Ġsolit ude
Ġlect uring
Ġovert ook
Ġovert ake
Ġovert aking
Ġunwise ly
Ġtramp led
Ġspec imen
Ġbrood ed
Ġprod igious
Ġwaf ted
Ġsurre nder
Ġelabor ately
Ġstragg ling
Ġcompre hend
Ġcolumn s
Ġdisconc erting
Ġsuffoc ate
Ġunconcern edly
for ced
uct ant
Ġbon net
Ġfarewell s
Ġmarsh mall
Ġsauce pans
ĠDumb hedore
ĠPart icularly
Ġselect ing
ĠCH EAT
Ġsheep ishly
ĠVen omous
Ġdisrup ted
Ġproc ured
Ġchew ed
Ġoblig ingly
Ġguarant eed
Ġintellig ent
Ġreferee ing
Ġbookshe lf
Ġthrong ing
Ġmirac ulous
Ġnoticeboard s
ATION S
Ġbloss om
Ġacceler ation
ĠQU I
ĠQU AFF
Ġtack ling
Ġsore ly
Ġdil apidated
Ġbeef y
Ġhistor ical
ĠWA Y
ĠRod s
ĠPur pose
ĠPri v
Ġups urge
Ġrob ustly
Ġcontrib ute
Ġcontrib ution
Ġadj usting
Ġdecl ared
Ġindivid uals
Ġguide lines
Ġribb ons
Ġexamin ers
Ġregurg itated
Ġconsult ation
Ġ19 45
Ġ19 81
Any way
Ġmedd led
ĠDrag omir
Ġinexpl icably
Ġdiamond s
Ġacknow ledge
Ġol ive
Ġcere mony
Ġlank y
Ġludicrous ly
Ġsalt y
Ġbef uddled
Ġouts iders
ĠCR ACK
ĠCR ASH
ĠCream s
Ġrh ubarb
Ġdeck er
Ġoverl ooked
Ġpolit eness
Ġpolic emen
Ġchann el
Ġqua very
Ġunhe althy
Ġarmful s
Ġhelm ets
Ġeman ated
eeee e
Ġsquaw k
Ġuntr ustworthy
Ġuntr uthfully
Ġdecip hering
Ġintend s
Ġunfur ling
Ġcounterc urses
ĠTeam s
Ġsalam anders
Ġhiccup ed
Ġensl avement
Ġsiph ons
Ġsiph oned
Ġestab lished
Ġlampl ike
Ġdistinguish able
Ġecst asy
Ġricoche ting
AU GH
Never theless
Sm all
Sm ith
tter ly
Ġtid al
Ġtaut en
Ġbisc uit
Ġdump y
Ġlod ged
Ġpad locked
Ġsauc er
Ġwasp ishly
ĠWOR K
ĠWOR RY
ĠDiff icult
ĠALL OWED
ĠPen ny
ĠCar actacus
ĠCON ST
Ġbutter flies
Ġshepher d
Ġshepher ded
Ġdeg ree
Ġoverhe ar
Ġplum age
Ġdisent angled
Ġdisent angle
Ġcontented ly
Ġrecoll ection
Ġinterpret ation
Ġrefr ained
Ġirres olute
Ġdiscern ible
Ġundo ing
Ġsatisfying ly
Ġmerc iful
Ġflowerbed s
Ġtimet ables
ĠRedu cio
Ġcalcul ating
Ġcalcul ations
Ġsanct uary
Ġsanct imon
Og warts
wy ck
Ġtub ers
Ġwadd led
ĠHum dinger
Ġcabb age
Ġdough y
Ġgarl ands
Ġinit ial
Ġinit ials
Ġyield ed
Ġetern ally
ĠSleep ing
Ġreced e
ĠAss istant
ĠPR OPH
ĠHel ga
ĠHel ena
ĠColl oportus
ĠCAR E
ĠComp etition
Ġvent ured
Ġisol ation
Ġoverst uffed
Ġsund own
Ġunimp ressed
Ġunimp ortant
ĠVe il
Ġprejud ice
Ġpell et
Ġapplic ant
Ġapplic ation
Ġdroop y
Ġnewcom er
Ġinde fin
Ġawa its
Ġriff led
Ġriff raff
Ġrepress ively
Ġferre ty
ĠFris bee
Ġbleed in
Ġencirc ling
LES S
Ġcroak ily
Ġgraffit i
Ġfoam y
Ġcasc ade
Ġcasc aded
Ġexhilar ating
Ġwoe fully
ĠDeton ator
Ġastr ay
Ġblotch ily
Ġproport ions
Ġproport ioned
Ġacknowled ged
Ġdiagram s
ĠGurdyro ots
Ġcrisscross ed
Sec onds
Wizard s
Ġber ries
Ġfu zzy
Ġfrill y
Ġcher ub
Ġcod es
Ġdent ists
Ġmic key
Ġmould y
Ġmagg ot
Ġmagg ots
Ġlu x
Ġgag a
ĠMug wump
ĠSet ting
ĠSup reme
ĠTreat s
Ġrept ile
Ġrept ilian
Ġupt ight
Ġupt ake
Ġuphold ing
ĠGri p
ĠGri pping
cend o
Ġmechan ically
ĠYEAR S
Ġrally ing
Ġrump led
Ġleak s
ĠOl ive
ĠOl hiv
Ġalche mist
Ġalche my
ĠWhiz bees
Ġpreced ed
Ġdisreg arding
Ġprofess ional
Ġsnee ze
Ġsnee zed
Ġwalt zing
Ġsquir ted
Ġvisual ize
Ġextric ate
Ġextric ated
Ġinsc ribed
Ġbarric ade
Ġleaders hip
Ġextravag ant
Ġextravag antly
Ġcomplic ate
Ġbenign ly
Ġtoadstool s
Ġbulb ous
Ġhyp ocr
Ġcongreg ated
Ġheirlo om
Ġheirlo oms
ĠMetamorph mag
Ġdispirited ly
Ġmushroom s
Ġexcruciating ly
CL AW
EM ORT
Fin ally
Must NotBeNamed
Mugg le
OIN T
Squ inting
Slytherin s
Would n
Ġtong ues
Ġsardon ically
Ġbale fully
Ġfren zied
Ġog ling
Ġdarn ing
Ġdens er
Ġdizz ying
Ġmajor ity
Ġped est
Ġpens ions
Ġgna wing
Ġinfect ious
Ġnause ated
ĠSM ELL
ĠSon orus
ĠAqu a
Ġsew er
ĠBro derick
ĠBRE AK
Ġdole fully
Ġoutstri pped
unction ing
Ġbutto cks
Ġrom antic
ĠFain ting
Ġdelu ged
Ġtender ly
Ġoverc rowded
Ġchiv v
Ġspur ted
Ġunm oving
Ġunle ashed
Ġscaven ging
Ġenh ance
Ġenqu iringly
Ġuntid ily
Ġparticip ating
ĠBew ildered
ĠSevent een
Ġinsol ent
Ġinterpre ted
Ġwrongdo ing
Ġunco iling
ĠPract ical
Ġillustr ations
Ġdestab ilize
ĠSmeth wyck
Ġinfin itesimal
Ġpouff e
olog ize
Ġpursu ers
Ġsuperv ise
Ġcheekb ones
ĠBEH IND
Ġrebu ild
Ġunsurpr ised
ĠEngorg ement
ĠObject s
Ġsouven irs
Ġaggra vated
Ġhedger ows
Ġexerc ised
Ġunscrew ed
Ġirresist ibly
Ġduplic ate
Ġunenthusi astically
Ġaccommod ate
App arently
Pr ince
Ġsine w
Ġtheen k
Ġbog ies
Ġbalm y
Ġfut ures
Ġtob acco
Ġtoen ails
Ġdre ary
Ġdess erts
Ġdapp led
ener ations
Ġpir ouet
Ġging ery
Ġinade quate
Ġnic er
Ġsage ly
Ġsaint ly
Ġbea verskin
Ġstim ul
Ġstup or
ĠMere ly
ĠTy pical
ĠTON IGHT
ĠTibb ies
ĠDog breath
Ġrete lling
Ġrepr im
Ġrehears ed
ĠPower ful
Ġkapp as
ĠBird s
ĠBIR D
Ġdoc ile
ĠGorg ovitch
ĠGRA WP
ĠCru c
Ġrunn er
Ġruth lessly
Ġjugg ling
Ġbackp ack
Ġoverbal anced
Ġchamb ers
Ġchival ry
Ġunlock ing
Ġblister ing
Ġscald ing
Ġscrup ulously
Ġplun ge
ĠThir teen
Ġsmould ering
Ġdise ased
Ġdisarr ay
Ġdisorient ated
Ġprolong ed
ĠMcKinn ons
Ġlifel ong
Ġeyewitness es
ĠGrunn ings
Ġindul g
Ġredoub led
Ġcathed ral
Ġsentin el
Ġsubmer ged
Ġevacu ating
Ġeffic acious
Ġthrot tle
Ġfertil izer
Ġnonex istent
Ġfoolhard y
ĠTransport ation
Ġconstit utes
Ġcrystall ized
Ġresear ching
Ġprede cessor
Ġautob iography
Ġpuzzle ment
ĠConfisc ation
Ġcondem ned
Ġunsatisf actory
Ġscurry ings
Ġobserv ation
Ġstalact ites
Ġinexpress ible
ĠSwed ish
ĠCorrespond ent
Ġoptim istic
ĠOblivi ator
ĠExtra ordinary
Ġsumpt uous
Ġconspic uous
ĠSERV ANT
ĠRIDD LE
Ġknickerbock ers
ĠFawc ett
Ġinsubstant ial
Ġphenomen on
Ġgambo ling
ĠSLYTHER IN
ĠPLEAS E
ĠFIREBOL T
Ġinscrut able
ĠGobblede gook
BRID GE
Corn elius
COM ING
Dep artment
Fire nze
Horcrux es
Olliv ander
Transfig uration
Whe ther
Xen ophilius
aer as
cit ement
Ġtus sle
Ġtous le
Ġaro se
Ġaust ere
Ġaft ereffects
Ġaval anche
Ġwint ry
Ġhipp o
Ġhilar ity
eran ium
Ġbrid esmaid
Ġbos om
Ġfiss ure
Ġoxy gen
ĠHass an
ĠHug o
Ġcate g
Ġcupp a
Ġdaught ers
Ġdandel ion
Ġmers ong
Ġmau ve
Ġmalf unctioning
Ġpum meled
Ġpust ules
Ġpung ent
Ġpyram id
Ġhavers ack
Ġinapp ropriate
Ġinaud ible
Ġinev itable
Ġnuff ink
Ġsacra fice
Ġwhipl ike
ĠMaj orca
ĠTiber ius
ĠWimb ourne
ĠWolf sbane
ĠDANG ER
Ġreem er
alog y
ĠRET URN
ĠRUD DY
ĠRAVEN CLAW
ĠAra bella
ĠAustr alia
ĠAuthor ity
ĠAUN T
ĠAcker ley
ĠPos itive
ĠPredict ably
Ġseep ed
Ġseiz ure
Ġshroud ed
ĠHeWho MustNotBeNamed
ĠBeth nal
ĠBirth day
Ġupsw ing
ĠGide on
ĠGern umb
ĠGene alogy
ĠGlit tering
ĠGarr otting
ĠGibb on
ĠGREAT ER
ĠCass andra
ĠCather ine
ĠCere mony
ĠCrock ford
ĠCatast rophes
Ġrhod odend
ĠFub ster
ĠFRI END
ĠFRON T
Ġjudd ered
ĠLib atius
ĠLibr ary
ĠNumero logy
Ġbacktr acked
Ġliken ess
Ġvestig es
Ġexceed ingly
ĠOCTO BER
isturb ed
Ġoverth row
Ġoffcol or
Ġlikeli hood
ĠEmp orium
Ġunper turbed
Ġuncl ench
Ġunreg istered
Ġuniver se
Ġungain ly
Ġunobs cured
Ġbluster y
ĠVaise y
ĠVOLD EMORT
Ġswoon ing
Ġswoos hing
Ġflabber gasted
Ġmanuf acture
Ġproxim ity
Ġarmadill o
Ġpasseng ers
ĠIncend io
ĠJimm y
ĠJAM ES
ĠJORD AN
Ġbedragg led
Ġwhisperer s
Ġwindowpan es
Ġsquigg ly
ĠAngelin as
ĠBefudd le
Ġforewarn ed
Ġcoco a
Ġcocon ut
ĠScourg ify
ĠScriven sh
Ġintersp ersed
Ġuncomm on
Ġuncompre hending
ĠHerinion e
ĠAgripp a
ĠParacels us
ĠFlutter by
Ġsteplad der
ĠMerchie ftainess
Ġinfilt rated
ĠImperturb able
ĠHEAD M
ĠPrepost erous
ĠBELI EVE
Ġknotgr ass
ĠSCAB BERS
ĠCHEAT ING
ĠQUAFF LE
ĠPROPH ECY
ĠOlhiv ander
Ġhypocr ite
Ġrhododend ron
' '
' :
. ï¿½
1 1
3 0
6 0
7 5
8 9
9 2
A G
A p
A round
A ss
A ber
A zkaban
A AR
A lic
A CH
A my
A CT
A ugust
A PP
B L
B as
B ig
B eneath
C R
C are
C ol
C ause
C os
C oming
C LE
C ING
C ID
C RA
D I
D U
D i
D r
D im
D ad
D ark
D read
D eep
D ec
D ES
D arling
D azed
D UNG
E L
E l
E ver
E arly
E ST
E duc
E OP
E LY
E dgecombe
F T
F irst
F EN
F lint
F TER
G l
G o
G r
G old
G reat
G AR
G aunt
G reg
G ET
G lad
G UE
H A
H H
H at
H all
H igh
H elp
H appy
H ART
I A
I F
I d
I l
I ng
I RY
I RA
I LY
J ordan
J OIN
K atie
L ight
L ist
L oud
L AT
L oony
L aughing
M is
M ay
M aster
M ED
M onday
M ontague
M BRIDGE
N or
N ove
N AM
N IGHT
N ooo
N umbing
O ld
O kay
O LL
O liver
O SE
O LEN
P l
P anting
P ensieve
P ansy
P ersonally
R T
R o
R es
R om
R ain
R od
R oon
R oger
R iddikulus
R apier
S K
S U
S W
S er
S ame
S ix
S lu
S ince
S li
S oon
S itting
S uch
S igned
S PE
S CA
T r
T ook
T all
T hing
T ra
T ake
T RA
T urning
U TH
U CTO
V an
W L
W it
W ill
W ond
W ish
W ARD
W alking
W ritten
Y er
a es
a ill
a ive
a pered
a era
b one
b ble
b est
b ity
b anger
b read
b ashed
b anded
b ias
b ounds
b reaking
b aiting
c n
c an
c ide
c ass
c are
c ated
c ont
c os
c ible
c iled
c ertain
c apped
c ulus
c onscious
c hem
c urd
d is
d id
d le
d led
d ist
d ie
d est
d ened
d ugg
d ale
d ead
d aughter
d ums
e um
e ard
e ate
e ars
e aking
e xt
e ingly
f y
f ing
f if
f lo
f ink
f our
f are
f ang
f ell
f ield
f orted
f illed
f org
f atal
g ot
g her
g ust
g ra
g ily
g age
g ings
g ained
g reg
g ift
g reen
g tails
h t
h is
h ion
h all
h ill
h op
h ake
h igh
h anging
h aired
i work
i ations
i ants
i atic
i astic
i atory
j y
j am
j aw
k ick
k ier
k indly
l ot
l one
l ib
l ations
l eng
l attering
l ooked
l ift
l iction
l ucky
m g
m et
m ort
m ously
m mas
m oon
n ly
n ic
n el
n ation
n ets
n olly
n ific
n ox
n zes
n oyed
n elle
o i
o in
o es
o ard
o il
o ine
o ci
o ids
p us
p ro
p ir
p ound
p ens
p ressed
p icked
p ments
p itched
p oph
p arent
p iring
p assing
r own
r ud
r ate
r ont
r ained
r ations
r inking
r ane
r ayed
r ags
r unners
s is
s st
s hing
s ome
s qu
s per
s ized
s pr
s uddenly
s uma
t w
t ot
t oo
t ur
t aking
t ors
t oward
t udes
u ver
u ghorn
u ations
u bber
u zzer
v ra
v ation
v ating
v ably
v ention
v aged
v ices
v ays
v bl
v ian
v io
v ania
v oyant
v sie
w ed
w ill
w ind
w ling
w az
w ashed
w itted
w ho
w inkle
w orking
w ulfa
x le
x ious
x ible
x min
x weed
y p
y ed
y al
y our
y ield
z er
z ers
z ards
z ipping
Ġ &
Ġ Q
Ġ nd
Ġ ermione
Ġ il
Ġ ers
Ġ ich
Ġ ened
Ġ ously
Ġ estr
Ġt a
Ġt l
Ġt an
Ġt arry
Ġt ac
Ġt ard
Ġt ak
Ġt ice
Ġt ig
Ġt arts
Ġt uck
Ġt iss
Ġt inned
Ġt urm
Ġt iles
Ġt unic
Ġt aint
Ġt iring
Ġt ongs
Ġt abs
Ġt uned
Ġt ampering
he ld
he et
he ur
he um
he art
he me
he cked
Ġa u
Ġa ry
Ġa ub
Ġa vid
Ġa aaaa
Ġa xle
in o
in as
in ch
in ence
in ating
in ci
in ian
Ġs or
Ġs ch
Ġs led
Ġs ie
Ġs ord
Ġs ung
Ġs ib
Ġs ult
Ġs cept
Ġs ores
Ġw iv
Ġw akes
Ġw oul
Ġw ilt
Ġw arr
Ġw agged
Ġw oh
Ġw olves
Ġthe at
Ġthe ore
Ġthe ater
re te
re nts
re chaun
ou red
ou ill
Ġh r
Ġh un
Ġh ust
Ġh og
Ġh ound
Ġh ire
Ġh itch
Ġh ors
Ġh inting
Ġh mm
Ġh unted
Ġh uffy
Ġh ives
Ġh inge
Ġh ulking
Ġh arrassed
ed led
on a
on ous
on cho
on str
on ias
on nected
on ica
ing ers
ing ham
er c
er ally
er ang
er os
er ately
er work
er als
er ring
er ina
ar ize
ar iably
nd y
nd ar
nd fy
Ġb red
Ġb ast
Ġb aring
Ġb aff
Ġb unny
Ġb amb
Ġb illy
Ġb unks
Ġb icorn
Ġb ids
Ġb unched
Ġb erating
Ġb omber
Ġb erk
Ġb ogs
Ġb udding
Ġb irch
Ġb ummer
Ġf unn
Ġf ib
Ġf used
Ġf ates
Ġf ungus
Ġf umed
Ġf ails
Ġf umble
Ġf izz
Ġf iddled
Ġo k
Ġo m
Ġo ce
Ġo ct
Ġo val
Ġo cto
Ġo yt
ĠH ed
ĠH ic
ĠH ark
ĠH ate
ĠH ol
ĠH arm
ĠH anged
ĠH ob
ĠH mp
ĠH unched
ĠH agger
ĠH OME
ĠH omen
ĠH OUR
at u
at in
at en
at ting
at ures
at ism
Ġto ll
Ġto dd
Ġto ying
Ġto ken
Ġto ys
is en
is her
is gu
is pers
it us
it here
it ism
it rans
it wit
it ivity
Ġc y
Ġc us
Ġc udd
Ġc ement
Ġc aw
Ġc arted
Ġc aster
Ġc iv
Ġc ows
Ġc ale
Ġc oop
Ġc ert
Ġc amped
Ġc elest
Ġc uffing
Ġc yl
Ġc usto
as in
as ly
as ks
as ier
as elessly
as urably
or f
or ow
or ch
or ary
or ably
or ative
ll ey
ll ified
id ance
id ays
id otes
Ġhe ather
Ġd an
Ġd red
Ġd if
Ġd ud
Ġd au
Ġd ile
Ġd emort
Ġd itch
Ġd ating
Ġd ither
Ġd unk
Ġd ub
Ġd rying
Ġd ye
Ġd rought
Ġd under
Ġd uster
Ġd immer
Ġd aunting
Ġd abbled
Ġd ummies
en ius
en ient
en cr
en nervate
en jy
Ġm am
Ġm own
Ġm ong
Ġm ime
Ġm ang
Ġm ering
Ġm ower
Ġm orrow
Ġm antic
Ġm ules
Ġm aim
Ġm oored
Ġl or
Ġl ac
Ġl ink
Ġl air
Ġl ions
Ġl av
Ġl aps
Ġl uring
Ġl aced
Ġl ax
Ġl apped
Ġl avender
Ġl aces
Ġl ashes
Ġl atch
Ġl agging
Ġl yn
Ġl umos
Ġl intel
Ġl enient
Ġth rou
Ġth inn
Ġth ron
Ġth inning
Ġth umped
Ġof Magical
Ġof Nove
Ġp es
Ġp ac
Ġp ent
Ġp ore
Ġp and
Ġp ist
Ġp ence
Ġp ail
Ġp ening
Ġp orc
Ġp rying
Ġp ays
Ġp aving
Ġp add
Ġp ampered
Ġp auses
Ġp outed
Ġp aunch
Ġp ilf
Ġp aisley
Ġp apered
Ġp oncho
es to
Ġha re
Ġha cked
Ġha aa
Ġha ms
Ġg an
Ġg im
Ġg erm
Ġg ust
Ġg ist
Ġg ong
Ġg ully
Ġg rouch
Ġg ushing
Ġg its
Ġg ait
Ġg aud
Ġg aun
Ġg angling
Ġg ales
Ġg iddy
Ġg erb
Ġg abbled
Ġg eranium
Ġin ee
Ġin ject
Ġin quire
Ġin quis
Ġin sec
Ġin acc
an im
an to
an ish
an ian
Ġn ook
Ġn ess
Ġn il
Ġn ond
Ġn ich
Ġn igh
Ġn av
Ġn udge
Ġn ought
Ġn ative
Ġn ettle
Ġn esting
Ġn iches
Ġn yl
Ġn ameless
Ġn ibble
Ġn aive
le on
le well
le men
le xible
ow l
ow se
ow ering
ow sweet
Ġsa p
Ġsa pp
Ġsa dd
Ġsa les
Ġsa kes
Ġsa liv
Ġsa ggy
Ġsa pling
ĠI nt
ĠI vor
Ġy o
Ġy anking
Ġy olk
Ġy owling
ot ic
ot ation
ot fang
om atically
om bed
om ancy
Ġbe re
Ġbe qu
Ġbe au
Ġbe gg
Ġbe aker
Ġbe friend
Ġbe eline
Ġe lo
Ġe el
Ġe ject
ac ity
Ġhis ses
im y
im ately
im ited
im icum
us in
us es
us able
us ually
us ters
us ual
us iastic
ve lt
Ġst er
Ġst ink
Ġst ave
Ġst ank
Ġst rif
Ġst arg
Ġst utter
Ġst ruct
Ġst oned
Ġst uttered
Ġst alled
Ġst aunch
Ġst ubble
oo z
Ġon erous
Ġon going
et or
et ical
et hered
et of
et ectable
ic op
ic ation
ic ts
ic ity
ic ule
ic orice
ver ance
Ġwh ack
Ġwh il
Ġwh ine
Ġwh ined
ro ke
ro ph
ro vers
ro zen
ir it
ir ous
ir king
ir rup
ir ring
ir ator
ĠM R
ĠM ould
ĠM el
ĠM ung
ĠM ail
ĠM akes
ĠM OU
ĠM ember
ĠM ob
ĠM UM
ĠM ID
ĠM outh
ĠM akers
ĠM ajor
ĠM ascots
ĠM ental
ĠS ly
ĠS im
ĠS her
ĠS ight
ĠS ant
ĠS ting
ĠS me
ĠS ign
ĠS well
ĠS low
ĠS ET
ĠS aying
ĠS OM
ĠS ounded
ĠS outh
ĠS OME
ĠS URE
ĠS outheast
ĠT in
ĠT ur
ĠT erm
ĠT our
ĠT ying
ĠT imes
ĠT ER
ĠT EN
ĠT IM
ĠT EA
ĠT arant
ĠT AK
ĠT REE
ĠT ELL
ĠT URN
ĠT ooth
ut ers
ut ies
ut ors
Ġwe pt
Ġwe bs
Ġwe edy
Ġwe althy
ĠW O
ĠW an
ĠW al
ĠW art
ĠW old
ĠW ire
ĠW az
ĠW oke
ĠW ork
ĠW aff
ĠW ald
ĠW orth
ĠW inner
ĠW IN
ĠW agg
ĠW AR
ĠW oss
ĠW arty
ĠW ulf
ĠW alking
ĠW omen
ĠW OULD
ĠW INS
out ing
out hs
ent ia
ent iful
ent ieth
ent lemen
ĠD U
ĠD ust
ĠD urn
ĠD ire
ĠD od
ĠD ile
ĠD ue
ĠD awn
ĠD esc
ĠD angling
ĠD ES
ĠD IS
ĠD AM
ĠD arling
ĠD RA
ĠD IR
ĠD rawing
ĠD ai
ad v
ad ers
ad ley
ad owed
ad ise
ad ays
Ġas ser
Ġas pers
Ġas certain
Ġat ed
Ġat op
Ġat roc
Ġu mpt
Ġre en
Ġre lo
Ġre est
Ġre nder
Ġre vers
Ġre vo
Ġre igned
Ġre jected
Ġre aches
Ġre kind
Ġre told
ur rying
ur rence
al se
al though
al bert
al cul
ore al
ag u
ag ery
ag ingly
ag gered
ĠR id
ĠR an
ĠR ag
ĠR ack
ĠR up
ĠR ound
ĠR ab
ĠR age
ĠR ock
ĠR aven
ĠR isk
ĠR ED
ĠR une
ĠR EA
ĠR IGHT
ĠR abbitty
ĠR aising
ĠR ennervate
ĠR otfang
st al
st ood
st ered
st age
st uff
st ruct
st while
st roke
ri etor
Ġwit ty
ke ins
ch anted
ch ild
ch ieve
ch men
ĠA il
ĠA ff
ĠA te
ĠA sh
ĠA ub
ĠA br
ĠA ids
ĠA AA
ĠA hem
ĠA xe
ĠA argh
ĠA ARGH
ĠA WAY
ĠA AARGH
ĠA FTER
ĠA HA
ĠA xmin
ĠA chieve
ay er
Ġwith ou
Ġan ch
Ġan th
Ġan ts
Ġan ony
Ġan ec
Ġan aly
ĠP in
ĠP es
ĠP le
ĠP oo
ĠP ink
ĠP op
ĠP est
ĠP ress
ĠP ere
ĠP archment
ĠP ER
ĠP AR
ĠP RE
ĠP arty
ĠP ajam
ĠP ET
ĠP ests
ĠP UT
ĠP assed
ĠP imply
ĠP leased
ĠP EOP
ĠP sst
Ġfor ge
Ġfor aging
Ġse as
Ġse als
Ġse mpra
am er
am ore
am ant
am our
am ish
am ents
am ander
um ple
um ination
ter ies
pp in
pp ery
pp ermint
Ġnot h
Ġnot ches
Ġnot with
Ġnot oriously
ack y
ard man
Ġsh h
Ġsh in
Ġsh ave
Ġsh imm
Ġsh uffle
Ġsh unned
Ġsh immer
led y
Ġk in
Ġk ilt
Ġk ippers
erm ost
erm ination
ĠHe at
ĠHe li
ĠHe aling
pe ze
ĠB ally
ĠB ound
ĠB ure
ĠB ol
ĠB ars
ĠB ab
ĠB uck
ĠB ee
ĠB udge
ĠB ens
ĠB ought
ĠB ash
ĠB oom
ĠB rought
ĠB its
ĠB rian
ĠB irm
ĠB ites
ĠB AD
ĠB urning
ĠB abbling
ĠB reathing
ĠB ishop
ĠB UL
ĠB aubles
ĠB arking
ĠB OOKS
ĠB enjy
ain ee
em p
em ous
em pt
em pered
em selves
em bers
em bow
em pted
em plo
Ġup shot
Ġfr act
Ġfr oth
Ġfr aught
Ġfr isking
Ġfr atern
Ġfr aill
Ġdo omed
Ġdo gging
Ġdo xy
ight ers
Ġout set
Ġout fl
Ġout of
Ġout fit
ess ence
ĠG R
ĠG re
ĠG it
ĠG ry
ĠG rou
ĠG ul
ĠG row
ĠG ather
ĠG ine
ĠG ord
ĠG ryff
ĠG amp
ĠG ets
ĠG its
ĠG illy
ĠG RE
ĠG rief
ĠG ives
ĠG IR
ĠG ENT
ĠG oyles
ĠG azing
ĠG enerations
ĠG iants
ce ived
un s
un culus
ĠC U
ĠC ut
ĠC ur
ĠC and
ĠC ant
ĠC ous
ĠC ond
ĠC ough
ĠC ater
ĠC li
ĠC overed
ĠC oun
ĠC ush
ĠC rup
ĠC AT
ĠC ED
ĠC hest
ĠC opy
ĠC AST
ĠC AU
ĠC ursed
ĠC offee
ĠC ackling
ind or
Ġme ander
Ġme wling
Ġne z
Ġne on
Ġne ls
Ġbut ting
ĠY o
ĠY outh
ĠY awning
Ġr or
Ġr ook
Ġr aking
Ġr ince
Ġr una
Ġr anc
Ġr acked
Ġr ages
Ġr ations
Ġr uffle
Ġr ayed
Ġr usted
Ġr aying
Ġr uffling
Ġr ambling
il ted
il ient
il ential
il uted
Ġfe z
Ġfe inting
Ġfe eds
ĠF A
ĠF L
ĠF ly
ĠF ood
ĠF ig
ĠF ie
ĠF orm
ĠF oll
ĠF unn
ĠF ron
ĠF lit
ĠF aced
ĠF eed
ĠF aces
ĠF ives
ĠF ountain
ĠF AM
ĠF LY
ĠF IR
ĠF IL
ĠF REE
ĠF OOL
ĠF urther
ĠF airy
ĠF udges
ĠF heur
ĠF ingers
Ġall ies
Ġall otted
if act
if ically
to ire
to ps
ĠWe e
ĠWe ar
ĠWe ak
ĠWe lf
ĠWe ap
Ġj ack
Ġj ade
Ġj iff
Ġj olly
Ġj aun
Ġj ibe
ĠL i
ĠL is
ĠL as
ĠL ace
ĠL ep
ĠL ate
ĠL ab
ĠL ance
ĠL uck
ĠL unch
ĠL oss
ĠL ox
ĠL ousy
ĠL IST
ĠL OCK
ĠL ESS
ĠL td
ĠL AUGH
ĠL lewell
ĠL icorice
umb ly
umb ers
umb les
Ġgo yle
ĠN ort
ĠN ig
ĠN ames
ĠN atural
ĠN AM
ĠN umbly
Ġso il
Ġso ak
Ġso ber
Ġso aps
Ġso cial
Ġso ppy
Ġso poph
Ġwhe l
Ġwhe t
Ġwhe edle
Ġwhe edled
ast an
ast ly
Ġli pped
Ġli aise
Ġli zards
qu ent
qu ite
ort entia
ide ous
Ġv and
Ġv il
Ġv ist
Ġv oldemort
Ġv ord
Ġv ith
Ġv ented
Ġv ests
Ġv ouched
Ġis ed
Ġis hed
ud ents
ant om
ant ial
ant uan
ant ulas
Ġle pt
Ġle ech
Ġle aky
Ġle veled
Ġex ac
Ġex ult
Ġex ited
Ġex ceeded
Ġex erted
Ġex empl
Ġex uberantly
Ġab stained
Ġab oard
ink ets
ĠO Y
ĠO w
ĠO pp
ĠO ak
ĠO ft
ĠO sw
ĠO bs
ĠO LD
ĠO mens
ĠO THER
Ġno i
Ġno vel
Ġno bility
Ġno gtails
Ġno velt
ist ently
ist ics
ist rations
Ġag ent
Ġag itating
ra x
ra ving
ra wl
ra ils
Ġro am
Ġro bb
Ġro ped
Ġro aming
Ġro bbing
Ġro de
Ġro yal
Ġal i
Ġal right
Ġal be
Ġal ph
ct urus
ong ing
Ġde red
Ġde pl
Ġde rel
Ġde als
Ġde cks
Ġde lve
ul um
ul pt
Ġte red
Ġte ase
Ġte ased
Ġte eter
Ġover r
Ġover w
Ġover re
Ġover se
Ġover age
Ġover sh
Ġover time
Ġover power
Ġover view
Ġover hanging
ers ing
ers ized
oy antly
Ġwould be
ss ence
ĠWh os
ĠWh ipping
ĠWh add
ĠWh oops
ig ars
ig ently
ig rout
Ġpo sed
na p
na ire
Ġch anted
Ġch oke
Ġch aps
Ġch ins
Ġch ief
Ġch ancing
Ġch ipping
Ġch illed
Ġch uffed
Ġch asin
Ġch irrup
Ġdown side
Ġdown hill
Ġoff ences
Ġoff spr
Ġany time
Ġsp ook
Ġsp ade
Ġsp ons
Ġsp aced
Ġsp orted
Ġsp urred
Ġsp acious
Ġsp rawl
Ġsp onging
Ġqu ery
Ġqu ash
Ġqu aked
Ġqu oted
Ġqu ailed
Ġqu elled
Ġqu otation
ĠE re
ĠE et
ĠE gg
ĠE ating
ĠE vent
ĠE ton
ĠE eng
ĠE sc
ĠE ager
ĠE uphoria
ĠE ffect
ĠE SCA
ĠE met
ĠE asier
Ġcon ven
Ġcon te
Ġcon cus
el ight
el ab
el ves
el ped
Ġus ers
Ġhand lers
Ġhand iwork
Ġhand picked
Ġun at
Ġun ion
Ġun ity
Ġun ident
Ġun blem
Ġun armed
Ġun belie
Ġun ivers
Ġun qualified
Ġun plottable
Ġun asked
Ġun kindly
Ġun zipping
ie ged
ie ces
Ġby passed
op aths
ull s
ull ery
Ġbl ared
Ġbl otting
Ġbl abbed
Ġbl isters
Ġbl izz
Ġbl uffing
Ġbl atant
Ġbl ithe
Ġbl ighters
ĠV i
ĠV o
ĠV iv
ĠV ik
ĠV aux
ĠV inc
ĠV ault
ĠV IG
ĠV CR
ĠPro bes
ĠPro bity
Ġjust ified
Ġthink in
Ġcan e
Ġcan aries
Ġtoo l
Ġsc rou
Ġsc umb
Ġsc ant
Ġsc oot
Ġsc iss
Ġsc rum
Ġsc ouring
Ġsc opes
Ġsc ience
Ġsc rawling
Ġsc uffles
Ġsc udding
Ġsc ampering
Ġsc heme
Ġsc ulpt
Ġsc ullery
Ġif e
right ly
Ġare na
Ġ' '
est e
est ines
est ries
ward s
Ġpl owed
Ġpl owing
Ġpl und
Ġpl atter
Ġpl anting
Ġpl entiful
Ġwhen ce
Ġcl ink
Ġcl air
Ġcl ause
Ġcl ash
Ġcl ucked
Ġcl ucking
Ġcl ippings
Ġmore over
Ġsl ay
Ġsl ain
Ġsl ave
Ġsl anted
Ġsl ugg
Ġsl udge
Ġsl ush
Ġsl inking
Ġsl ashes
ap itated
Ġor f
Ġwand ers
Ġwand work
bb in
bb ins
bb ub
Ġhead y
Ġhead way
Ġhead lines
Ġmo ss
Ġmo ors
Ġmo der
Ġmo keskin
Ġmo llified
ame leon
Ġcom r
Ġcom ically
Ġcom bed
ĠTh in
ĠTh row
ĠTh ieving
og ue
Ġtw ee
Ġtw eak
Ġtw anging
Ġtw inkle
Ġtw eaking
Ġtime ly
Ġsm ack
Ġsm arm
Ġsm arter
Ġsm ithere
ang ement
Ġdoor less
Ġvo lit
Ġvo lley
Ġtr ow
Ġtr im
Ġtr out
Ġtr ice
Ġtr icking
Ġtr ances
Ġtr ussed
Ġtr oops
Ġtr inkets
ĠK it
ĠK en
ĠK ind
ĠK ettle
ĠK eys
Ġdon key
Ġface ful
Ġgl ing
Ġgl ac
Ġgl ue
Ġgl ower
Ġgl oop
Ġgl amour
Ġturn in
ĠWhat s
Ġright ed
Ġright fully
Ġar ced
Ġar isen
ure ly
Ġgr ows
Ġseem d
Ġseem ply
tle ty
Ġsw um
Ġsw itch
Ġsw arth
Ġsw illed
Ġsw athed
Ġsw ipes
Ġsw agger
Ġsw iped
Ġsw aggered
ree ch
ree ze
Ġfl ay
Ġfl ound
Ġfl ank
Ġfl umm
Ġfl akes
Ġfl amb
Ġfl ayed
Ġfl abby
Ġfl imsy
Ġfl asks
ire r
ĠU pper
ĠU SE
ĠU gly
ĠU tterly
ĠU MBRIDGE
ol ted
ol ation
ol ized
ol ately
Ġdidn t
Ġman if
Ġman ip
Ġman ia
Ġman ual
Ġman acle
Ġman acles
ars n
omet er
Ġen um
Ġen case
Ġwill s
Ġwill ed
Ġwill power
aring ly
ab out
ab ais
ab lished
ab etical
od ed
od ing
od el
od swallop
od erately
Ġpre arranged
Ġim itating
Ġpe o
Ġpe ak
Ġpe ck
Ġpe ct
Ġpe ach
Ġpe ony
Ġsaw s
th ree
th anks
th ren
th irst
th usiastic
Ġtell tale
Ġdis ch
Ġdis ob
Ġdis rep
Ġdis qualified
Ġdis banded
Ġdis embow
Ġunder line
Ġunder bell
Ġunder going
Ġunder fed
Ġwant in
row ave
ather s
Ġke lp
Ġlo b
Ġlo om
Ġlo lled
Ġlo bbing
Ġlo vingly
Ġmu le
Ġlet tered
Ġapp et
Ġapp li
Ġapp lying
ĠDe cl
ĠDe velo
ĠDe eper
Ġlit erally
te ll
te ly
Ġeven in
Ġrem onstr
Ġbr akes
Ġbr amble
mb ly
mb ling
Ġcome upp
lt imately
Ġpro ff
Ġpro pping
Ġpro ph
Ġpro vo
Ġpro str
Ġpro pel
Ġpro sper
ĠHog wart
ĠNe cess
ĠNe eds
Ġac hes
Ġac ute
Ġac idly
Ġac adem
Ġpoin ty
ĠCh im
ĠCh oose
ĠNo x
Ġmoment um
ĠThere fore
ĠThere after
Ġshould a
uff io
He art
He llo
He aler
ople ctic
ord ination
ord inated
Ġsil encing
Ġfirst hand
Ġsec uring
ful s
Ġpr ac
Ġpr ised
Ġpr anced
Ġpr ising
Ġpr ices
Ġpr une
Ġpr inces
Ġpr uned
Ġpr inci
Ġpr ayer
ĠMin utes
ont al
ont am
Ġwa ft
les ome
Ġdes ign
Ġdes isted
Ġdes irous
Ġwell ing
Ġcont orting
Ġcont ested
Ġcont rapt
Ġcont rovers
Ġho cus
Ġho ax
ady s
Ġpull in
Ġmight ily
Ġatt i
Ġatt ain
Ġatt ained
Ġsn ot
Ġsn ag
Ġsn ipp
Ġsn agged
Ġsn iping
Ġsn orts
Ġwal ks
ors h
Ġam ple
Ġam iss
Ġam ule
Ġam icably
Ġdr ool
Ġdr oning
hen ed
per ly
Ġwind pipe
Qu ite
Qu ickly
ĠDo It
Ġmust ached
ĠQu int
ost led
Ġmean in
arm ichael
Ġimp ose
Ġimp arted
Ġimp reg
uck ling
Ġhur dle
ream ed
ream ing
Ġent hr
Ġent rails
ons by
Ġpass in
Ġpass able
Ġpass ionately
Ġown ing
Ġcr ust
Ġcr ick
Ġcr ater
ĠIn cl
ĠIn gen
ĠIn fur
ĠIn formation
ĠIn anim
ĠIn imicum
.. '
ĠJ igg
ĠJ ug
ĠJ olly
ĠJ ourney
ĠJ umping
ell ation
Ġcle aving
Ġcle aved
Ġend ures
unn it
Ġsur m
rew s
rew ing
Ġfind ings
Ġter gether
Ġter rit
Ġter rier
Ġter rors
ĠMcGonagall s
Ġday dream
ĠBl own
ĠBl inded
here al
Ġbed co
Ġbed pans
Ġstand still
Ġhard ening
Ġhard working
Ġhel per
Ġhel icop
Ġsupp lies
ĠSt ri
ĠSt aring
ĠSt ung
ĠSt uck
ĠSt unn
ĠSt iff
ĠSt ring
ĠSt aggering
ĠSt retching
Ġtable top
Ġlight est
Ġlight headed
ugg y
Ġel uded
ank y
Ġsecond ly
ern ation
Ġside long
Ġside kick
Ġcur ve
Ġcur ving
Ġcur ves
Ġcur vy
Ġhands hake
Ġnight ly
Ġblack er
Ġblack ly
Ġschool mates
be en
be am
be gone
Ġnew found
Ġsound ly
Ġcall ous
Ġthree headed
Ġwhis kered
Ġwhis kery
ĠYe w
Ġwindow pane
Ġsit s
Ġper ching
Ġper ish
Ġper ately
Ġper use
acher s
Ġhair less
Ġhair cuts
get s
get ting
Ġset tles
Ġhouse work
Ġret iring
Ġret raced
Ġret racing
app iness
Ġstr aying
Ġstr ands
Ġhelp fully
Ġhelp lessness
Ġsk id
Ġsk ated
Ġsk iving
Ġsk etch
Ġhalf moon
Ġfin ed
Ġfin ishes
Ġreal istic
Ġjo ins
Ġjo int
iss al
Ġair iness
Ġwall ow
Ġwall oped
Ġsat suma
av in
os ure
os hes
Ġcast s
Ġbeg r
Ġbeg s
Ġbeg onias
ĠUn s
ĠUn w
ĠUn icorn
ĠUn noticed
ĠUn con
ĠUn plottable
Ġfell yt
Ġsqu aring
Ġsqu abbling
Ġwait er
Ġquiet ed
Ġquiet en
Ġclass ified
ĠPer ched
ĠMugg ie
Ġple asures
Ġple tely
Ġcare lessness
Ġcare worn
ric s
ric al
ric ity
Ġunt arn
Ġste ed
Ġmin es
Ġmin isc
Ġmin imum
Ġmin istrations
Ġgre n
Ġeye glass
Ġkill ers
ĠAr gh
ĠAr kie
ĠAr cturus
Ġmouth piece
Ġhold ers
Ġless er
Ġless ened
Ġmut ating
Ġob nox
Ġres ided
Ġres ident
Ġres orted
Ġres ides
Ġres ented
Ġres urre
Ġres chedule
Ġres ilient
pr ings
pr icks
Ġpast ime
Ġfriend lier
Ġbelie vers
Ġbo asted
ĠMy r
Ġread ily
Ġdiff er
Ġdiff ered
Ġrest riction
Ġrest rict
Ġtre n
Ġtre me
ĠBe ast
ĠBe aring
ĠBe nding
ĠBe gging
ĠBe ats
Ġinst it
Ġinst alled
Ġsna il
ph ants
ense ly
Ġscar ring
Ġscar iest
Ġinc rim
Ġinc oming
Ġinc idents
Ġinc orre
Ġcar ve
Ġcar rot
Ġcar cass
ĠGr ades
ĠGr acious
ĠGr aceful
Ġrec reat
Ġrec ip
Ġrec omm
Ġrec ording
Ġrec itation
Ġrec ipes
Ġrec onc
Ġrec ounting
Ġrec urrence
ange a
ĠAs ked
ĠAs iatic
Ġsto at
Ġsto ked
Ġfore cast
Ġfore runners
Ġbad gered
Ġbad gering
Ġdist ort
Ġdist ressing
ĠLord ship
Ġdeep ening
Ġad oringly
Ġad oration
Ġcomm is
Ġcomm ence
Ġcomm anded
Ġcomm itting
Ġcomm anding
Ġcomm unities
Ġcomm uters
ĠSe ize
ĠSe izing
ĠSe ats
Ġunderst atement
Ġexp ound
Ġexp ans
Ġexp osing
Ġhigh way
Ġhigh pitched
igg ling
Ġco als
Ġco bbing
Ġco aches
Ġco ffees
Ġco zily
Ġco loss
Ġco log
Ġco ppery
Ġco ordinated
Ġwork er
Ġwork place
Ġfoot step
vis ing
vis able
vis ions
Ġfac etof
Ġstra it
ĠNow here
Ġdec ades
Ġdec ontam
Ġbes otted
Ġbes ieged
rac ts
Ġfur or
Ġfur ling
Ġpers pect
Ġgu ided
Ġgu ides
Ġgu idance
Ġcontin uously
Ġsight ing
Ġcrow ing
cus hion
Ġsign ings
Ġsign aled
Ġsign atures
Ġdet er
Ġdet rit
Ġdet ested
Ġdet ours
Ġmother ly
Ġleg ally
iv ided
iv ities
iv itus
Ġred uce
Ġred ouble
Ġletter box
Ġgreen er
Ġmar ion
Ġmar red
Ġmar auding
Ġmar veling
Ġpic nic
Ġcat cher
ĠSc ot
ĠSc orch
ĠSc urrying
ĠSc reech
Ġbest owed
Ġbest sell
Ġbur p
Ġbur ped
Ġbur geon
Ġri b
Ġri ft
Ġri vers
Ġri ots
ci ate
Ġhit s
Ġpot ty
Ġpot holes
Ġbreath taking
Ġdef y
Ġdef lating
Ġbreak able
Ġbreak outs
Ġbreak down
Ġbreak through
Ġplay s
Ġplay fully
Ġlaugh able
Ġdi agon
Ġmaking s
Ġext rem
ĠSh oo
ĠSh are
ĠSh ake
ĠSh rive
ĠSh ining
ĠSh ivering
ĠSh arp
ĠSh rinking
Ġblood ed
Ġblood red
Ġblood curd
Ġtalk ie
Ġtalk ative
Ġbus ying
ĠKreacher s
Ġcomp on
Ġcomp ose
Ġcomp ressed
Ġcomp uls
ided own
ĠClo sing
ub ers
ĠRe al
ĠRe ven
ĠRe cent
ĠEx citement
Ġsilver white
Ġbag pipes
Ġbag gage
Ġce aselessly
Ġbright en
Ġbright ening
ĠFor ward
ĠOn es
read er
Ġelf s
Ġstuff y
Ġmatter off
Ġkind ling
Ġkind ness
Ġmeet s
Ġfly in
Ġrel ay
Ġrel ied
Ġrel ating
Ġrel ishing
Ġrel atively
Ġspot ty
Ġins uff
Ġteam ed
Ġteam mate
Ġinter m
Ġinter locked
Ġsever ity
ĠOr ange
Ġcommon ly
Ġpat ching
Ġwater fall
Ġref ill
Ġref res
ĠFle w
ĠFle et
Ġmis c
Ġmis use
Ġmis car
Ġsent imental
sit s
Ġmist iest
Ġmist rans
Ġbu bbly
Ġbu gs
vent ful
Ġlay about
Ġspeak in
Ġspeak ers
cl ad
Ġten sed
Ġten fold
Ġthick ets
oc ent
oc eros
Ġdirect or
Ġnear fatal
Ġneck ed
Ġwatch wizard
Ġed gy
Ġed gily
Ġfree ing
Ġfree zes
Ġfree zer
Ġconf iding
Ġconf ines
Ġconf lict
Ġconf ronting
sp ired
Ġunc les
Ġunc outh
Ġunc onsciously
Ġunc hecked
Ġfight in
Ġport s
Ġport ions
Ġexpl oring
Ġsub tly
Ġprot esting
icul ate
Ġsim per
Ġsim mer
[...]
