{"<s>":0,"<pad>":1,"</s>":2,"<mask>":3,"<unk>":4,"!":5,"\"":6,"#":7,"$":8,"%":9,"&":10,"'":11,"(":12,")":13,"*":14,"+":15,",":16,"-":17,".":18,"/":19,"0":20,"1":21,"2":22,"3":23,"4":24,"5":25,"6":26,"7":27,"8":28,"9":29,":":30,";":31,"<":32,"=":33,">":34,"?":35,"@":36,"A":37,"B":38,"C":39,"D":40,"E":41,"F":42,"G":43,"H":44,"I":45,"J":46,"K":47,"L":48,"M":49,"N":50,"O":51,"P":52,"Q":53,"R":54,"S":55,"T":56,"U":57,"V":58,"W":59,"X":60,"Y":61,"Z":62,"[":63,"\\":64,"]":65,"^":66,"_":67,"`":68,"a":69,"b":70,"c":71,"d":72,"e":73,"f":74,"g":75,"h":76,"i":77,"j":78,"k":79,"l":80,"m":81,"n":82,"o":83,"p":84,"q":85,"r":86,"s":87,"t":88,"u":89,"v":90,"w":91,"x":92,"y":93,"z":94,"{":95,"|":96,"}":97,"~":98,"¡":99,"¢":100,"£":101,"¤":102,"¥":103,"¦":104,"§":105,"¨":106,"©":107,"ª":108,"«":109,"¬":110,"®":111,"¯":112,"°":113,"±":114,"²":115,"³":116,"´":117,"µ":118,"¶":119,"·":120,"¸":121,"¹":122,"º":123,"»":124,"¼":125,"½":126,"¾":127,"¿":128,"À":129,"Á":130,"Â":131,"Ã":132,"Ä":133,"Å":134,"Æ":135,"Ç":136,"È":137,"É":138,"Ê":139,"Ë":140,"Ì":141,"Í":142,"Î":143,"Ï":144,"Ð":145,"Ñ":146,"Ò":147,"Ó":148,"Ô":149,"Õ":150,"Ö":151,"×":152,"Ø":153,"Ù":154,"Ú":155,"Û":156,"Ü":157,"Ý":158,"Þ":159,"ß":160,"à":161,"á":162,"â":163,"ã":164,"ä":165,"å":166,"æ":167,"ç":168,"è":169,"é":170,"ê":171,"ë":172,"ì":173,"í":174,"î":175,"ï":176,"ð":177,"ñ":178,"ò":179,"ó":180,"ô":181,"õ":182,"ö":183,"÷":184,"ø":185,"ù":186,"ú":187,"û":188,"ü":189,"ý":190,"þ":191,"ÿ":192,"Ā":193,"ā":194,"Ă":195,"ă":196,"Ą":197,"ą":198,"Ć":199,"ć":200,"Ĉ":201,"ĉ":202,"Ċ":203,"ċ":204,"Č":205,"č":206,"Ď":207,"ď":208,"Đ":209,"đ":210,"Ē":211,"ē":212,"Ĕ":213,"ĕ":214,"Ė":215,"ė":216,"Ę":217,"ę":218,"Ě":219,"ě":220,"Ĝ":221,"ĝ":222,"Ğ":223,"ğ":224,"Ġ":225,"ġ":226,"Ģ":227,"ģ":228,"Ĥ":229,"ĥ":230,"Ħ":231,"ħ":232,"Ĩ":233,"ĩ":234,"Ī":235,"ī":236,"Ĭ":237,"ĭ":238,"Į":239,"į":240,"İ":241,"ı":242,"Ĳ":243,"ĳ":244,"Ĵ":245,"ĵ":246,"Ķ":247,"ķ":248,"ĸ":249,"Ĺ":250,"ĺ":251,"Ļ":252,"ļ":253,"Ľ":254,"ľ":255,"Ŀ":256,"ŀ":257,"Ł":258,"ł":259,"Ń":260,"Ġt":261,"he":262,"Ġa":263,"in":264,"Ġs":265,"Ġw":266,"Ġthe":267,"re":268,"ou":269,"Ġh":270,"ed":271,"on":272,"ing":273,"er":274,"ar":275,"nd":276,"Ġb":277,"Ġf":278,"Ġo":279,"ĠH":280,"at":281,"Ġto":282,"is":283,"ĠĠ":284,"it":285,"Ġc":286,"as":287,"or":288,"ll":289,"id":290,"Ġhe":291,"Ġd":292,"en":293,"Ġm":294,"Ġl":295,"Ġand":296,"Ġth":297,"Ġof":298,"ry":299,"Ġp":300,"es":301,"čĊ":302,"Ġha":303,"Ġg":304,"Ġin":305,"an":306,"Ġn":307,"le":308,"arry":309,"ow":310,"Ġsa":311,"ly":312,"ĠI":313,"Ġy":314,"ot":315,"om":316,"ĠHarry":317,"Ġwas":318,"Ġbe":319,"gh":320,"Ġsaid":321,"Ġe":322,"ac":323,"Ġyou":324,"'s":325,"ld":326,"Ġhis":327,"im":328,"us":329,"ve":330,"Ġst":331,"Ġit":332,"oo":333,"Ġon":334,"et":335,"ic":336,"ver":337,"ion":338,"Ġwh":339,"ro":340,"ir":341,"ĠM":342,"Ġhad":343,"ĠS":344,"ĠT":345,"Ġthat":346,"ut":347,"ght":348,"Ġwe":349,"ĠW":350,"out":351,"ent":352,"ĠD":353,"ad":354,"Ġas":355,"Ġat":356,"Ġu":357,"Ġre":358,"ur":359,"al":360,"ore":361,"Ġhim":362,"se":363,"ag":364,"ĠR":365,"st":366,"ri":367,"'t":368,"Ġwit":369,"ke":370,"Ġ.":371,"ĠčĊ":372,"ch":373,"ĠA":374,"ould":375,"ook":376,"ay":377,"Ġwith":378,"red":379,"Ġan":380,"ĠP":381,"Ġfor":382,"Ġse":383,"am":384,"her":385,"um":386,"ter":387,"pp":388,"all":389,"Ġnot":390,"ĠRon":391,"ill":392,"ack":393,"rou":394,"ard":395,"ĠThe":396,"Ġsh":397,"led":398,"Ġk":399,"erm":400,"ĠHe":401,"pe":402,"Ġlook":403,"Ġher":404,"ĠB":405,"ain":406,"em":407,"Ġup":408,"ermion":409,"Ġfr":410,"ermione":411,"Ġdo":412,"ight":413,"ĠHermione":414,"Ġthey":415,"Ġout":416,"ess":417,"ĠG":418,"ce":419,"un":420,"ĠC":421,"ind":422,"ge":423,"Ġwere":424,"Ġme":425,"Ġne":426,"Ġkn":427,"Ġthem":428,"Ġbut":429,"and":430,"ĠY":431,"Ġr":432,"ted":433,"il":434,"Ġfe":435,"ĠF":436,"Ġall":437,"ak":438,"if":439,"to":440,"Ġshe":441,"Ġhave":442,"ĠWe":443,"Ġfrom":444,"Ġj":445,"ĠL":446,"umb":447,"hing":448,"Ġgo":449,"ust":450,"ĠN":451,"ck":452,"ome":453,"very":454,"Ġso":455,"ood":456,"Ġwhe":457,"hed":458,"ast":459,"one":460,"ble":461,"lo":462,"Ġback":463,"Ġli":464,"qu":465,"umbled":466,"ort":467,"Ġinto":468,"ide":469,"own":470,"Ġdid":471,"Ġwhat":472,"Ġwho":473,"umbledore":474,"Ġcould":475,"Ġv":476,"Ġis":477,"ud":478,"ant":479,"art":480,"round":481,"Ġbeen":482,"Ġthou":483,"rid":484,"ĠDumbledore":485,"Ġle":486,"Ġex":487,"Ġab":488,"ink":489,"our":490,"ĠO":491,"Ġno":492,"lf":493,"ist":494,"Ġag":495,"ra":496,"Ġro":497,"ice":498,"Ġal":499,"ous":500,"ct":501,"ong":502,"Ġde":503,"ul":504,"ff":505,"Ġthis":506,"ace":507,"Ġte":508,"Ġover":509,"ers":510,"oy":511,"ĠYou":512,"Ġthere":513,"Ġwould":514,"ss":515,"ĠWh":516,"ked":517,"ley":518,"Ġsu":519,"ig":520,"Ġknow":521,"Ġpo":522,"na":523,"ep":524,"Ġtheir":525,"Ġch":526,"Ġdown":527,"Ġabout":528,"Ġoff":529,"old":530,"Ġany":531,"ĠIt":532,"ther":533,"Ġlike":534,"ĠĠĠ":535,"Ġone":536,"ven":537,"iz":538,"Ġagain":539,"way":540,"Ġsp":541,"Ġlooked":542,"urn":543,"Ġqu":544,"ĠE":545,"Ġnow":546,"Ġcon":547,"ting":548,"el":549,"ick":550,"Ġus":551,"Ġyour":552,"Ġhand":553,"Ġun":554,"ie":555,"Ġby":556,"ass":557,"Ġey":558,"Ġaround":559,"op":560,"ime":561,"ally":562,"ull":563,"Ġbl":564,"ĠV":565,"ĠPro":566,"are":567,"Ġwor":568,"'ve":569,"Ġjust":570,"Ġthink":571,"Ġye":572,"Ġgot":573,"fess":574,"Ġthen":575,"ered":576,"Ġcan":577,"ĠMr":578,"ark":579,"Ġtoo":580,"fessor":581,"Ġsc":582,"agrid":583,"Ġif":584,"right":585,"ake":586,"Ġare":587,"Ġsee":588,"Ġ'":589,"est":590,"Ġget":591,"ward":592,"reat":593,"Ġpl":594,"Ġwhen":595,"Ġcl":596,"ĠHagrid":597,"Ġmore":598,"Ġvery":599,"Ġsl":600,"Ġmy":601,"ap":602,"Ġor":603,"ĠProfessor":604,"'re":605,"Ġwand":606,"bb":607,"up":608,"nape":609,"Ġhead":610,"Ġmo":611,"ame":612,"Ġthough":613,"ive":614,"Harry":615,"Ġcom":616,"ĠTh":617,"og":618,"'ll":619,"ate":620,"self":621,"Ġtw":622,"ĠSnape":623,"Ġlooking":624,"Ġtime":625,"Ġsm":626,"ang":627,"asley":628,"'d":629,"Ġhow":630,"The":631,"ound":632,"pped":633,"ĠWeasley":634,"Ġdoor":635,"Ġstill":636,"Ġvo":637,"rough":638,"ved":639,"Ġtr":640,"ĠK":641,"ond":642,"ation":643,"Ġeyes":644,"ared":645,"orn":646,"Ġdon":647,"Ġface":648,"ĠBut":649,"Ġthan":650,"ving":651,"Ġgl":652,"ĠAnd":653,"Ġturn":654,"Ġsome":655,"air":656,"ius":657,"Ġthrough":658,"ich":659,"ĠWhat":660,"fore":661,"Ġright":662,"Ġar":663,"ite":664,"nder":665,"ath":666,"ure":667,"ily":668,"Ġother":669,"Ġgr":670,"Ġgoing":671,"Ġvoice":672,"au":673,"Ġseem":674,"inn":675,"alf":676,"pt":677,"gg":678,"tle":679,"Ġwhich":680,"ave":681,"ious":682,"ĠPot":683,"ened":684,"Ġsw":685,"ree":686,"Ġfl":687,"Ġsay":688,"ire":689,"Ġthought":690,"Ġbefore":691,"ĠU":692,"other":693,"'m":694,"ling":695,"Ġevery":696,"aus":697,"fter":698,"ol":699,"alfoy":700,"Ġdidn":701,"Ġman":702,"ars":703,"Ġclo":704,"omet":705,"Ġen":706,"Ġwill":707,"able":708,"Ġroom":709,"wn":710,"Ġhere":711,"aring":712,"ĠThey":713,"ched":714,"Ġop":715,"idd":716,"ĠMalfoy":717,"aking":718,"ade":719,"ab":720,"Ġlong":721,"ft":722,"od":723,"orm":724,"Ġpre":725,"ile":726,"Ġonly":727,"Ġim":728,"side":729,"emort":730,"Ġwat":731,"oldemort":732,"Ġpe":733,"king":734,"Ġsaw":735,"th":736,"Ġsomet":737,"ts":738,"ĠVoldemort":739,"Ġwhere":740,"Ġtell":741,"Ġdis":742,"Ġunder":743,"ĠĠĠĠ":744,"Ġkne":745,"Ġwant":746,"Ġhapp":747,"ĠPotter":748,"Ġbeh":749,"ĠSir":750,"Ġafter":751,"Ġway":752,"Ġbec":753,"row":754,"age":755,"ried":756,"ather":757,"Ġke":758,"izard":759,"sed":760,"Ġlo":761,"ves":762,"Ġmu":763,"Ġlet":764,"ĠShe":765,"ment":766,"Ġapp":767,"ĠDe":768,"Ġlit":769,"Ġaway":770,"Ġseemed":771,"te":772,"thing":773,"Ġhimself":774,"Ġsomething":775,"Ġfir":776,"Ġbet":777,"Ġeven":778,"Ġbehind":779,"Ġrem":780,"Ġasked":781,"ause":782,"Ġspe":783,"Ġbr":784,"ĠSirius":785,"ĠWell":786,"mb":787,"ect":788,"Ġtold":789,"Ġnever":790,"Ġturned":791,"ated":792,"Ġcome":793,"ks":794,"Ġtoward":795,"lt":796,"Ġlast":797,"Ġpro":798,"Ġthing":799,"ĠHog":800,"ĠNe":801,"Ġac":802,"Ġpoin":803,"ĠCh":804,"ĠNo":805,"act":806,"agic":807,"Ġmom":808,"Ġmoment":809,"Ġtry":810,"ance":811,"Ġmuch":812,"ine":813,"ach":814,"ool":815,"oll":816,"Ġknew":817,"dd":818,"ĠThere":819,"Ġshould":820,"ue":821,"uff":822,"He":823,"ied":824,"ress":825,"ching":826,"ople":827,"ering":828,"Ġonce":829,"ord":830,"Ġlittle":831,"Ġsil":832,"Ġfirst":833,"Ġtwo":834,"Ġmade":835,"Ġsec":836,"arts":837,"ru":838,"ful":839,"Ġheard":840,"Ġhas":841,"ever":842,"Ġleft":843,"Ġpr":844,"ĠMin":845,"ody":846,"Ġbot":847,"ped":848,"ont":849,"nt":850,"ase":851,"Ġwa":852,"les":853,"Ġgood":854,"Ġfelt":855,"ish":856,"Ġdes":857,"Ġwizard":858,"Ġwell":859,"ĠOh":860,"Ġpeople":861,"warts":862,"ĠFred":863,"owed":864,"Ġcont":865,"ber":866,"Ġreally":867,"ĠHogwarts":868,"Ġho":869,"Ġits":870,"Ġdark":871,"ady":872,"Ġpull":873,"Ġflo":874,"Ġmight":875,"ross":876,"Ġarm":877,"ple":878,"ies":879,"ĠMrs":880,"udd":881,"Ġtal":882,"Ġatt":883,"ose":884,"room":885,"Ġsn":886,"ock":887,"itch":888,"ions":889,"Ġwal":890,"ory":891,"rie":892,"ille":893,"ors":894,"less":895,"Ġneed":896,"upin":897,"ough":898,"inny":899,"xt":900,"Ġam":901,"Ġfront":902,"Ġfeel":903,"Ġdr":904,"hen":905,"per":906,"ĠMc":907,"Ġwind":908,"Ġever":909,"Ġsure":910,"ity":911,"Qu":912,"ise":913,"Ġche":914,"Ġold":915,"ah":916,"ouse":917,"Ġopen":918,"ĠDo":919,"ĠGe":920,"arly":921,"Ġmust":922,"orge":923,"ĠLupin":924,"Ġbecause":925,"oud":926,"ville":927,"ĠQu":928,"ost":929,"Ġcame":930,"Ġmean":931,"arge":932,"ĠGeorge":933,"arm":934,"ung":935,"Ġimp":936,"me":937,"ced":938,"ĠGinny":939,"Ġfeet":940,"ign":941,"uck":942,"Ġput":943,"ence":944,"Ġhur":945,"cy":946,"ream":947,"Ġent":948,"ons":949,"Ġpass":950,"Ġown":951,"Ġcr":952,"ĠIn":953,"Ġbel":954,"..":955,"ĠJ":956,"ĠNeville":957,"Gon":958,"Gonag":959,"ell":960,"Gonagall":961,"pl":962,"Ġcle":963,"Ġend":964,"unn":965,"Ġsur":966,"rew":967,"Ġtook":968,"Ġfind":969,"Ġter":970,"Ġgreat":971,"ĠMcGonagall":972,"anted":973,"Ġday":974,"ourse":975,"ĠBl":976,"Ġbit":977,"here":978,"Ġbed":979,"ised":980,"Ġanything":981,"Ġstand":982,"Ġhard":983,"Ġfew":984,"Ġtake":985,"Ġhel":986,"Ġsupp":987,"Ġmake":988,"ĠSt":989,"Ġtable":990,"ater":991,"Ġtrying":992,"chool":993,"ished":994,"Ġgi":995,"ĠThat":996,"Ġlight":997,"Ġwr":998,"ents":999,"ugg":1000,"Ġel":1001,"Ġfloor":1002,"ryff":1003,"ryffind":1004,"ank":1005,"Ġsecond":1006,"Ġwent":1007,"hes":1008,"ern":1009,"iff":1010,"ĠGryffind":1011,"Ġword":1012,"Ġanother":1013,"Ġside":1014,"ridge":1015,"Ġkeep":1016,"Ġcur":1017,"Ġnext":1018,"Ġhands":1019,"ĠHow":1020,"Ġnight":1021,"Ġblack":1022,"Ġinside":1023,"oot":1024,"Ġschool":1025,"be":1026,"Ġnew":1027,"ove":1028,"Ġwhile":1029,"Ġboy":1030,"Ġlarge":1031,"Ġsound":1032,"ully":1033,"iet":1034,"Ġcall":1035,"ĠSo":1036,"Ġra":1037,"iously":1038,"Ġthree":1039,"cle":1040,"Ġfound":1041,"Ġem":1042,"Ġwhis":1043,"tered":1044,"body":1045,"mbridge":1046,"Ġlau":1047,"ĠYe":1048,"Ġwindow":1049,"Ġsit":1050,"ee":1051,"Ġper":1052,"az":1053,"acher":1054,"Ġloud":1055,"Ġhair":1056,"get":1057,"Ġset":1058,"Ġhouse":1059,"Ġcourse":1060,"ary":1061,"ĠDeath":1062,"ip":1063,"Ġret":1064,"ized":1065,"Ġseen":1066,"istry":1067,"ement":1068,"app":1069,"Ġnothing":1070,"Ġgave":1071,"Ġstr":1072,"Ġground":1073,"ĠIf":1074,"ĠUmbridge":1075,"Ġwhy":1076,"ĠYes":1077,"ty":1078,"Ġhelp":1079,"Ġhear":1080,"ild":1081,"Ġsk":1082,"Ġstood":1083,"ix":1084,"ĠGryffindor":1085,"ail":1086,"Ġhalf":1087,"ĠMinistry":1088,"een":1089,"Ġfin":1090,"aw":1091,"Ġreal":1092,"udden":1093,"ating":1094,"Ġjo":1095,"ne":1096,"iss":1097,"Ġpulled":1098,"igh":1099,"Ġair":1100,"airs":1101,"Ġbook":1102,"Ġour":1103,"Ġmat":1104,"Ġsudden":1105,"Ġwall":1106,"ightly":1107,"Ġupon":1108,"Ġlif":1109,"ness":1110,"Ġshout":1111,"oody":1112,"Ġsat":1113,"Ġwanted":1114,"ached":1115,"ower":1116,"av":1117,"Ġacross":1118,"os":1119,"Ġcast":1120,"lled":1121,"Ġyear":1122,"ans":1123,"Ġbeg":1124,"bby":1125,"Ġfire":1126,"Ġbeing":1127,"ĠUn":1128,"Ġfell":1129,"Ġquick":1130,"Ġeach":1131,"Ġsqu":1132,"Ġplace":1133,"ways":1134,"Ġwait":1135,"ĠYeah":1136,"ĠMad":1137,"Ġmost":1138,"Ġboth":1139,"ng":1140,"Ġwasn":1141,"Ġstud":1142,"ump":1143,"ible":1144,"unt":1145,"ings":1146,"Ġwithout":1147,"lin":1148,"Ġmind":1149,"ently":1150,"Ġfoll":1151,"Ġcor":1152,"Ġdoes":1153,".'":1154,"Ġdone":1155,"udge":1156,"Ġalong":1157,"Ġcouldn":1158,"Ġquiet":1159,"Ġmagic":1160,"ĠDark":1161,"Ġsmall":1162,"Ġyears":1163,"Ġclass":1164,"Ġhappened":1165,"ister":1166,"ĠAn":1167,"ĠPer":1168,"Ġquite":1169,"ib":1170,"Ġagainst":1171,"Ġmout":1172,"Ġang":1173,"fully":1174,"ening":1175,"ĠMugg":1176,"Ġple":1177,"Ġdoing":1178,"Ġbetter":1179,"arted":1180,"Ġcare":1181,"ĠWho":1182,"aster":1183,"riend":1184,"owing":1185,"cted":1186,"ric":1187,"Ġunt":1188,"ernon":1189,"Ġbreat":1190,"ĠThen":1191,"pered":1192,"iling":1193,"lu":1194,"ĠVernon":1195,"Ġenough":1196,"Ġelse":1197,"ying":1198,"Ġste":1199,"Ġexpe":1200,"ĠHis":1201,"Ġfam":1202,"ĠĠĠčĊ":1203,"Ġmin":1204,"Ġgre":1205,"bes":1206,"ten":1207,"Ġeye":1208,"Ġkill":1209,"ĠAr":1210,"Ġmouth":1211,"Ġhold":1212,"Ġless":1213,"Ġmut":1214,"amp":1215,"ĠMagic":1216,"urs":1217,"tain":1218,"ready":1219,"ĠMoody":1220,"Ġappe":1221,"Ġob":1222,"Ġcau":1223,"Ġres":1224,"ĠPet":1225,"ia":1226,"ret":1227,"Ġgold":1228,"ĠNot":1229,"Ġrobes":1230,"Ġalready":1231,"Ġremem":1232,"arn":1233,"lyther":1234,"und":1235,"Ġwalked":1236,"lytherin":1237,"pr":1238,"Ġstaring":1239,"awn":1240,"Ġpart":1241,"Ġpast":1242,"Ġfriend":1243,"ĠSlytherin":1244,"Ġbelie":1245,"reak":1246,"Ġbo":1247,"ined":1248,"ĠMy":1249,"Ġread":1250,"Ġdiff":1251,"Ġrest":1252,"Ġforward":1253,"iddle":1254,"ince":1255,"ey":1256,"ĠHall":1257,"Ġthose":1258,"sh":1259,"Ġtop":1260,"Ġrather":1261,"Ġgone":1262,"li":1263,"Ġtre":1264,"anger":1265,"ween":1266,"ably":1267,"pping":1268,"ĠBe":1269,"ĠDobby":1270,"Ġreturn":1271,"Ġwon":1272,"Ġwhispered":1273,"ained":1274,"Ġbetween":1275,"form":1276,"ĠAll":1277,"Ġinst":1278,"Ġsna":1279,"Ġglass":1280,"Ġstanding":1281,"Ġsuddenly":1282,"ph":1283,"ense":1284,"Ġgive":1285,"Ġscar":1286,"Ġthese":1287,"Ġinc":1288,"ged":1289,"ĠThis":1290,"dded":1291,"ĠUncle":1292,"Ġcar":1293,"udley":1294,"Ġuntil":1295,"Ġclose":1296,"Ġbegan":1297,"Ġfull":1298,"Ġcold":1299,"ĠGr":1300,"Ġmany":1301,"Ġlist":1302,"Ġopened":1303,"most":1304,"Ġrec":1305,"ĠFudge":1306,"Ġtried":1307,"ange":1308,"wl":1309,"ĠAs":1310,"Ġyet":1311,"Ġbro":1312,"Ġonto":1313,"ens":1314,"Ġsto":1315,"Ġslightly":1316,"Ġsitting":1317,"Ġminut":1318,"ither":1319,"Ġwond":1320,"Ġcou":1321,"idditch":1322,"oke":1323,"Ġthings":1324,"Ġquickly":1325,"Ġdro":1326,"Ġraised":1327,"Ġfore":1328,"Ġbad":1329,"Ġdist":1330,"ĠQuidditch":1331,"Ġsame":1332,"ghorn":1333,"Ġhor":1334,"Ġoffice":1335,"Ġtalking":1336,"Ġstart":1337,"ĠBlack":1338,"Ġcorrid":1339,"Ġreached":1340,"ĠWhy":1341,"irl":1342,"lughorn":1343,"cc":1344,"ames":1345,"ĠLord":1346,"Ġdeep":1347,"Ġstarted":1348,"Ġad":1349,"ention":1350,"ult":1351,"Ġcomm":1352,"ĠDudley":1353,"Ġcastle":1354,"Ġwouldn":1355,"They":1356,"Ġable":1357,"Ġfour":1358,"ĠSe":1359,"Ġunderst":1360,"day":1361,"aken":1362,"cket":1363,"ĠSlughorn":1364,"Ġexp":1365,"gether":1366,"head":1367,"Ġhigh":1368,"ĠPercy":1369,"Ġdead":1370,"igg":1371,"Ġco":1372,"Ġname":1373,"Ġalways":1374,"Ġslow":1375,"Ġfing":1376,"Ġshouted":1377,"med":1378,"Ġpain":1379,"lves":1380,"Ġide":1381,"tering":1382,"Ġwork":1383,"Ġcalled":1384,"osed":1385,"Ġfoot":1386,"aters":1387,"Ġalmost":1388,"Ġanyone":1389,"vis":1390,"Ġfac":1391,"Ġlater":1392,"Ġstra":1393,"ĠNow":1394,"Ġcoming":1395,"Ġtogether":1396,"Ġmem":1397,"Ġusu":1398,"Ġuse":1399,"der":1400,"erv":1401,"Ġfather":1402,"Ġdec":1403,"ately":1404,"Ġind":1405,"Ġyeh":1406,"Ġdrag":1407,"ured":1408,"Ġbes":1409,"Ġgirl":1410,"ere":1411,"rac":1412,"Ġsle":1413,"Ġhour":1414,"Ġfur":1415,"Ġpers":1416,"Ġbroom":1417,"Ġgu":1418,"Ġscream":1419,"Ġhowever":1420,"sw":1421,"Ġstared":1422,"Ġcontin":1423,"Ġfar":1424,"Ġposs":1425,"Ġfeeling":1426,"arch":1427,"Ġsight":1428,"Ġowl":1429,"Ġcrow":1430,"unk":1431,"cus":1432,"Ġwatching":1433,"Ġcrowd":1434,"ited":1435,"ĠEr":1436,"ought":1437,"ĠDon":1438,"Ġstudents":1439,"Ġquietly":1440,"Ġsign":1441,"Ġdet":1442,"ĠAl":1443,"Ġwhole":1444,"raw":1445,"ery":1446,"Ġmother":1447,"Ġleg":1448,"eps":1449,"ron":1450,"Ġlot":1451,"rabb":1452,"ued":1453,"Ġvis":1454,"ird":1455,"Ġbeside":1456,"ĠEaters":1457,"iv":1458,"Ġaw":1459,"Ġred":1460,"Ġlow":1461,"Ġstop":1462,"ĠWhen":1463,"orry":1464,"Ġwee":1465,"aps":1466,"Ġletter":1467,"Ġask":1468,"Ġheart":1469,"una":1470,"Ġstraight":1471,"iled":1472,"Ġgreen":1473,"rest":1474,"Ġmar":1475,"ures":1476,"Ġcaught":1477,"Ġpic":1478,"Ġempt":1479,"Ġcat":1480,"ĠSc":1481,"Ġoutside":1482,"Ġeverything":1483,"Ġlife":1484,"umm":1485,"Ġeveryone":1486,"ĠMuggle":1487,"Ġidea":1488,"anc":1489,"Ġansw":1490,"ene":1491,"imes":1492,"Ġmove":1493,"Ġkept":1494,"ply":1495,"Ġbest":1496,"Ġcorn":1497,"Ġwhether":1498,"Ġisn":1499,"Ġwords":1500,"ith":1501,"Ġstopped":1502,"Ġsaying":1503,"Ġbur":1504,"rouch":1505,"ĠLuna":1506,"Ġbelieve":1507,"Ġri":1508,"Ġpassed":1509,"Ġsupposed":1510,"Ġact":1511,"Ġslowly":1512,"ci":1513,"Ġhit":1514,"But":1515,"Ġpot":1516,"Ġgetting":1517,"Ġmuttered":1518,"Ġyes":1519,"Ġhope":1520,"Ġbreath":1521,"Ġdef":1522,"Ġhome":1523,"Ġwizards":1524,"Ġsir":1525,"Ġhaven":1526,"Ġsomeone":1527,"Ġsince":1528,"Ġbreak":1529,"Ġtaken":1530,"acked":1531,"Ġplay":1532,"ĠĠčĊ":1533,"fort":1534,"rum":1535,"edric":1536,"Ġshort":1537,"ĠCrouch":1538,"Ġsort":1539,"Ġstay":1540,"Ġwhite":1541,"rif":1542,"Ġswe":1543,"rible":1544,"Ġcloak":1545,"Ġlaugh":1546,"It":1547,"where":1548,"reacher":1549,"Ġfall":1550,"ize":1551,"ject":1552,"light":1553,"Ġdi":1554,"Ġstone":1555,"Ġleave":1556,"Ġnose":1557,"Ġmoved":1558,"Ġholding":1559,"phe":1560,"Ġlea":1561,"Ġmaking":1562,"aged":1563,"cept":1564,"ursley":1565,"ier":1566,"ĠDursley":1567,"Ġext":1568,"ati":1569,"ĠHead":1570,"Ġquest":1571,"orning":1572,"Ġunderstand":1573,"ging":1574,"ĠSh":1575,"ĠKn":1576,"ĠMadam":1577,"Ġblood":1578,"Ġdisapp":1579,"Ġtalk":1580,"Ġcorridor":1581,"rel":1582,"Ġhadn":1583,"Ġbus":1584,"ĠKreacher":1585,"Ġappeared":1586,"ows":1587,"Ġalone":1588,"Ġsilence":1589,"Ġloudly":1590,"Ġempty":1591,"lit":1592,"ĠCedric":1593,"Ġexc":1594,"Ġcomp":1595,"Ġminutes":1596,"Ġtaking":1597,"ided":1598,"iding":1599,"Ġwearing":1600,"ins":1601,"Ġshoulder":1602,"ĠBill":1603,"ĠClo":1604,"Ġteacher":1605,"Ġpoint":1606,"ub":1607,"Ġinte":1608,"ĠRe":1609,"ility":1610,"Ġexam":1611,"Ġtowards":1612,"Ġhall":1613,"Ġsurpr":1614,"Ġpointed":1615,"ĠAunt":1616,"Ġarri":1617,"And":1618,"Ġmorning":1619,"ushed":1620,"ĠEx":1621,"Ġsilver":1622,"haps":1623,"ertain":1624,"Ġarms":1625,"Ġbag":1626,"Ġce":1627,"anks":1628,"rave":1629,"Ġspell":1630,"Ġbright":1631,"ĠFor":1632,"Ġfollowed":1633,"Ġremember":1634,"man":1635,"Ġdire":1636,"ĠOn":1637,"ale":1638,"Ġhat":1639,"Ġpower":1640,"unia":1641,"ously":1642,"ken":1643,"iny":1644,"read":1645,"Ġelf":1646,"Ġwatched":1647,"Ġpointing":1648,"bo":1649,"fect":1650,"itc":1651,"Ġstuff":1652,"iced":1653,"Ġmatter":1654,"Ġkind":1655,"Ġmeet":1656,"Ġclosed":1657,"Ġser":1658,"Ġfly":1659,"Ġmon":1660,"Ġrel":1661,"Ġspot":1662,"Ġacc":1663,"ror":1664,"Ġins":1665,"anced":1666,"Ġteam":1667,"ĠPetunia":1668,"Ġround":1669,"Ġfle":1670,"Ġothers":1671,"ression":1672,"Ġdesk":1673,"ĠCloak":1674,"so":1675,"Ġinter":1676,"ĠFil":1677,"Ġchair":1678,"actly":1679,"Ġcomple":1680,"ash":1681,"ĠWhere":1682,"Ġsever":1683,"ĠOr":1684,"Ġthinking":1685,"Ġhurried":1686,"Ġcommon":1687,"Ġpat":1688,"Ġwater":1689,"ĠMinister":1690,"Ġref":1691,"Ġcorner":1692,"Ġfast":1693,"uring":1694,"selves":1695,"Ġsuch":1696,"Ġseveral":1697,"kay":1698,"orc":1699,"Ġhaving":1700,"ĠRiddle":1701,"Ġshaking":1702,"antly":1703,"ementors":1704,"ired":1705,"Ġbody":1706,"ĠFle":1707,"Ġdoesn":1708,"Ġmis":1709,"Ġfamily":1710,"Ġsent":1711,"nding":1712,"ĠSn":1713,"oyle":1714,"imb":1715,"Ġusual":1716,"sit":1717,"Ġmet":1718,"Ġmist":1719,"Ġperson":1720,"Ġbu":1721,"ashed":1722,"ĠDid":1723,"vent":1724,"Ġlay":1725,"vers":1726,"Ġseat":1727,"Ġspeak":1728,"cl":1729,"Ġten":1730,"Ġsorry":1731,"ĠCome":1732,"Ġbooks":1733,"rey":1734,"Ġheav":1735,"Ġthick":1736,"oc":1737,"ased":1738,"Ġheld":1739,"lock":1740,"Ġused":1741,"Ġyelled":1742,"Ġattem":1743,"archment":1744,"Ġdirect":1745,"nts":1746,"Ġdanger":1747,"Ġgaz":1748,"ored":1749,"Ġnear":1750,"Ġneck":1751,"Ġwatch":1752,"Ġgiven":1753,"ĠFilch":1754,"Ġed":1755,"Ġmay":1756,"Ġparchment":1757,"rait":1758,"unning":1759,"Ġfree":1760,"Ġconf":1761,"ps":1762,"Ġtrou":1763,"Ġwrong":1764,"itchen":1765,"aven":1766,"Ġstre":1767,"Ġkitchen":1768,"idden":1769,"Ġtelling":1770,"ipped":1771,"rance":1772,"sp":1773,"Ġpocket":1774,"Ġunc":1775,"There":1776,"ĠJust":1777,"ches":1778,"Ġfight":1779,"ibility":1780,"Ġport":1781,"Ġexpl":1782,"Ġsub":1783,"Ġprot":1784,"Ġcontinued":1785,"hart":1786,"icul":1787,"ĠTon":1788,"ĠGreat":1789,"Ġlost":1790,"rying":1791,"Ġburst":1792,"ze":1793,"Ġadded":1794,"Ġsim":1795,"Ġmur":1796,"ĠAt":1797,"ĠBag":1798,"Ġmoving":1799,"rugg":1800,"ockhart":1801,"awney":1802,"relawney":1803,"Ġfive":1804,"Ġodd":1805,"Ġsaf":1806,"Ġvan":1807,"ĠKrum":1808,"Ġfingers":1809,"sing":1810,"Ġcup":1811,"ork":1812,"abb":1813,"Ġfact":1814,"ĠTrelawney":1815,"blin":1816,"Ġforg":1817,"Ġshut":1818,"Ġsmile":1819,"Ġdou":1820,"aced":1821,"Ġrep":1822,"aming":1823,"Ġeither":1824,"ĠBell":1825,"Ġcomplete":1826,"She":1827,"Ġdied":1828,"Ġpare":1829,"ĠLook":1830,"overed":1831,"Ġanswer":1832,"Ron":1833,"tail":1834,"Ġexpect":1835,"Ġnumb":1836,"Ġran":1837,"Ġexactly":1838,"undred":1839,"Ġinterest":1840,"ĠTonks":1841,"you":1842,"ĠĠĠĠĠ":1843,"Ġthemselves":1844,"ingly":1845,"nded":1846,"Ġdream":1847,"ĠLockhart":1848,"case":1849,"rive":1850,"Ġsoon":1851,"Ġdear":1852,"ead":1853,"ining":1854,"Ġears":1855,"ĠPr":1856,"Ġdays":1857,"Ġdiffere":1858,"tom":1859,"rux":1860,"raco":1861,"oun":1862,"Ġhundred":1863,"Ġbene":1864,"Ġyoung":1865,"orcrux":1866,"Ġdeath":1867,"rabbe":1868,"ĠFleur":1869,"ually":1870,"Ġtiny":1871,"Ġland":1872,"esc":1873,"Ġshar":1874,"Ġnearly":1875,"Ġru":1876,"Ġreturned":1877,"ĠHorcrux":1878,"Ġbell":1879,"ster":1880,"ĠGood":1881,"ĠFire":1882,"Ġspoke":1883,"ĠEvery":1884,"Ġplan":1885,"anged":1886,"Ġpres":1887,"Ġwaiting":1888,"ically":1889,"Ġshook":1890,"Ġsleep":1891,"Ġportrait":1892,"ping":1893,"Ġtou":1894,"Ġstair":1895,"Ġwitch":1896,"Ġshall":1897,"Ġknock":1898,"Ġrun":1899,"Ġsnake":1900,"Ġdropped":1901,"Ġabove":1902,"ĠĠĠĠčĊ":1903,"Ġparents":1904,"aining":1905,"ĠGoyle":1906,"Ġleast":1907,"Ġspr":1908,"ield":1909,"ĠCharm":1910,"ntly":1911,"ĠBagman":1912,"Ġnoticed":1913,"Ġnoise":1914,"Ġturning":1915,"Ġdarkness":1916,"ĠDraco":1917,"ively":1918,"Ġpur":1919,"Ġstairs":1920,"ĠCrabbe":1921,"Ġago":1922,"inning":1923,"ĠDursleys":1924,"ĠKnow":1925,"aff":1926,"Ġtri":1927,"Ġgas":1928,"Ġrepe":1929,"eak":1930,"Ġtimes":1931,"Ġsteps":1932,"Ġalso":1933,"Ġappro":1934,"Ġwide":1935,"inging":1936,"umped":1937,"Ġexcept":1938,"Ġentered":1939,"Ġgiant":1940,"Ġplease":1941,"ax":1942,"br":1943,"Ġlying":1944,"ets":1945,"stairs":1946,"Ġgoblin":1947,"Ġcheck":1948,"Ġbeneath":1949,"Hermione":1950,"Ġfa":1951,"Ġclut":1952,"upid":1953,"Ġhurt":1954,"Ġgolden":1955,"Ġceiling":1956,"roll":1957,"uth":1958,"Ġfinished":1959,"ald":1960,"Ġburn":1961,"Ġcarry":1962,"ason":1963,"Ġshock":1964,"ckon":1965,"arely":1966,"Ġyell":1967,"Ġcase":1968,"Ġph":1969,"Ġsoft":1970,"Ġsus":1971,"Ġsix":1972,"Ġnerv":1973,"Ġreg":1974,"Ġwhose":1975,"Ġchest":1976,"eed":1977,"Ġwom":1978,"ount":1979,"enty":1980,"ĠLet":1981,"Ġdoors":1982,"Ġwrit":1983,"Ġmagical":1984,"Ġsumm":1985,"Ġev":1986,"amed":1987,"ĠOne":1988,"apt":1989,"abin":1990,"Ġgrounds":1991,"Ġfriends":1992,"Ġleaving":1993,"mas":1994,"wig":1995,"Ġcross":1996,"Ġstupid":1997,"rod":1998,"Ġ..":1999,"Ġclear":2000,"uc":2001,"Ġneare":2002,"Ġpract":2003,"like":2004,"Ġquestion":2005,"Ġdraw":2006,"aned":2007,"ĠDean":2008,"board":2009,"Ġtrouble":2010,"rist":2011,"Ġopp":2012,"Ġcoll":2013,"Ġthrew":2014,"artment":2015,"Ġentrance":2016,"oon":2017,"ination":2018,"ren":2019,"edwig":2020,"Ġmid":2021,"ressed":2022,"Ġstaircase":2023,"ER":2024,"Ġton":2025,"ising":2026,"visibility":2027,"Ġlegs":2028,"Ġarrived":2029,"Ġflew":2030,"Ġesc":2031,"Ġap":2032,"Ġfill":2033,"Ġchance":2034,"Ġmanaged":2035,"ĠCho":2036,"ristmas":2037,"Ġglasses":2038,"ye":2039,"atri":2040,"ages":2041,"stick":2042,"akes":2043,"ĠOf":2044,"ief":2045,"rified":2046,"Ġmad":2047,"ĠIs":2048,"ghter":2049,"rily":2050,"Ġlooks":2051,"aper":2052,"atrix":2053,"Ġer":2054,"Ġtent":2055,"ĠHer":2056,"Ġimport":2057,"Ġpotion":2058,"wo":2059,"ush":2060,"Ġwindows":2061,"Ġcent":2062,"Ġcreat":2063,"Ġeas":2064,"rill":2065,"Ġknown":2066,"Ġrunning":2067,"Ġevening":2068,"Ġmatch":2069,"ishing":2070,"alm":2071,"Ġsays":2072,"Ġenorm":2073,"ormtail":2074,"ĠChristmas":2075,"Ġwalls":2076,"ger":2077,"ĠHedwig":2078,"Ġrealized":2079,"Ġexpression":2080,"Ġson":2081,"Ġpie":2082,"used":2083,"Ġnobody":2084,"Ġglanced":2085,"Ġbecame":2086,"Ġperhaps":2087,"Ġpict":2088,"Ġforgot":2089,"ug":2090,"vo":2091,"Ġcertain":2092,"Ġeff":2093,"Ġworld":2094,"Ġtrunk":2095,"Ġlonger":2096,"Ġpress":2097,"Ġattack":2098,"OU":2099,"Ġwarn":2100,"icked":2101,"Ġseized":2102,"Ġclimb":2103,"Ġbrother":2104,"Ġwoman":2105,"Ġhop":2106,"Ġocc":2107,"Ġinform":2108,"rup":2109,"Ġfif":2110,"ident":2111,"let":2112,"Ġwithin":2113,"Ġmeant":2114,"iew":2115,"Ġvanished":2116,"bus":2117,"work":2118,"ĠSome":2119,"Ġready":2120,"ĠBellatrix":2121,"int":2122,"Ġbar":2123,"Ġthr":2124,"Ġear":2125,"ogn":2126,"bably":2127,"Ġve":2128,"inted":2129,"Ġconc":2130,"Ġsword":2131,"Ġwalking":2132,"Ġemer":2133,"Ġenormous":2134,"Ġint":2135,"ĠGo":2136,"ĠInvisibility":2137,"Ġdisappe":2138,"Ġnumber":2139,"ser":2140,"Ġluck":2141,"Ġherself":2142,"Ġfinally":2143,"kes":2144,"Ġfig":2145,"ask":2146,"Ġthin":2147,"ĠSever":2148,"als":2149,"Ġshad":2150,"Ġlead":2151,"Ġknows":2152,"Ġpulling":2153,"Ġangry":2154,"Ġsafe":2155,"oom":2156,"off":2157,"Ġcol":2158,"olt":2159,"Ġhappy":2160,"Ġrepeated":2161,"Ġcut":2162,"Ġhang":2163,"Ġinv":2164,"ĠWood":2165,"ĠWormtail":2166,"ations":2167,"tly":2168,"Ġwood":2169,"Ġass":2170,"ĠAg":2171,"ĠProphe":2172,"Ġwands":2173,"ection":2174,"Ġkilled":2175,"Ġrememb":2176,"Ġlistening":2177,"Ġflying":2178,"Ġign":2179,"Ġsun":2180,"amus":2181,"inking":2182,"ĠDef":2183,"Ġrecogn":2184,"kab":2185,"zkab":2186,"rely":2187,"Ġdementors":2188,"ĠJames":2189,"unny":2190,"Ġjob":2191,"zkaban":2192,"Ġbat":2193,"Ġcir":2194,"Ġthro":2195,"pect":2196,"Ġblue":2197,"Ġsmiling":2198,"Ġtrain":2199,"Ġangrily":2200,"ĠArts":2201,"Ġinstead":2202,"Ġbroke":2203,"Ġbroken":2204,"Ġweek":2205,"ices":2206,"ĠSee":2207,"ĠAre":2208,"ĠAzkaban":2209,"rought":2210,"ĠCan":2211,"Ġanyway":2212,"Ġheads":2213,"Ġtrue":2214,"Ġflat":2215,"Ġbelow":2216,"Ġclearly":2217,"Ġtonight":2218,"oul":2219,"ison":2220,"Ġmiss":2221,"Ġpale":2222,"aning":2223,"aled":2224,"Ġnodded":2225,"Ġmemory":2226,"Ġcompletely":2227,"arrow":2228,"Ġball":2229,"Ġegg":2230,"ĠWizard":2231,"inky":2232,"icking":2233,"arently":2234,"ĠSeamus":2235,"rell":2236,"Ġmention":2237,"cho":2238,"Ġsuppose":2239,"Ġseconds":2240,"ĠAlbus":2241,"Ġmonth":2242,"claw":2243,"avenclaw":2244,"Ġreason":2245,"ĠAh":2246,"ĠPar":2247,"Ġshow":2248,"Ġtrees":2249,"Ġvisit":2250,"ĠSnitch":2251,"Ġz":2252,"Ġbarely":2253,"isk":2254,"str":2255,"ĠCr":2256,"Ġbackward":2257,"Ġdragon":2258,"ghed":2259,"Ġir":2260,"Ġokay":2261,"Ġthrow":2262,"Ġecho":2263,"orth":2264,"ĠEater":2265,"ĠAny":2266,"ĠMuggles":2267,"Ġlesson":2268,"Ġill":2269,"ĠRavenclaw":2270,"ains":2271,"Ġcons":2272,"inner":2273,"'.":2274,"ike":2275,"Ġought":2276,"Ġtor":2277,"Ġstret":2278,"ĠKark":2279,"Ġimag":2280,"ĠProphet":2281,"master":2282,"ider":2283,"Ġreckon":2284,"Ġforced":2285,"Ġlearn":2286,"Ġdisc":2287,"Ġgle":2288,"Ġshot":2289,"Ġtears":2290,"Ġhorrible":2291,"Dumbledore":2292,"Ġahead":2293,"Ġcovered":2294,"Ġmir":2295,"Ġled":2296,"Ġstory":2297,"ĠPat":2298,"Ġstrange":2299,"Ġdoub":2300,"iness":2301,"Ġwing":2302,"Ġhum":2303,"Ġhidden":2304,"Ġpair":2305,"Ġeag":2306,"Ġquill":2307,"Ġscr":2308,"Ġsky":2309,"Ġstepped":2310,"ĠMagical":2311,"isted":2312,"orrow":2313,"Ġpun":2314,"imm":2315,"Ġhappen":2316,"Ġgiving":2317,"Ġbig":2318,"orted":2319,"Ġdorm":2320,"Ġrat":2321,"Ġbox":2322,"Ġsnapped":2323,"Ġhours":2324,"Ġdifferent":2325,"Ġimportant":2326,"Ġmiddle":2327,"Ġthird":2328,"ldron":2329,"ĠYour":2330,"Ġfear":2331,"Ġblank":2332,"ancing":2333,"aroff":2334,"Ġgh":2335,"Ġwhom":2336,"Ġanx":2337,"Ġform":2338,"aped":2339,"eeves":2340,"IN":2341,"Ġsing":2342,"ates":2343,"atur":2344,"Ġcabin":2345,"ane":2346,"ĠPom":2347,"Ġtruth":2348,"Ġforest":2349,"ial":2350,"ita":2351,"itted":2352,"Ġcop":2353,"Ġlake":2354,"ĠApp":2355,"Ġchamp":2356,"Ġtrans":2357,"Ġprobably":2358,"Ġpoints":2359,"Ġdeser":2360,"ĠOrder":2361,"Ġsummer":2362,"Ġtem":2363,"Ġfre":2364,"Ġfine":2365,"Ġgri":2366,"Ġstom":2367,"Ġstrugg":2368,"ĠPl":2369,"ĠLe":2370,"Ġprete":2371,"lessly":2372,"Ġdormit":2373,"rim":2374,"ta":2375,"Ġbrought":2376,"Ġpushed":2377,"ooksh":2378,"Ġyourself":2379,"Ġyeah":2380,"Ġexcited":2381,"Ġcarrying":2382,"ookshanks":2383,"frey":2384,"ition":2385,"Ġduring":2386,"Ġlate":2387,"vering":2388,"ĠWith":2389,"Ġrose":2390,"ular":2391,"uffle":2392,"Ġsilent":2393,"Ġdangerous":2394,"ĠAgain":2395,"ĠKarkaroff":2396,"ĠPomfrey":2397,"aid":2398,"rit":2399,"Ġfro":2400,"Ġfright":2401,"Ġmaster":2402,"ĠTr":2403,"Ġroared":2404,"Ġbottle":2405,"Ġhardly":2406,"Ġsounded":2407,"Ġedge":2408,"ipp":2409,"sme":2410,"Ġadd":2411,"Ġcalm":2412,"Ġdesper":2413,"ixed":2414,"Ġfaces":2415,"Ġpossible":2416,"ape":2417,"Ġsister":2418,"icult":2419,"ĠMay":2420,"ĠTH":2421,"ĠDad":2422,"ĠRight":2423,"Ġshrie":2424,"bbing":2425,"Ġwonder":2426,"Ġadm":2427,"Ġstreet":2428,"gy":2429,"Ġnor":2430,"ĠWinky":2431,"ĠPeeves":2432,"Ġsugg":2433,"Ġlaughed":2434,"Ġcried":2435,"Ġworse":2436,"teen":2437,"ĠHogsme":2438,"Ġexpected":2439,"Ġobv":2440,"Ġobject":2441,"rol":2442,"ĠDigg":2443,"Ġaren":2444,"ĠHogsmeade":2445,"not":2446,"Ġhast":2447,"Ġhung":2448,"Ġdrew":2449,"eth":2450,"Ġcloser":2451,"Ġnews":2452,"Ġlaughter":2453,"Ġdifficult":2454,"uge":2455,"Ġtree":2456,"Ġbow":2457,"Ġgrou":2458,"Ġglo":2459,"ters":2460,"Ġjumped":2461,"thur":2462,"Ġpleased":2463,"Ġcouple":2464,"medi":2465,"Ġpicked":2466,"puff":2467,"Ġfunny":2468,"Ġnorm":2469,"pell":2470,"unch":2471,"ĠArthur":2472,"Ġparticul":2473,"Ġheavy":2474,"Ġstomach":2475,"ufflepuff":2476,"ho":2477,"Ġwild":2478,"Ġhot":2479,"ĠHufflepuff":2480,"aching":2481,"ament":2482,"Ġwants":2483,"Ġlock":2484,"geour":2485,"Ġindeed":2486,"Ġthroat":2487,"apped":2488,"ital":2489,"oring":2490,"ories":2491,"ushing":2492,"Ġmerely":2493,"ĠFl":2494,"ĠVery":2495,"Ġord":2496,"Ġsimply":2497,"ucius":2498,"Ġapart":2499,"ĠDefense":2500,"ĠCrookshanks":2501,"rimgeour":2502,"Ġtight":2503,"Ġtra":2504,"reme":2505,"Ġmark":2506,"ĠTo":2507,"ĠRita":2508,"Ġposit":2509,"ĠSec":2510,"Ġgirls":2511,"Ġgasped":2512,"ĠSeverus":2513,"Pro":2514,"cing":2515,"eep":2516,"fast":2517,"Ġavo":2518,"Ġbas":2519,"Ġfer":2520,"Ġfield":2521,"Ġnarrow":2522,"ict":2523,"geon":2524,"Ġslid":2525,"Ġgrow":2526,"Ġimmedi":2527,"ĠGranger":2528,"Ġsubject":2529,"Ġghost":2530,"Ġbath":2531,"eter":2532,"amber":2533,"Ġnote":2534,"Ġfrown":2535,"ourn":2536,"Ġmyself":2537,"Ġwalk":2538,"Ġperfect":2539,"Ġwondered":2540,"Ġguard":2541,"Ġscreamed":2542,"Ġlaughing":2543,"Ġtip":2544,"arl":2545,"Ġdad":2546,"ĠSke":2547,"Ġaside":2548,"riph":2549,"ife":2550,"ĠLucius":2551,"Ġfamil":2552,"Ġfilled":2553,"riphook":2554,"aut":2555,"aily":2556,"Ġdinner":2557,"amb":2558,"Ġalive":2559,"ept":2560,"avender":2561,"Ġbecome":2562,"Ġlove":2563,"Ġremained":2564,"avor":2565,"Ġstarting":2566,"Ġactually":2567,"wick":2568,"Ġmess":2569,"Ġann":2570,"ĠFr":2571,"Ġtea":2572,"Ġsomebody":2573,"Ġneeded":2574,"ungus":2575,"Ġjoined":2576,"Ġbroomstick":2577,"Ġattemp":2578,"Ġremembered":2579,"Professor":2580,"ON":2581,"iar":2582,"ones":2583,"Ġnice":2584,"oming":2585,"Ġweren":2586,"Ġleapt":2587,"Ġteeth":2588,"Ġchild":2589,"Ġworry":2590,"ments":2591,"Ġprom":2592,"Ġhole":2593,"Ġcarefully":2594,"Ġadv":2595,"Ġcatch":2596,"ĠScrimgeour":2597,"ĠDiggory":2598,"bs":2599,"cause":2600,"Ġbent":2601,"Ġcre":2602,"Ġdare":2603,"ĠDis":2604,"ammed":2605,"Ġdog":2606,"ĠYOU":2607,"Ġcho":2608,"aused":2609,"Ġterrible":2610,"Ġstrong":2611,"Ġbreakfast":2612,"litwick":2613,"Ġdirection":2614,"Ġpicture":2615,"As":2616,"ler":2617,"ning":2618,"zen":2619,"Ġtall":2620,"Ġhuge":2621,"Ġdem":2622,"ĠIm":2623,"ĠAfter":2624,"ĠGet":2625,"Ġabs":2626,"Ġpost":2627,"ĠEye":2628,"Ġsmiled":2629,"Ġapparently":2630,"Ġbottom":2631,"Ġdrink":2632,"Ġtremb":2633,"ĠAgainst":2634,"bolt":2635,"Ġ1":2636,"Ġterm":2637,"Ġbound":2638,"ote":2639,"oth":2640,"blet":2641,"Ġview":2642,"Ġsomewhere":2643,"ĠPotions":2644,"Ġfirm":2645,"undungus":2646,"Ġsurprise":2647,"rode":2648,"ges":2649,"yond":2650,"Ġhol":2651,"Ġtoday":2652,"Ġpink":2653,"Ġpaper":2654,"Ġbeyond":2655,"ays":2656,"Ġforget":2657,"Ġshop":2658,"ĠGriphook":2659,"ĠFlitwick":2660,"Ġtwenty":2661,"Ġknees":2662,"Ġextreme":2663,"joy":2664,"Ġtightly":2665,"Ġsense":2666,"Ġwish":2667,"ĠDaily":2668,"urse":2669,"ĠCup":2670,"Ġallowed":2671,"Ġslipped":2672,"Ġboys":2673,"Ġteachers":2674,"Ġsurprised":2675,"Ġsharply":2676,"Ġclutching":2677,"Ġoppos":2678,"Ġinformation":2679,"vati":2680,"Ġtail":2681,"Ġaf":2682,"Ġsmell":2683,"Ġproper":2684,"Ġcrack":2685,"Ġlessons":2686,"abbers":2687,"Ġclimbed":2688,"bl":2689,"wh":2690,"Ġbang":2691,"ĠHouse":2692,"ĠMundungus":2693,"Ġuna":2694,"ague":2695,"Ġliving":2696,"Ġworking":2697,"Ġhasn":2698,"Ġattention":2699,"Ġclassroom":2700,"Ġdecided":2701,"ĠSkeeter":2702,"OR":2703,"Ġtow":2704,"ashing":2705,"Ġdun":2706,"Ġnone":2707,"Ġitself":2708,"ĠMar":2709,"agg":2710,"Ġhosp":2711,"Ġsnow":2712,"Ġclosely":2713,"Ġlisten":2714,"Ġpiece":2715,"Ġforgotten":2716,"Ġeager":2717,"Ġhospital":2718,"AR":2719,"by":2720,"Ġdust":2721,"any":2722,"Ġstaff":2723,"ical":2724,"raid":2725,"Ġworried":2726,"Ġseeing":2727,"itely":2728,"Ġsurround":2729,"Ġforehead":2730,"ĠScabbers":2731,"Ġextra":2732,"inx":2733,"Ġhiding":2734,"asure":2735,"Ġdest":2736,"imp":2737,"ĠMiss":2738,"ute":2739,"ĠLavender":2740,"Ġconv":2741,"Ġspeaking":2742,"Ġfollowing":2743,"Ġdeterm":2744,"ĠMaybe":2745,"zing":2746,"Ġcry":2747,"Ġweak":2748,"Ġupstairs":2749,"ander":2750,"Ġdeal":2751,"Ġconvers":2752,"Ġhappily":2753,"rows":2754,"Ġsecret":2755,"uckbe":2756,"Ġcount":2757,"Ġpresent":2758,"Ġsingle":2759,"Ġopposite":2760,"uckbeak":2761,"¿½":2762,"ï¿½":2763,"Ġpan":2764,"ĠMum":2765,"ĠRem":2766,"steps":2767,"gelin":2768,"ude":2769,"eling":2770,"Ġgray":2771,"Ġminute":2772,"Ġgazing":2773,"Ġmirror":2774,"Ġafraid":2775,"ton":2776,"Ġfain":2777,"its":2778,"Ġforce":2779,"Ġplaced":2780,"Ġenjoy":2781,"Ġdisg":2782,"Ġmeans":2783,"Ġkeeping":2784,"Ġattempt":2785,"ĠParvati":2786,"Ġextremely":2787,"Ġdie":2788,"ĠTom":2789,"aded":2790,"Ġrepl":2791,"Ġtrust":2792,"Ġdiscus":2793,"Ġappear":2794,"Ġwondering":2795,"Ġcoun":2796,"Ġfinger":2797,"Ġpurple":2798,"Ġfavor":2799,"atter":2800,"Ġmass":2801,"Ġpack":2802,"irrell":2803,"Ġmoon":2804,"ĠWeasleys":2805,"Ġarg":2806,"Ġswung":2807,"Ġbring":2808,"ruck":2809,"Ġweeks":2810,"gelina":2811,"kin":2812,"nce":2813,"Ġing":2814,"Ġwarm":2815,"Ġinn":2816,"ĠBuckbeak":2817,"ĠNor":2818,"Ġlibr":2819,"Ġvoices":2820,"Ġgrinning":2821,"Ġimpati":2822,"ĠSlytherins":2823,"Ġfuriously":2824,"Ġpossess":2825,"Ġdisappeared":2826,"ces":2827,"lic":2828,"hered":2829,"inting":2830,"Ġbre":2831,"Ġble":2832,"Ġstep":2833,"ĠLily":2834,"blem":2835,"Ġchange":2836,"Ġspir":2837,"elve":2838,"Ġimmediately":2839,"Th":2840,"Ġfood":2841,"Ġhesit":2842,"Ġline":2843,"Ġeat":2844,"acing":2845,"tern":2846,"Ġnotice":2847,"ĠHere":2848,"Ġrid":2849,"Ġwhatever":2850,"arth":2851,"Ġeyeb":2852,"Ġpowerful":2853,"Ġfigure":2854,"Ġdormitory":2855,"ker":2856,"tig":2857,"Ġoh":2858,"Ġpri":2859,"Ġnast":2860,"aces":2861,"Ġstrode":2862,"Ġsend":2863,"Ġroll":2864,"Ġterrified":2865,"Ġfootsteps":2866,"Ġmarble":2867,"Ġtouch":2868,"Ġknocked":2869,"Ġpractice":2870,"Ġcirc":2871,"Ġhastily":2872,"Mr":2873,"arled":2874,"Ġpage":2875,"leep":2876,"ads":2877,"orting":2878,"ogra":2879,"ĠQuirrell":2880,"Ġpassage":2881,"Ġbedroom":2882,"Ġwaited":2883,"ĠErn":2884,"Ġhomework":2885,"Ġbellowed":2886,"Ġholid":2887,"tigrew":2888,"rtle":2889,"ury":2890,"Ġsick":2891,"Ġborn":2892,"Ġele":2893,"ĠWas":2894,"Ġur":2895,"ĠCurse":2896,"Ġsol":2897,"Ġlive":2898,"Ġrolled":2899,"izing":2900,"Ġscared":2901,"Ġremind":2902,"Ġattacked":2903,"unno":2904,"ĠBlud":2905,"Ġjoin":2906,"ĠAngelina":2907,"Ġlanded":2908,"Ġlibrary":2909,"af":2910,"back":2911,"Ġfixed":2912,"itched":2913,"llent":2914,"lliv":2915,"Ġpath":2916,"Ġgrabb":2917,"Ġseven":2918,"ĠKeep":2919,"Ġaftern":2920,"Ġprophe":2921,"ĠPettigrew":2922,"Ġdoubt":2923,"Ġgroup":2924,"tled":2925,"Ġworth":2926,"Ġgard":2927,"Ġbeard":2928,"cellent":2929,"aked":2930,"Ġrock":2931,"Ġdep":2932,"Ġhanded":2933,"inned":2934,"Ġenc":2935,"ables":2936,"ĠNever":2937,"Ġcauldron":2938,"Ġnervously":2939,"ournament":2940,"ived":2941,"ls":2942,"the":2943,"inct":2944,"Ġdress":2945,"Ġmag":2946,"Ġsevent":2947,"Ġje":2948,"oney":2949,"Ġcannot":2950,"Ġprefect":2951,"Ġproblem":2952,"ĠMyrtle":2953,"Ġfaced":2954,"Ġusually":2955,"ĠAppar":2956,"more":2957,"ring":2958,"uing":2959,"atie":2960,"ides":2961,"Ġearth":2962,"ĠNick":2963,"ĠOlliv":2964,"Ġdelight":2965,"Ġtwelve":2966,"Ġglad":2967,"Ġgrim":2968,"Ġreading":2969,"Ġowls":2970,"Ġplaying":2971,"Ġphot":2972,"Ġsoftly":2973,"Ġnearer":2974,"Ġfirmly":2975,"Ġtask":2976,"rib":2977,"Ġlocket":2978,"Ġamong":2979,"Ġsurf":2980,"ibly":2981,"Ġparticularly":2982,"Ġbathroom":2983,"arlie":2984,"Ġafternoon":2985,"ior":2986,"eng":2987,"ested":2988,"omp":2989,"Ġreve":2990,"Ġspent":2991,"Ġthinks":2992,"ĠCharlie":2993,"ĠBecause":2994,"Ġmeeting":2995,"ĠFirebolt":2996,"Ġsusp":2997,"Ġnormal":2998,"LE":2999,"fer":3000,"tic":3001,"Ġtroll":3002,"Ġgro":3003,"Ġshowed":3004,"ĠBur":3005,"ĠFore":3006,"Ġpol":3007,"ĠKatie":3008,"Ġwaving":3009,"Ġcurse":3010,"Ġhalfway":3011,"Ġfollow":3012,"ĠPatron":3013,"Ġprophecy":3014,"ĠOllivander":3015,"ual":3016,"Ġtrave":3017,"Ġhon":3018,"arc":3019,"arily":3020,"Ġfist":3021,"Ġdra":3022,"enix":3023,"Ġmap":3024,"Ġpow":3025,"Ġgen":3026,"Ġworked":3027,"Ġglit":3028,"Ġsne":3029,"Ġsideways":3030,"Ġskin":3031,"Ġcorridors":3032,"Ġexcit":3033,"ĠPrime":3034,"clock":3035,"ian":3036,"ĠZ":3037,"Ġtom":3038,"Ġperm":3039,"Ġasleep":3040,"Ġjump":3041,"Ġalarm":3042,"Ġchanged":3043,"Ġheadmaster":3044,"Ġbrain":3045,"olly":3046,"Ġdiary":3047,"Ġspells":3048,"Ġheavily":3049,"Ġshadow":3050,"Ġrecognized":3051,"Ġcopy":3052,"Ġdetermined":3053,"ĠForest":3054,"Ġsy":3055,"Ġcage":3056,"Ġmot":3057,"otts":3058,"irth":3059,"ĠLong":3060,"Ġtrick":3061,"Ġshoulders":3062,"Ġdefin":3063,"Ġfallen":3064,"Ġexplain":3065,"Ġcertainly":3066,"Ġdeserted":3067,"Ġconversation":3068,"AT":3069,"come":3070,"eding":3071,"ĠHave":3072,"lease":3073,"ĠDep":3074,"Ġmissed":3075,"Ġmaybe":3076,"Ġhanging":3077,"ograph":3078,"Ġsuspic":3079,"ĠPatronus":3080,"Ġess":3081,"rets":3082,"Ġbew":3083,"Ġbeaming":3084,"irty":3085,"ĠMaster":3086,"ĠMax":3087,"ĠTower":3088,"Ġsho":3089,"Ġleaned":3090,"ĠEven":3091,"ieve":3092,"Ġpret":3093,"ollow":3094,"Ġcurtain":3095,"ĠMadame":3096,"ĠNothing":3097,"Ġfalling":3098,"Ġfighting":3099,"Ġapproached":3100,"Ġcrossed":3101,"Ġgarden":3102,"ĠMaxime":3103,"Ġaff":3104,"Ġsank":3105,"Ġcand":3106,"Ġdri":3107,"Ġemb":3108,"Ġstat":3109,"ooped":3110,"ĠPe":3111,"Ġunless":3112,"Ġsmoot":3113,"Ġgrass":3114,"Ġcheer":3115,"Ġscarlet":3116,"Ġbrightly":3117,"Ġhoping":3118,"Ġthrowing":3119,"Ġstretched":3120,"Ġsurface":3121,"bot":3122,"fig":3123,"gin":3124,"set":3125,"Ġfool":3126,"idly":3127,"Ġgrave":3128,"ĠTwo":3129,"entr":3130,"Ġrece":3131,"anded":3132,"ĠList":3133,"Ġvill":3134,"Ġspark":3135,"Ġusing":3136,"oph":3137,"Ġhurrying":3138,"rilli":3139,"Ġfrowning":3140,"Ġtrembling":3141,"Ġnasty":3142,"Ġwin":3143,"Ġoften":3144,"Ġones":3145,"Ġrow":3146,"ĠFang":3147,"ĠOkay":3148,"ction":3149,"Ġpoor":3150,"bbed":3151,"Ġcompl":3152,"Ġsqueak":3153,"Ġanger":3154,"Ġfurther":3155,"Ġmonths":3156,"ĠTHE":3157,"ope":3158,"ĠX":3159,"inary":3160,"Ġbirth":3161,"attered":3162,"Ġcro":3163,"Ġpub":3164,"Ġinvis":3165,"ots":3166,"umin":3167,"Ġsplit":3168,"Ġcloud":3169,"Ġheaded":3170,"Ġimm":3171,"Ġfacing":3172,"Ġmurm":3173,"Ġcenta":3174,"Ġpressed":3175,"Ġperfectly":3176,"Ġeagerly":3177,"oss":3178,"wizard":3179,"Ġtables":3180,"asant":3181,"Ġdread":3182,"Ġpar":3183,"Ġink":3184,"aling":3185,"ĠGrey":3186,"ceed":3187,"Ġputting":3188,"Ġdistant":3189,"Ġbusiness":3190,"Ġnervous":3191,"Ġeffort":3192,"Ġeyebrows":3193,"ĠGreyback":3194,"Hagrid":3195,"OT":3196,"how":3197,"ole":3198,"under":3199,"Ġsoul":3200,"Ġgame":3201,"Ġsave":3202,"ĠSpell":3203,"ĠWand":3204,"ĠPh":3205,"illy":3206,"Ġliked":3207,"Ġsuff":3208,"though":3209,"Ġshouldn":3210,"Ġwaved":3211,"Ġsnarled":3212,"ingsley":3213,"Ġslee":3214,"Ġevid":3215,"Ġtomorrow":3216,"ĠDepartment":3217,"Wh":3218,"Ġhig":3219,"Ġinj":3220,"Ġyer":3221,"ott":3222,"ĠCorn":3223,"Ġrain":3224,"ilius":3225,"uding":3226,"ants":3227,"Ġseems":3228,"Ġperform":3229,"ney":3230,"Ġinches":3231,"Ġexplo":3232,"ances":3233,"Ġbusy":3234,"Ġnearest":3235,"Ġfifty":3236,"Ġunable":3237,"Ġimpatiently":3238,"Ġpretty":3239,"ĠListen":3240,"Ġinvisible":3241,"Ġhide":3242,"ony":3243,"Ġfun":3244,"Ġlunch":3245,"Ġearly":3246,"icing":3247,"ĠDel":3248,"Ġshowing":3249,"Ġneither":3250,"Ġcharm":3251,"ĠNearly":3252,"Ġmuttering":3253,"Ġquestions":3254,"Ġspotted":3255,"Ġconcentr":3256,"ĠWizarding":3257,"Ġzoom":3258,"Ġechoed":3259,"Ġhuman":3260,"ĠTrans":3261,"ĠLongbot":3262,"cious":3263,"du":3264,"zed":3265,"isf":3266,"vel":3267,"ĠSpr":3268,"Ġwitches":3269,"ĠAur":3270,"alle":3271,"ĠLove":3272,"Ġlips":3273,"anting":3274,"Ġthoughts":3275,"Ġprep":3276,"Ġwhisper":3277,"Ġsharp":3278,"Ġthrown":3279,"Ġemerged":3280,"Ġfrightened":3281,"blood":3282,"ĠLongbottom":3283,"Ġward":3284,"llo":3285,"Ġmen":3286,"Ġmus":3287,"Ġasking":3288,"Ġjer":3289,"Ġjinx":3290,"Ġune":3291,"ĠKingsley":3292,"omething":3293,"Ġcontrol":3294,"Ġrealize":3295,"Ġscreaming":3296,"Ġcupboard":3297,"Ġdrawing":3298,"Ġirrit":3299,"Ġobviously":3300,"Ġgrowled":3301,"ĠErnie":3302,"ĠXen":3303,"ected":3304,"val":3305,"Ġsens":3306,"Ġhissed":3307,"urb":3308,"ified":3309,"ĠLee":3310,"cks":3311,"Ġagre":3312,"Ġslight":3313,"Ġappre":3314,"Ġmoments":3315,"Ġpassing":3316,"Ġguess":3317,"Ġhesitated":3318,"Ġgrabbed":3319,"ophilius":3320,"ias":3321,"oken":3322,"Ġfil":3323,"Ġthreat":3324,"Ġpay":3325,"velo":3326,"ĠMark":3327,"Ġund":3328,"ĠGod":3329,"Ġgoblet":3330,"ongue":3331,"Ġanymore":3332,"Ġspread":3333,"ĠThree":3334,"Ġtwice":3335,"Ġflames":3336,"Ġench":3337,"Ġappl":3338,"Ġspect":3339,"ilda":3340,"Ġbadly":3341,"ĠOnly":3342,"Ġshrieked":3343,"Ġposition":3344,"Ġstuck":3345,"rog":3346,"roy":3347,"ĠGalle":3348,"ighed":3349,"Ġclot":3350,"unned":3351,"Ġsatisf":3352,"Ġfault":3353,"Ġwriting":3354,"Ġeasy":3355,"io":3356,"Ġtone":3357,"Ġban":3358,"Ġpitch":3359,"Ġnine":3360,"pected":3361,"Ġspl":3362,"Ġplat":3363,"Ġgrowing":3364,"Ġprev":3365,"ucked":3366,"apping":3367,"Ġcarried":3368,"Ġletters":3369,"ĠEveryone":3370,"Ġyellow":3371,"ĠAnyway":3372,"Ġchampions":3373,"Ġdungeon":3374,"ĠSprout":3375,"ĠXenophilius":3376,"AN":3377,"night":3378,"Ġwake":3379,"arg":3380,"Ġcour":3381,"Ġgra":3382,"ĠTri":3383,"ĠWor":3384,"ĠWill":3385,"Ġreach":3386,"Ġshrugg":3387,"Ġupward":3388,"Ġrising":3389,"quire":3390,"ulus":3391,"Ġteach":3392,"els":3393,"ĠThank":3394,"ĠThanks":3395,"ĠPotion":3396,"thy":3397,"Ġentire":3398,"Ġhelped":3399,"ĠStone":3400,"ĠHowever":3401,"ementor":3402,"ĠReg":3403,"Ġrefle":3404,"Ġinterested":3405,"ĠCharms":3406,"Ġmidair":3407,"Ġoccas":3408,"Ġfamiliar":3409,"When":3410,"uice":3411,"Ġlur":3412,"Ġlamp":3413,"utter":3414,"ĠDementors":3415,"inked":3416,"Ġnois":3417,"Ġunple":3418,"Ġworst":3419,"Ġcomfort":3420,"Ġthank":3421,"ĠChamber":3422,"Ġsnat":3423,"Ġsounding":3424,"Ġshouting":3425,"Ġcarri":3426,"Ġdisappo":3427,"Ġseats":3428,"Ġprotect":3429,"ĠHorcruxes":3430,"Ġwooden":3431,"Ġannoy":3432,"Ġdefinitely":3433,"ium":3434,"ned":3435,"Ġsize":3436,"Ġblock":3437,"Ġhearing":3438,"Ġmer":3439,"Ġpure":3440,"Ġpacked":3441,"Ġnames":3442,"Ġbeat":3443,"Ġeh":3444,"lder":3445,"ĠMer":3446,"Ġshining":3447,"gered":3448,"Ġdownstairs":3449,"Ġswept":3450,"Ġelves":3451,"Ġstudent":3452,"Ġpatch":3453,"Ġleading":3454,"Ġbirthday":3455,"ding":3456,"mm":3457,"ner":3458,"Ġbin":3459,"Ġbird":3460,"Ġbrilli":3461,"Ġfit":3462,"Ġpile":3463,"Ġpause":3464,"ĠHarrys":3465,"Ġstag":3466,"Ġwhist":3467,"ĠSm":3468,"ĠPo":3469,"Ġexper":3470,"Ġremain":3471,"ĠQuaff":3472,"Ġlifted":3473,"Ġparty":3474,"Ġunderstood":3475,"Ġhighly":3476,"racted":3477,"Ġseriously":3478,"rivet":3479,"Ġcolor":3480,"Ġgleaming":3481,"Ġfresh":3482,"Ġobjects":3483,"ĠBludger":3484,"Ġglittering":3485,"Ġvillage":3486,"Ġplatform":3487,"Snape":3488,"cess":3489,"ik":3490,"ses":3491,"ingotts":3492,"ĠSorry":3493,"ĠDrive":3494,"roud":3495,"Ġthanks":3496,"olate":3497,"ruct":3498,"Ġchee":3499,"Ġbitter":3500,"Ġlouder":3501,"Ġcoldly":3502,"Ġinterrup":3503,"Ġcreatures":3504,"Ġexcitedly":3505,"Ġgloom":3506,"Ġexcitement":3507,"ĠTransfig":3508,"ĠTriwizard":3509,"ait":3510,"aunt":3511,"eled":3512,"Ġage":3513,"Ġfat":3514,"Ġhalt":3515,"ĠMe":3516,"ĠPrivet":3517,"Ġsoared":3518,"antic":3519,"ational":3520,"Ġswall":3521,"ineas":3522,"Ġbreathing":3523,"Ġincl":3524,"ĠGringotts":3525,"Ġfurious":3526,"cial":3527,"Ġmiser":3528,"Ġlucky":3529,"Ġphotograph":3530,"ĠPhineas":3531,"Ġsighed":3532,"Ġcool":3533,"Ġdam":3534,"Ġinf":3535,"Ġeight":3536,"urred":3537,"ĠAm":3538,"Ġsear":3539,"ards":3540,"Ġlived":3541,"Ġsomehow":3542,"aught":3543,"dding":3544,"Ġarmch":3545,"Ġsounds":3546,"Ġhorror":3547,"Ġaware":3548,"forth":3549,"Ġburning":3550,"Ġwarning":3551,"Ġproperly":3552,"Ġholidays":3553,"Ġsolid":3554,"ĠQuaffle":3555,"At":3556,"RE":3557,"den":3558,"ues":3559,"wise":3560,"reg":3561,"Ġfo":3562,"Ġfold":3563,"Ġdunno":3564,"Ġsaved":3565,"Ġstri":3566,"ĠMolly":3567,"Ġrev":3568,"ĠAber":3569,"ĠPlease":3570,"Ġkid":3571,"ilt":3572,"rief":3573,"Ġsurely":3574,"Ġbelong":3575,"Ġfirepl":3576,"Ġcareful":3577,"Ġdeeply":3578,"ĠHeadless":3579,"Ġcompartment":3580,"Ġrelief":3581,"Ġmurd":3582,"Ġescape":3583,"Ġeffect":3584,"Ġlearned":3585,"Ġavoid":3586,"sc":3587,"sion":3588,"zy":3589,"oned":3590,"Ġhaired":3591,"omfort":3592,"ĠMor":3593,"uration":3594,"Ġrang":3595,"ouses":3596,"eping":3597,"Ġanybody":3598,"Ġsped":3599,"Ġunf":3600,"Ġslammed":3601,"ausing":3602,"Ġsque":3603,"Ġcover":3604,"Ġshortly":3605,"ocolate":3606,"VE":3607,"aving":3608,"Ġwra":3609,"Ġhood":3610,"Ġbab":3611,"itting":3612,"ency":3613,"Ġpound":3614,"ĠRoom":3615,"riff":3616,"key":3617,"Ġring":3618,"ĠFat":3619,"elius":3620,"Ġeverybody":3621,"Ġamaz":3622,"Ġimpression":3623,"Ġsurv":3624,"ĠStan":3625,"Ġfamous":3626,"Ġdetention":3627,"Ġlowered":3628,"Ġlanding":3629,"Ġconcern":3630,"Ġgrip":3631,"Ġcalmly":3632,"Ġdelighted":3633,"Ġsmooth":3634,"Ġhigher":3635,"Ġspectac":3636,"Ne":3637,"bers":3638,"bidden":3639,"ivering":3640,"Ġfier":3641,"oof":3642,"ĠWould":3643,"ores":3644,"ific":3645,"Ġgoal":3646,"Ġabrup":3647,"Ġknowing":3648,"ieved":3649,"Ġsmoke":3650,"action":3651,"ĠGryffindors":3652,"Ġlift":3653,"Ġpersu":3654,"ivination":3655,"Ġdefe":3656,"Ġdestroy":3657,"His":3658,"ipping":3659,"pose":3660,"Ġtest":3661,"Ġwings":3662,"Ġug":3663,"unted":3664,"ĠFin":3665,"Ġpoison":3666,"Ġlikely":3667,"Ġconce":3668,"Ġscene":3669,"Ġgrand":3670,"olved":3671,"Ġhurry":3672,"Ġfinal":3673,"Ġjoke":3674,"issa":3675,"ĠPerhaps":3676,"Ġexpelled":3677,"Ġresp":3678,"Ġincred":3679,"Ġserious":3680,"Ġwritten":3681,"Ġanxiously":3682,"ĠDisapp":3683,"Ġclothes":3684,"You":3685,"ines":3686,"arr":3687,"attering":3688,"Ġmine":3689,"Ġmoney":3690,"Ġproud":3691,"vey":3692,"Ġstick":3693,"agon":3694,"pper":3695,"ĠBor":3696,"ĠCon":3697,"Ġwerewo":3698,"ils":3699,"Ġanywhere":3700,"Ġtwins":3701,"Ġsometimes":3702,"Ġremo":3703,"Ġsilvery":3704,"Ġfourth":3705,"Ġcreature":3706,"while":3707,"Ġfavorite":3708,"Ġpriv":3709,"arcissa":3710,"ossible":3711,"ĠCornelius":3712,"Ġwerewolf":3713,"OO":3714,"lcome":3715,"tor":3716,"Ġserv":3717,"Ġmood":3718,"Ġlawn":3719,"Ġpill":3720,"Ġgul":3721,"Ġgigg":3722,"irst":3723,"ĠMost":3724,"Ġweight":3725,"ĠBath":3726,"ĠCol":3727,"Ġlie":3728,"Ġspider":3729,"Ġblond":3730,"Ġflung":3731,"Ġhappening":3732,"Ġbrown":3733,"Ġclean":3734,"Ġcleared":3735,"Ġcorre":3736,"ensieve":3737,"Ġdragged":3738,"ĠOnce":3739,"ounced":3740,"Ġrubb":3741,"Ġescaped":3742,"Ġdesperately":3743,"Ġpanic":3744,"Ġinnoc":3745,"Ġoccasion":3746,"ĠTransfiguration":3747,"ĠAberforth":3748,"asted":3749,"Ġmum":3750,"Ġstream":3751,"ĠDivination":3752,"aging":3753,"ĠBy":3754,"Ġdozen":3755,"ĠCould":3756,"Ġfeast":3757,"ĠLady":3758,"isting":3759,"Ġalthough":3760,"Ġheading":3761,"ogriff":3762,"Ġloads":3763,"Ġimpossible":3764,"Ġbelieved":3765,"Ġforwards":3766,"Ġdistance":3767,"Ġmembers":3768,"cuse":3769,"rawp":3770,"Ġmovement":3771,"Ġmistake":3772,"Ġdirectly":3773,"Ġprotection":3774,"Ġdouble":3775,"Ġmissing":3776,"ING":3777,"ippogriff":3778,"Ġsuggested":3779,"Ġbreaking":3780,"Ġagreed":3781,"Ġfierce":3782,"cto":3783,"father":3784,"good":3785,"Ġben":3786,"Ġpanted":3787,"irt":3788,"uttered":3789,"urm":3790,"ĠPensieve":3791,"ember":3792,"Ġfee":3793,"udo":3794,"Ġuncle":3795,"bbly":3796,"Ġpeering":3797,"ĠNobody":3798,"Ġopening":3799,"osen":3800,"Ġnearby":3801,"ĠSomeone":3802,"Ġscrat":3803,"Ġattempted":3804,"Ġgener":3805,"Ġugly":3806,"ĠDisappar":3807,"nze":3808,"Ġtreat":3809,"Ġfury":3810,"Ġpou":3811,"Ġstation":3812,"oose":3813,"Ġ.'":3814,"unity":3815,"umbling":3816,"udblood":3817,"Ġblind":3818,"Ġglance":3819,"Ġbrand":3820,"Ġsquare":3821,"ĠDidn":3822,"Ġlocked":3823,"Ġchildren":3824,"Ġcurtains":3825,"ĠBorgin":3826,"ĠBathilda":3827,"We":3828,"mer":3829,"Ġwished":3830,"ĠHad":3831,"ature":3832,"Ġcas":3833,"urity":3834,"ĠBr":3835,"unks":3836,"ĠLike":3837,"ĠNarcissa":3838,"Ġva":3839,"Ġexch":3840,"Ġplain":3841,"Ġglancing":3842,"Ġeverywhere":3843,"Ġharder":3844,"Ġindign":3845,"ertainly":3846,"Ġuncomfort":3847,"Ġexplained":3848,"Ġtouched":3849,"Ġgoblins":3850,"Ġshocked":3851,"ĠLovegood":3852,"mist":3853,"tling":3854,"Ġaim":3855,"Ġdim":3856,"Ġpaused":3857,"ĠMarge":3858,"amm":3859,"terbe":3860,"Ġrage":3861,"iles":3862,"ourney":3863,"ĠOg":3864,"Ġchairs":3865,"elw":3866,"estly":3867,"Ġtrack":3868,"Ġraising":3869,"ĠAlley":3870,"Ġdragons":3871,"Ġmarched":3872,"Ġaccident":3873,"Ġconfused":3874,"Ġhundreds":3875,"Ġhoped":3876,"Ġanxious":3877,"Ġbasin":3878,"Ġconvin":3879,"ĠGalleons":3880,"LL":3881,"aved":3882,"lum":3883,"ov":3884,"zz":3885,"lly":3886,"Ġmain":3887,"Ġmount":3888,"Ġsad":3889,"ety":3890,"Ġant":3891,"ĠGrawp":3892,"Ġspace":3893,"anging":3894,"angled":3895,"ondon":3896,"auld":3897,"Ġflash":3898,"uffy":3899,"ĠMcL":3900,"Ġsquee":3901,"Ġinstruct":3902,"Ġdrop":3903,"Ġdived":3904,"ĠFirenze":3905,"Ġtriump":3906,"Ġstruggling":3907,"Ġdemanded":3908,"Ġprevious":3909,"ĠWorld":3910,"aud":3911,"fin":3912,"gar":3913,"hus":3914,"ob":3915,"Ġtap":3916,"Ġwave":3917,"Ġfair":3918,"Ġpen":3919,"oted":3920,"ĠSorting":3921,"agged":3922,"rier":3923,"Ġjourney":3924,"Ġvague":3925,"Ġexh":3926,"Ġtele":3927,"Ġorder":3928,"Ġtwisted":3929,"Ġcontact":3930,"Ġwrite":3931,"Ġfinish":3932,"ĠGrind":3933,"Ġleaves":3934,"Ġgaze":3935,"Ġinteresting":3936,"Ġchecking":3937,"Ġshadows":3938,"Ġimagine":3939,"ĠImper":3940,"aggen":3941,"Ġfaint":3942,"Ġcounter":3943,"ĠGodric":3944,"ĠColin":3945,"ĠMcLaggen":3946,"iry":3947,"pes":3948,"Ġsour":3949,"Ġtoad":3950,"Ġmakes":3951,"Ġlim":3952,"usion":3953,"Ġstro":3954,"Ġstir":3955,"ĠMudblood":3956,"ading":3957,"ayed":3958,"ĠCreat":3959,"ĠLudo":3960,"ules":3961,"Ġtherefore":3962,"ĠEn":3963,"imey":3964,"aping":3965,"bbled":3966,"Ġsmir":3967,"Ġdoorway":3968,"Ġdesp":3969,"Ġwhisp":3970,"ĠYeh":3971,"Ġsettled":3972,"ĠHallows":3973,"Ġvisible":3974,"Ġripped":3975,"Ġbuild":3976,"Ġburned":3977,"Ġscramb":3978,"Ġchoice":3979,"Ġswallowed":3980,"Ġfireplace":3981,"aun":3982,"cise":3983,"well":3984,"Ġbother":3985,"ĠHalf":3986,"iders":3987,"Ġlad":3988,"Ġlower":3989,"using":3990,"Ġshudd":3991,"iful":3992,"ĠOW":3993,"Ġpop":3994,"Ġgets":3995,"Ġkeen":3996,"Ġspeed":3997,"Ġnewsp":3998,"Ġbroad":3999,"Ġuseful":4000,"Ġgazed":4001,"Ġexpecting":4002,"ĠPrince":4003,"Ġfailed":4004,"Ġignored":4005,"Ġechoing":4006,"Ġmurmured":4007,"Ġarmchair":4008,"ĠCreatures":4009,"ded":4010,"par":4011,"Ġtired":4012,"Ġwet":4013,"inger":4014,"Ġbul":4015,"ities":4016,"llus":4017,"Ġdressed":4018,"Ġpanting":4019,"Ġinch":4020,"Ġstrid":4021,"Ġstruck":4022,"ĠMur":4023,"Ġnotes":4024,"Ġfeather":4025,"Ġvi":4026,"Ġyours":4027,"Ġunw":4028,"Ġslip":4029,"Ġgrinned":4030,"olute":4031,"Ġkey":4032,"Ġsecurity":4033,"Ġawake":4034,"strang":4035,"Ġcountry":4036,"Ġappearance":4037,"Ġunpleasant":4038,"Ġbrilliant":4039,"Ġbaby":4040,"urmstrang":4041,"ĠOgden":4042,"ST":4043,"tles":4044,"Ġsway":4045,"Ġwren":4046,"Ġcaused":4047,"Ġdu":4048,"Ġpin":4049,"ache":4050,"usted":4051,"ĠSatur":4052,"ĠSomething":4053,"ĠWH":4054,"ĠDurmstrang":4055,"ooked":4056,"Ġkicked":4057,"ĠGot":4058,"Ġjud":4059,"ĠLondon":4060,"cked":4061,"Ġbacked":4062,"Ġleaning":4063,"Ġexcellent":4064,"Ġnodding":4065,"Ġdev":4066,"Ġteaching":4067,"Ġplate":4068,"Then":4069,"Ġenvelo":4070,"Ġpeered":4071,"Ġmuff":4072,"Ġlights":4073,"fortun":4074,"Ġbuy":4075,"ĠPlace":4076,"Ġsuggest":4077,"Ġmagn":4078,"ĠBurrow":4079,"Ġstatue":4080,"Ġreceived":4081,"Ġtriumph":4082,"ĠSaturday":4083,"In":4084,"RY":4085,"aj":4086,"bat":4087,"sand":4088,"uce":4089,"Ġslo":4090,"arters":4091,"ĠHist":4092,"Ġcrying":4093,"Ġpump":4094,"Ġgest":4095,"Ġbeaut":4096,"Ġreapp":4097,"illing":4098,"logy":4099,"Ġthousand":4100,"Ġlevel":4101,"Ġexist":4102,"Ġconst":4103,"gged":4104,"Ġprefer":4105,"Ġsneak":4106,"Ġhandsome":4107,"awkes":4108,"Ġdistinct":4109,"Ġsweat":4110,"Ġexamining":4111,"Ġeasily":4112,"Ġtort":4113,"Ġpunish":4114,"Ġpretending":4115,"ĠFrank":4116,"Ġattempting":4117,"Ġtower":4118,"Ġcryst":4119,"elwald":4120,"ĠGrindelwald":4121,"bow":4122,"over":4123,"Ġrough":4124,"Ġwife":4125,"Ġbrave":4126,"Ġcrou":4127,"Ġdirty":4128,"Ġleng":4129,"Ġthunder":4130,"acket":4131,"Ġshif":4132,"Ġkiss":4133,"ĠBul":4134,"Ġknife":4135,"Ġchar":4136,"Ġplaces":4137,"Ġwanting":4138,"Ġdesce":4139,"Ġwizarding":4140,"Ġenthus":4141,"Ġstands":4142,"Ġwrote":4143,"Ġfellow":4144,"Ġcontinue":4145,"Ġaccomp":4146,"Ġfigures":4147,"Ġtemper":4148,"Ġessay":4149,"ĠPeople":4150,"quirement":4151,"Ġabruptly":4152,"ĠHistory":4153,"Ġreappe":4154,"ED":4155,"For":4156,"No":4157,"ris":4158,"Ġtournament":4159,"Ġaunt":4160,"Ġbought":4161,"Ġtoile":4162,"orough":4163,"Ġdying":4164,"Ġthorough":4165,"Ġpick":4166,"Ġpushing":4167,"Ġstad":4168,"Ġstorm":4169,"ĠMust":4170,"ĠSp":4171,"ĠTell":4172,"ĠDi":4173,"uries":4174,"umed":4175,"aker":4176,"Ġjus":4177,"Ġlives":4178,"ults":4179,"Ġsuit":4180,"Ġunus":4181,"ops":4182,"Ġsmashed":4183,"angling":4184,"Ġglaring":4185,"Ġcurled":4186,"Ġcalling":4187,"iping":4188,"Ġhelping":4189,"Ġclasses":4190,"Ġdifficul":4191,"Ġdesperate":4192,"Ġinnocent":4193,"terbeer":4194,"Ġinstructions":4195,"Ġviol":4196,"Ġstadium":4197,"Ġdifficulty":4198,"ech":4199,"ige":4200,"oenix":4201,"we":4202,"word":4203,"Ġhippogriff":4204,"ĠHat":4205,"Ġdrif":4206,"Ġgn":4207,"Ġgrew":4208,"omed":4209,"Ġearn":4210,"Ġstare":4211,"Ġstiff":4212,"icorn":4213,"ĠST":4214,"ĠRos":4215,"Ġsocks":4216,"Ġval":4217,"Ġdeli":4218,"ĠElder":4219,"eless":4220,"Ġhandle":4221,"Ġglow":4222,"Ġfloating":4223,"Ġcrash":4224,"Ġclearing":4225,"Ġfinding":4226,"ansy":4227,"Ġdecide":4228,"Ġindic":4229,"cient":4230,"Ġsweet":4231,"ĠRequirement":4232,"Ġphoenix":4233,"Ġcolored":4234,"Ġillumin":4235,"immauld":4236,"Ġwildly":4237,"Ġorders":4238,"Ġeleven":4239,"Ġurg":4240,"Ġremoved":4241,"sure":4242,"Ġtied":4243,"Ġdull":4244,"Ġdancing":4245,"Ġdementor":4246,"Ġlap":4247,"Ġgig":4248,"acour":4249,"oop":4250,"ĠMac":4251,"Ġweird":4252,"Ġaston":4253,"ĠAN":4254,"Ġsepar":4255,"ĠTheir":4256,"ĠOut":4257,"ĠOcc":4258,"Ġroar":4259,"Ġoverhead":4260,"Ġglimp":4261,"tend":4262,"Ġcontr":4263,"Ġenter":4264,"ĠStill":4265,"Ġboard":4266,"Ġpossibly":4267,"ĠHeadmaster":4268,"Ġsimple":4269,"Ġmurder":4270,"Ġchampion":4271,"ĠKeeper":4272,"Ġdrawn":4273,"ĠDelacour":4274,"ĠMorfin":4275,"ĠOWL":4276,"Ġstriding":4277,"Ġcrystal":4278,"EN":4279,"Ġtaught":4280,"Ġwi":4281,"arse":4282,"ĠHi":4283,"Ġdue":4284,"Ġgently":4285,"Ġstars":4286,"Ġstunned":4287,"ĠAcc":4288,"ĠPansy":4289,"ĠHello":4290,"Ġupset":4291,"Ġrum":4292,"ĠFel":4293,"ĠNige":4294,"Ġvar":4295,"ĠOF":4296,"Ġconj":4297,"Ġscree":4298,"ĠKing":4299,"Ġgrin":4300,"Ġeng":4301,"sidered":4302,"Ġlose":4303,"uddy":4304,"ĠGrimmauld":4305,"Ġbadge":4306,"Ġanswered":4307,"Ġstaying":4308,"Ġcompany":4309,"Ġdreams":4310,"Ġplanning":4311,"Ġsleeping":4312,"Ġclutched":4313,"Ġbattle":4314,"Ġcircle":4315,"ĠSeeker":4316,"Ġmentioned":4317,"Ġtransform":4318,"Ġfrozen":4319,"ĠRemus":4320,"ĠNorris":4321,"Ġrolling":4322,"Ġsqueaked":4323,"Ġfilthy":4324,"Ġcarriage":4325,"Ġwhistle":4326,"Ġexperi":4327,"iktor":4328,"Ġrubbish":4329,"Ġgigantic":4330,"ĠNigellus":4331,"ibb":4332,"kn":4333,"kward":4334,"Ġbod":4335,"Ġbald":4336,"Ġfully":4337,"ittle":4338,"asy":4339,"Ġyawn":4340,"Ġeating":4341,"ĠSqu":4342,"ĠTw":4343,"Ġwelcome":4344,"Ġrese":4345,"rian":4346,"Ġanim":4347,"une":4348,"ĠCare":4349,"Ġrust":4350,"Ġjet":4351,"Ġconsidered":4352,"Ġflick":4353,"Ġclock":4354,"Ġprevent":4355,"Ġbecoming":4356,"Ġlosing":4357,"Ġskull":4358,"aws":4359,"Ġbreathed":4360,"Ġbrooms":4361,"Ġoddly":4362,"Ġdifference":4363,"Ġsprinted":4364,"Ġmidnight":4365,"Ġdiscovered":4366,"Ġstruggled":4367,"Ġwonderful":4368,"Ġsurrounded":4369,"ĠAuror":4370,"Ġprivate":4371,"Ġconvinced":4372,"With":4373,"cher":4374,"low":4375,"line":4376,"son":4377,"ule":4378,"Ġtunn":4379,"Ġwound":4380,"res":4381,"Ġblo":4382,"Ġfought":4383,"Ġcoo":4384,"Ġcamp":4385,"lebr":4386,"ution":4387,"stri":4388,"Ġself":4389,"Ġsending":4390,"ĠGaunt":4391,"Ġneat":4392,"Ġrisk":4393,"arty":4394,"Ġages":4395,"Ġchuck":4396,"Ġspiders":4397,"Ġunicorn":4398,"Ġwhenever":4399,"aux":4400,"rubbly":4401,"Ġterror":4402,"Ġsupport":4403,"Ġstudy":4404,"Ġgreet":4405,"Ġmemories":4406,"Ġawkward":4407,"Ġstuffed":4408,"Ġstreng":4409,"axley":4410,"Ġconsider":4411,"Ġobvious":4412,"ĠSecrets":4413,"ĠFrom":4414,"Ġreminded":4415,"Ġpowers":4416,"Ġmotion":4417,"Ġcroaked":4418,"ceeded":4419,"Ġzoomed":4420,"Ġdisappointed":4421,"Ġinterrupted":4422,"iel":4423,"Ġtongue":4424,"Ġwis":4425,"Ġhorn":4426,"Ġbust":4427,"Ġbowed":4428,"Ġtot":4429,"Ġcow":4430,"Ġdry":4431,"Ġlaid":4432,"Ġner":4433,"Ġstate":4434,"ĠPig":4435,"ĠFe":4436,"ĠFigg":4437,"Ġunlike":4438,"ogg":4439,"Ġgrown":4440,"Ġgrate":4441,"bert":4442,"Ġhoarse":4443,"Ġdrown":4444,"ĠStand":4445,"reaked":4446,"ensive":4447,"Ġdeeper":4448,"Ġstraightened":4449,"ĠReally":4450,"Ġcelebr":4451,"Ġportraits":4452,"ĠPlank":4453,"Ġmessage":4454,"Ġcrept":4455,"Ġsurrounding":4456,"What":4457,"Ġshrugged":4458,"Ġfolded":4459,"dge":4460,"ky":4461,"Ġid":4462,"ert":4463,"Ġbrief":4464,"ĠHoo":4465,"ĠHollow":4466,"Ġdaz":4467,"omm":4468,"ooking":4469,"Ġfort":4470,"ĠBroom":4471,"ĠFawkes":4472,"Ġgoes":4473,"Ġiss":4474,"ĠOU":4475,"Ġsucc":4476,"Ġconn":4477,"ĠViktor":4478,"estr":4479,"Ġclen":4480,"Ġmod":4481,"Ġglared":4482,"uffled":4483,"ordan":4484,"Ġcontents":4485,"ungo":4486,"Ġcracked":4487,"Ġclever":4488,"ails":4489,"ĠBeaux":4490,"Ġdisturb":4491,"Ġhorse":4492,"Ġrefused":4493,"Ġreport":4494,"Ġerup":4495,"Ġwarned":4496,"Ġfifth":4497,"Ġsunlight":4498,"Ġimagined":4499,"Ġspiral":4500,"Ġsparks":4501,"Ġsleeve":4502,"Ġprepared":4503,"Ġapplause":4504,"Ġentirely":4505,"ĠRegulus":4506,"Ġincluding":4507,"merta":4508,"Ġvault":4509,"Ġscrambled":4510,"Ġnewspaper":4511,"ĠMuriel":4512,"Ġmuffled":4513,"ĠDiagon":4514,"bel":4515,"uly":4516,"Ġic":4517,"Ġtill":4518,"Ġsinging":4519,"Ġbank":4520,"ĠHang":4521,"Ġcard":4522,"Ġdashed":4523,"irling":4524,"ented":4525,"Ġshoot":4526,"ĠYaxley":4527,"Ġris":4528,"Ġlip":4529,"Ġscra":4530,"Ġtrunks":4531,"Ġgras":4532,"Ġswell":4533,"Ġdism":4534,"ĠBlimey":4535,"ugged":4536,"ĠPeter":4537,"Ġdropping":4538,"Ġinterv":4539,"Ġcenter":4540,"aturally":4541,"Ġmarks":4542,"Mrs":4543,"Ġevidence":4544,"Ġstaggered":4545,"Ġbitterly":4546,"Ġvaguely":4547,"Ġwhispering":4548,"Ġenvelope":4549,"batons":4550,"Ġtoilet":4551,"Ġthoroughly":4552,"ĠHooch":4553,"ĠBeauxbatons":4554,"On":4555,"aim":4556,"ground":4557,"ixt":4558,"mp":4559,"Ġamb":4560,"Ġwid":4561,"Ġfal":4562,"Ġcapt":4563,"Ġcausing":4564,"Ġdawn":4565,"Ġbeak":4566,"ĠTake":4567,"ĠTournament":4568,"ĠAd":4569,"illed":4570,"Ġshr":4571,"Ġshown":4572,"ĠBoth":4573,"ĠGreg":4574,"ĠGrubbly":4575,"Ġrap":4576,"ĠFirst":4577,"top":4578,"ĠLestr":4579,"ĠNO":4580,"astically":4581,"que":4582,"Ġaband":4583,"Ġroad":4584,"Ġaloud":4585,"Ġchin":4586,"Ġblow":4587,"Ġscow":4588,"Ġclapped":4589,"aptain":4590,"Ġflood":4591,"Ġclosing":4592,"Ġbringing":4593,"Ġprog":4594,"Ġbottles":4595,"Ġdarkly":4596,"Ġimpressed":4597,"ĠJordan":4598,"ission":4599,"Ġboat":4600,"Ġincre":4601,"Ġcrowded":4602,"ĠExp":4603,"Ġkindly":4604,"Ġrelieved":4605,"steries":4606,"Ġbrothers":4607,"Ġeggs":4608,"Ġpretend":4609,"Ġadmit":4610,"Ġbewild":4611,"arrass":4612,"Ġlength":4613,"An":4614,"iver":4615,"min":4616,"Ġwed":4617,"Ġwore":4618,"Ġfang":4619,"ĠHE":4620,"Ġpred":4621,"Ġpicking":4622,"icia":4623,"ĠMungo":4624,"ĠSure":4625,"ĠTO":4626,"Ġwear":4627,"Ġash":4628,"Ġrequ":4629,"ĠArian":4630,"ĠGive":4631,"Ġrules":4632,"Ġhanding":4633,"Ġscri":4634,"Ġplenty":4635,"Ġplates":4636,"aughter":4637,"arsh":4638,"Ġspecial":4639,"ĠChas":4640,"Ġprison":4641,"Ġneeds":4642,"Ġamount":4643,"Ġolder":4644,"Ġended":4645,"Ġcurious":4646,"Ġpleasure":4647,"ĠAlicia":4648,"Ġexams":4649,"Ġchecked":4650,"Ġopport":4651,"Ġfamilies":4652,"Ġdiscuss":4653,"Ġmassive":4654,"Ġseventh":4655,"Ġtraveling":4656,"Ġwrapped":4657,"Ġspectacles":4658,"Ġcorrect":4659,"ajam":4660,"ĠOcclum":4661,"Ġtunnel":4662,"ĠAriana":4663,"Malfoy":4664,"dy":4665,"lve":4666,"oh":4667,"wid":4668,"Ġaut":4669,"Ġsink":4670,"Ġwiping":4671,"Ġhate":4672,"arger":4673,"Ġfan":4674,"ĠHA":4675,"ato":4676,"ator":4677,"Ġcous":4678,"asantly":4679,"Ġmumbled":4680,"Ġsav":4681,"Ġstu":4682,"Ġweather":4683,"outs":4684,"urg":4685,"Ġank":4686,"Ġsea":4687,"amped":4688,"ledge":4689,"ĠHey":4690,"ĠBarty":4691,"Ġgod":4692,"Ġoffered":4693,"Ġbye":4694,"ivered":4695,"Ġcomes":4696,"Ġbrisk":4697,"ĠDoge":4698,"Ġkeeps":4699,"Ġraise":4700,"aze":4701,"ĠBefore":4702,"Ġdecis":4703,"Ġknocking":4704,"Ġbowl":4705,"Ġgrimly":4706,"Ġcentaurs":4707,"Ġirritably":4708,"Ġpounding":4709,"ovitch":4710,"olutely":4711,"Ġaccompan":4712,"co":4713,"ec":4714,"lish":4715,"now":4716,"pted":4717,"Ġident":4718,"heard":4719,"ini":4720,"Ġsong":4721,"rer":4722,"oning":4723,"ĠHigh":4724,"atively":4725,"itude":4726,"Ġhex":4727,"Ġlarger":4728,"Ġpool":4729,"Ġpages":4730,"Ġpajam":4731,"otting":4732,"Ġbear":4733,"Ġstar":4734,"ooping":4735,"ĠMo":4736,"uttering":4737,"Ġweap":4738,"adem":4739,"agog":4740,"ries":4741,"chief":4742,"Ġsearch":4743,"ĠCatter":4744,"Ġvast":4745,"Ġvict":4746,"Ġroots":4747,"Ġnowhere":4748,"Ġeyed":4749,"Ġblame":4750,"Ġblinked":4751,"Ġarr":4752,"Ġaccept":4753,"Ġsilently":4754,"unged":4755,"Ġimpro":4756,"onscious":4757,"Ġcuriously":4758,"Ġsteal":4759,"Ġcarp":4760,"Ġdistracted":4761,"Ġcoat":4762,"Ġpainful":4763,"anches":4764,"Ġburied":4765,"ĠExcellent":4766,"Ġmatters":4767,"Ġserp":4768,"Ġrubbing":4769,"Ġgiants":4770,"Ġcollap":4771,"Ġoccurred":4772,"Ġbarrier":4773,"Ġignoring":4774,"Ġdusty":4775,"Ġreplied":4776,"theless":4777,"ribly":4778,"Ġembarrass":4779,"Ġcentaur":4780,"Ġpersuade":4781,"Ġfiercely":4782,"ĠImperius":4783,"Ġwrenched":4784,"ĠRosmerta":4785,"oggart":4786,"ĠCatterm":4787,"If":4788,"ract":4789,"Ġutter":4790,"Ġband":4791,"Ġfake":4792,"ĠHorn":4793,"Ġcell":4794,"asc":4795,"Ġstern":4796,"Ġrele":4797,"ĠAb":4798,"Ġshape":4799,"ĠBet":4800,"ĠBoy":4801,"ĠBinn":4802,"Ġneigh":4803,"Ġshelves":4804,"ĠLittle":4805,"ĠOff":4806,"Ġdel":4807,"ĠWhich":4808,"igan":4809,"Ġchosen":4810,"auldron":4811,"Ġflight":4812,"ĠUnder":4813,"Ġremaining":4814,"Ġspeech":4815,"Ġbranches":4816,"Ġwrist":4817,"Ġsetting":4818,"retched":4819,"Ġstayed":4820,"Ġswear":4821,"Ġbush":4822,"bology":4823,"Ġregret":4824,"Ġsafely":4825,"This":4826,"Ġseventeen":4827,"Ġfoolish":4828,"Ġdreadful":4829,"Ġappreci":4830,"Ġnoises":4831,"Ġbeautiful":4832,"Ġidi":4833,"widgeon":4834,"Ġgodfather":4835,"book":4836,"Ġourse":4837,"Ġach":4838,"erth":4839,"Ġborrow":4840,"Ġcaut":4841,"asing":4842,"orovitch":4843,"Ġden":4844,"Ġpu":4845,"Ġnon":4846,"otion":4847,"omas":4848,"Ġbeamed":4849,"use":4850,"robe":4851,"ĠMap":4852,"uture":4853,"ĠWait":4854,"Ġwitness":4855,"ĠPort":4856,"ĠPark":4857,"ĠPho":4858,"Ġshake":4859,"Ġshrill":4860,"ĠCauldron":4861,"Ġrush":4862,"Ġlies":4863,"ulously":4864,"Ġknowledge":4865,"ĠIts":4866,"Ġspun":4867,"icken":4868,"Ġplans":4869,"ĠThomas":4870,"Ġartic":4871,"idding":4872,"Ġways":4873,"Ġdesc":4874,"Ġdesire":4875,"Ġarmor":4876,"Ġsniff":4877,"ĠDoes":4878,"Ġmeaning":4879,"ĠAragog":4880,"Ġrespect":4881,"ĠMysteries":4882,"Ġinstantly":4883,"Ġforever":4884,"Ġstartled":4885,"Ġmember":4886,"Ġinsides":4887,"Ġyounger":4888,"Ġcollect":4889,"ĠHerbology":4890,"Ġpictures":4891,"Ġthrust":4892,"Ġvelve":4893,"Ġintrod":4894,"Ġrecognize":4895,"Ġbackwards":4896,"Ġglee":4897,"Ġenjoying":4898,"Ġbleeding":4899,"ottage":4900,"Ġthreatening":4901,"Ġsnatched":4902,"ĠFinally":4903,"ĠConf":4904,"Ġwedding":4905,"ĠOcclumency":4906,"ĠCattermole":4907,"ĠBinns":4908,"Ġourselves":4909,"ĠParkins":4910,"ĠPhoenix":4911,"Every":4912,"Ġtapped":4913,"Ġsides":4914,"Ġwoke":4915,"Ġhated":4916,"Ġbuck":4917,"Ġlined":4918,"Ġthir":4919,"Ġpet":4920,"Ġgarg":4921,"Ġbearing":4922,"Ġwhipped":4923,"ĠTed":4924,"kend":4925,"Ġseve":4926,"ume":4927,"ilty":4928,"ilisk":4929,"Ġabou":4930,"Ġchamber":4931,"Ġchocolate":4932,"Ġchanging":4933,"Ġblast":4934,"Ġgotten":4935,"Ġorange":4936,"Ġmoaned":4937,"Ġcomment":4938,"ĠDec":4939,"Ġprodu":4940,"ording":4941,"ruci":4942,"Ġpassword":4943,"Ġcrump":4944,"Ġbeds":4945,"Ġsuppor":4946,"ilder":4947,"Ġskrew":4948,"shot":4949,"lier":4950,"Ġsigns":4951,"rawled":4952,"Ġbreathlessly":4953,"Ġplayed":4954,"Ġunconscious":4955,"Ġyelling":4956,"Ġevil":4957,"Ġdisappear":4958,"Ġtransp":4959,"Ġextraord":4960,"Ġcircular":4961,"Ġcandle":4962,"Ġenchant":4963,"Ġsearching":4964,"Ġindignantly":4965,"ĠBulgar":4966,"Ġstrength":4967,"ĠBroomstick":4968,"Ġicy":4969,"Ġbewildered":4970,"Ġneighb":4971,"ES":4972,"RI":4973,"St":4974,"Un":4975,"olo":4976,"Ġhouses":4977,"Ġfaded":4978,"atically":4979,"isc":4980,"Ġlump":4981,"Ġpurs":4982,"ales":4983,"ĠRo":4984,"Ġforcing":4985,"Ġshaped":4986,"Ġfrag":4987,"ift":4988,"Ġjuice":4989,"umble":4990,"ustr":4991,"quis":4992,"antically":4993,"ĠOur":4994,"ĠOwl":4995,"Ġagree":4996,"Ġsuper":4997,"Ġspoken":4998,"ĠEnt":4999,"apers":5000,"Ġgrunted":5001,"Ġbrains":5002,"Ġgreatest":5003,"ugging":5004,"Ġsitu":5005,"avior":5006,"ship":5007,"Ġlistened":5008,"Ġstopping":5009,"Ġvision":5010,"Ġweekend":5011,"Ġhopefully":5012,"Ġsweeping":5013,"ĠJustin":5014,"Ġpresence":5015,"Ġsprang":5016,"Ġpieces":5017,"intment":5018,"Ġbarked":5019,"Ġballs":5020,"Ġquills":5021,"Ġblankly":5022,"Ġcabinet":5023,"ĠMaraud":5024,"Ġdisgust":5025,"Ġreplaced":5026,"Ġpermission":5027,"Ġimmense":5028,"Ġinjured":5029,"Ġcheek":5030,"Ġdamage":5031,"Ġconcerned":5032,"Ġbodies":5033,"Ġclenched":5034,"ĠGregorovitch":5035,"ĠParkinson":5036,"ilderoy":5037,"CK":5038,"Fred":5039,"Ġbigg":5040,"Ġfail":5041,"itor":5042,"Ġcave":5043,"Ġheight":5044,"Ġheaved":5045,"Ġlines":5046,"Ġthud":5047,"Ġbeating":5048,"aler":5049,"stead":5050,"redi":5051,"Ġframe":5052,"Ġdod":5053,"ĠCl":5054,"anding":5055,"Ġrise":5056,"ĠFine":5057,"Ġallow":5058,"ĠNamed":5059,"Ġsoaring":5060,"Ġexcuse":5061,"ouring":5062,"Ġspat":5063,"Ġtraining":5064,"olen":5065,"Ġloss":5066,"hens":5067,"Ġcurses":5068,"umping":5069,"erva":5070,"Ġcloaks":5071,"Ġdiadem":5072,"Ġhats":5073,"Ġpockets":5074,"abbed":5075,"Ġchoked":5076,"Ġingredi":5077,"Ġalarmed":5078,"Ġcheerful":5079,"Ġpublic":5080,"Ġevidently":5081,"Ġexploded":5082,"Ġjerked":5083,"Ġannoyed":5084,"Ġfocus":5085,"Ġexchanged":5086,"fortunately":5087,"Ġinterview":5088,"bag":5089,"spect":5090,"ught":5091,"uch":5092,"Ġice":5093,"Ġtick":5094,"Ġsinking":5095,"Ġwar":5096,"Ġhic":5097,"Ġhill":5098,"Ġfoul":5099,"Ġtore":5100,"iting":5101,"itching":5102,"Ġdance":5103,"Ġlab":5104,"Ġpuff":5105,"Ġgate":5106,"Ġginger":5107,"Ġequ":5108,"Ġstolen":5109,"Ġreck":5110,"Ġancient":5111,"ĠPre":5112,"ĠThestr":5113,"ĠBE":5114,"Ġoutst":5115,"ĠCree":5116,"ĠCaptain":5117,"ĠYet":5118,"Ġfeat":5119,"Ġsobbing":5120,"Ġsobbed":5121,"quid":5122,"Ġtear":5123,"Ġchose":5124,"Ġhandker":5125,"Ġclue":5126,"Ġbehavior":5127,"ĠNext":5128,"Ġaccus":5129,"Ġprick":5130,"ĠMinerva":5131,"Ġwaist":5132,"orses":5133,"Ġfeelings":5134,"Ġmustache":5135,"neath":5136,"Ġhorrified":5137,"Ġguilty":5138,"Ġacting":5139,"Ġmonster":5140,"abini":5141,"Ġhungry":5142,"Ġpromise":5143,"Ġsneered":5144,"Ġwardrobe":5145,"Ġsensation":5146,"Ġenchanted":5147,"Ġconcealed":5148,"Ġbuilding":5149,"Ġcoolly":5150,"Ġsuccess":5151,"Ġcousin":5152,"Ġcarpet":5153,"ĠEntrance":5154,"Ġhandkerchief":5155,"So":5156,"Sir":5157,"band":5158,"do":5159,"Ġtense":5160,"Ġwishing":5161,"Ġbull":5162,"Ġcared":5163,"Ġcush":5164,"idence":5165,"Ġdamp":5166,"Ġdaughter":5167,"Ġmate":5168,"Ġlaw":5169,"Ġpitched":5170,"Ġgates":5171,"iment":5172,"Ġstories":5173,"ĠTra":5174,"ĠRu":5175,"Ġnoticing":5176,"Ġnecess":5177,"ĠFinn":5178,"Ġalley":5179,"Ġliquid":5180,"ĠOver":5181,"Ġdeaf":5182,"Ġflow":5183,"olores":5184,"Ġcontem":5185,"Ġtalked":5186,"ĠQuibb":5187,"Ġimpress":5188,"ĠBlood":5189,"Ġgrey":5190,"Ġdecor":5191,"Ġdragging":5192,"Ġcatching":5193,"Ġtrip":5194,"Ġemerging":5195,"Ġstrangely":5196,"atural":5197,"Ġpackage":5198,"Ġpossession":5199,"ternational":5200,"Ġpassageway":5201,"ĠZabini":5202,"ĠPoly":5203,"Ġuncomfortable":5204,"Ġsource":5205,"Ġpumpkin":5206,"Ġenthusi":5207,"Ġerupted":5208,"Ġrapidly":5209,"Ġpajamas":5210,"ĠPortkey":5211,"Ġthirteen":5212,"ĠCreevey":5213,"Per":5214,"aa":5215,"cul":5216,"fa":5217,"iving":5218,"ives":5219,"juice":5220,"nes":5221,"time":5222,"uished":5223,"Ġsunk":5224,"Ġsilly":5225,"Ġwine":5226,"oub":5227,"Ġharm":5228,"Ġbree":5229,"ĠHor":5230,"Ġtoast":5231,"itation":5232,"Ġcra":5233,"Ġdate":5234,"Ġdangling":5235,"Ġlately":5236,"anwhile":5237,"ĠIN":5238,"etr":5239,"irled":5240,"ĠMore":5241,"ĠSna":5242,"ĠDolores":5243,"Ġreb":5244,"Ġwithd":5245,"terday":5246,"ĠBerth":5247,"ĠGilderoy":5248,"Ġjar":5249,"Ġjacket":5250,"Ġsofa":5251,"Ġoverheard":5252,"Ġposter":5253,"Ġspinning":5254,"ela":5255,"Ġscrew":5256,"Ġmyster":5257,"ĠThose":5258,"Ġtray":5259,"Ġprecise":5260,"ĠInternational":5261,"Ġbits":5262,"Ġlightning":5263,"lint":5264,"Ġrecord":5265,"Ġawful":5266,"Ġrigh":5267,"ĠShut":5268,"Ġexamination":5269,"ĠForbidden":5270,"Ġsafety":5271,"Ġtorn":5272,"Ġrattling":5273,"Ġweakly":5274,"Ġargum":5275,"Ġreveal":5276,"Ġfists":5277,"ĠSpells":5278,"Ġmiserable":5279,"Ġmiserably":5280,"Ġmurdered":5281,"Ġsquealed":5282,"Neville":5283,"Ġwiped":5284,"ĠPigwidgeon":5285,"Ġconnection":5286,"Ġopportunity":5287,"Ġbriskly":5288,"ĠMoaning":5289,"Ġweapon":5290,"Ġarticle":5291,"Ġextraordinary":5292,"ĠFinnigan":5293,"ĠPolyjuice":5294,"AS":5295,"CH":5296,"ET":5297,"GH":5298,"IT":5299,"cope":5300,"ipe":5301,"mn":5302,"my":5303,"wing":5304,"Ġille":5305,"Ġske":5306,"resh":5307,"Ġhorses":5308,"Ġbra":5309,"Ġbite":5310,"Ġfet":5311,"Ġfaster":5312,"Ġfash":5313,"ĠHas":5314,"ative":5315,"athered":5316,"Ġcru":5317,"Ġcough":5318,"asper":5319,"Ġdut":5320,"Ġpaid":5321,"esh":5322,"Ġgent":5323,"Ġgap":5324,"Ġyard":5325,"Ġsticking":5326,"ettle":5327,"Ġreply":5328,"ality":5329,"ĠRun":5330,"ackle":5331,"ĠBones":5332,"Ġoutr":5333,"ĠCruci":5334,"Ġknot":5335,"ĠNimb":5336,"Ġvic":5337,"Ġexasper":5338,"Ġnostri":5339,"Ġdelic":5340,"Ġcond":5341,"Ġblaz":5342,"estry":5343,"Ġclip":5344,"Ġclicked":5345,"Ġclamb":5346,"onday":5347,"Ġgrind":5348,"ĠMalfoys":5349,"Ġdisbel":5350,"ĠPotters":5351,"Ġloved":5352,"ĠDear":5353,"Ġbetr":5354,"Ġprospect":5355,"Ġproof":5356,"igned":5357,"iety":5358,"Ġretreat":5359,"Ġfriendly":5360,"ĠHallow":5361,"phone":5362,"Ġhorribly":5363,"Ġscreams":5364,"Ġhitting":5365,"Ġcompet":5366,"Ġarrival":5367,"Ġbags":5368,"Ġrounded":5369,"Ġsubst":5370,"Ġpurpose":5371,"Ġapproaching":5372,"Ġfaith":5373,"Ġsuspected":5374,"Ġeasier":5375,"Ġearlier":5376,"immering":5377,"Ġunex":5378,"ĠSmith":5379,"Ġrevol":5380,"Ġbench":5381,"zzled":5382,"Ġsadly":5383,"Ġsqueezed":5384,"ĠExpress":5385,"Ġfangs":5386,"Ġdecision":5387,"Ġaccompanied":5388,"ĠBroomsticks":5389,"ĠMarauder":5390,"Ġingredients":5391,"ĠTravers":5392,"ĠQuibbler":5393,"ĠBertha":5394,"Ġilleg":5395,"ĠNimbus":5396,"Voldemort":5397,"bed":5398,"hs":5399,"men":5400,"inion":5401,"Ġboot":5402,"Ġfart":5403,"Ġfond":5404,"issed":5405,"orce":5406,"lling":5407,"ids":5408,"Ġducked":5409,"Ġpier":5410,"Ġbeet":5411,"vern":5412,"ĠMal":5413,"ĠMag":5414,"uts":5415,"ĠWar":5416,"Ġreass":5417,"aying":5418,"Ġshield":5419,"Ġupside":5420,"Ġfrantically":5421,"Ġrows":5422,"Ġrub":5423,"tedly":5424,"ĠNice":5425,"Ġlikes":5426,"uded":5427,"ousand":5428,"Ġscan":5429,"Ġsliding":5430,"ĠThough":5431,"ĠThousand":5432,"Ġswooped":5433,"austed":5434,"Ġmanage":5435,"Ġunderneath":5436,"Ġappo":5437,"mbol":5438,"Ġdrank":5439,"ietta":5440,"Ġperched":5441,"nected":5442,"Ġcasting":5443,"Ġresent":5444,"Ġreturning":5445,"Ġinstant":5446,"Ġribs":5447,"ĠShould":5448,"Ġexamined":5449,"Ġexplan":5450,"Ġsooner":5451,"uthor":5452,"Ġsixth":5453,"Ġsixteen":5454,"Ġpressing":5455,"Ġveela":5456,"ĠSeveral":5457,"Ġignore":5458,"ĠParse":5459,"Ġdormitories":5460,"Ġfroze":5461,"Ġtrap":5462,"Ġpositively":5463,"Ġdressing":5464,"ĠApparate":5465,"Ġamongst":5466,"Ġgroaned":5467,"Ġjumping":5468,"Ġshadowy":5469,"Ġsymbol":5470,"Ġsuspicious":5471,"Ġcandles":5472,"Ġsatisfied":5473,"Ġreflected":5474,"Ġfeeble":5475,"ĠBrown":5476,"Ġtelephone":5477,"Ġilluminated":5478,"ĠLestrange":5479,"Ġashamed":5480,"Ġidiot":5481,"Ġvelvet":5482,"Ġsupporters":5483,"Ġoutstretched":5484,"Ġfashion":5485,"Be":5486,"Mad":5487,"lace":5488,"tin":5489,"uced":5490,"Ġhus":5491,"Ġbones":5492,"Ġoak":5493,"ashes":5494,"Ġhero":5495,"Ġhedge":5496,"Ġmoun":5497,"Ġtha":5498,"Ġpit":5499,"Ġpudd":5500,"Ġpush":5501,"Ġgang":5502,"Ġgather":5503,"Ġbending":5504,"ĠMonday":5505,"ĠSchool":5506,"ĠDO":5507,"Ġrever":5508,"ĠThese":5509,"unting":5510,"ĠCross":5511,"Ġrude":5512,"ĠFlint":5513,"Ġlied":5514,"Ġchat":5515,"Ġchain":5516,"Ġquivering":5517,"Ġuns":5518,"bbling":5519,"ĠThink":5520,"Ġtruly":5521,"Ġflashed":5522,"Ġflesh":5523,"Ġletting":5524,"mbled":5525,"ishly":5526,"Ġends":5527,"ĠStud":5528,"Ġsmaller":5529,"ĠAnother":5530,"Ġstead":5531,"Ġsteam":5532,"Ġkilling":5533,"Ġripp":5534,"Ġyesterday":5535,"Ġsentence":5536,"Ġnecklace":5537,"eaky":5538,"Ġfifteen":5539,"Ġinvolved":5540,"imming":5541,"Ġboxes":5542,"Ġordinary":5543,"Ġghosts":5544,"ĠMarietta":5545,"Ġprefects":5546,"Ġpowder":5547,"amming":5548,"Ġbulging":5549,"Ġunusual":5550,"Ġconjured":5551,"lowly":5552,"Ġcollapsed":5553,"Ġgentle":5554,"After":5555,"OM":5556,"TER":5557,"abby":5558,"end":5559,"gan":5560,"hind":5561,"ient":5562,"Ġver":5563,"Ġtart":5564,"Ġsigh":5565,"Ġfuture":5566,"atic":5567,"Ġcottage":5568,"Ġhem":5569,"Ġheels":5570,"enced":5571,"Ġpup":5572,"Ġhamm":5573,"Ġgathered":5574,"ĠInd":5575,"Ġbeckon":5576,"acle":5577,"icis":5578,"ĠWhe":5579,"ĠPad":5580,"Ġseizing":5581,"rous":5582,"Ġshivering":5583,"pef":5584,"ĠCertainly":5585,"ĠLeaky":5586,"Ġwhee":5587,"astic":5588,"quarters":5589,"Ġleather":5590,"Ġdept":5591,"Ġoffer":5592,"ĠEng":5593,"arent":5594,"ests":5595,"Ġclub":5596,"Ġslumped":5597,"Ġsmo":5598,"Ġtrace":5599,"Ġotherwise":5600,"Ġflame":5601,"Ġenem":5602,"Ġprove":5603,"Ġacce":5604,"Ġbedside":5605,"Ġsteady":5606,"liver":5607,"vision":5608,"Ġvisited":5609,"Ġpotions":5610,"Ġrelax":5611,"Ġmetal":5612,"Ġsuspe":5613,"Ġpracticing":5614,"Ġapolo":5615,"Ġcutting":5616,"Ġiron":5617,"ĠApparently":5618,"Ġnormally":5619,"Ġtrapped":5620,"Ġbasilisk":5621,"Ġstronger":5622,"Ġmotor":5623,"Ġsuspiciously":5624,"ĠAurors":5625,"Ġguessed":5626,"Ġhooded":5627,"Ġdestroyed":5628,"Ġpillow":5629,"mistress":5630,"Ġmountain":5631,"Ġantid":5632,"Ġtapestry":5633,"Ġcrouched":5634,"ĠAND":5635,"Ġshooting":5636,"Ġfalse":5637,"quisitor":5638,"Ġsituation":5639,"Ġnostrils":5640,"Ġunexpected":5641,"All":5642,"UM":5643,"aly":5644,"fall":5645,"lers":5646,"Ġtank":5647,"Ġhoo":5648,"Ġhudd":5649,"Ġbored":5650,"Ġheal":5651,"Ġheaven":5652,"Ġdrive":5653,"Ġmed":5654,"Ġpairs":5655,"Ġpouring":5656,"Ġinten":5657,"Ġstool":5658,"ĠSk":5659,"ĠStop":5660,"ĠWE":5661,"alled":5662,"ĠCle":5663,"geons":5664,"Ġbutterbeer":5665,"Ġracing":5666,"ĠFour":5667,"Ġwheeled":5668,"udged":5669,"inkling":5670,"Ġsuc":5671,"Ġspare":5672,"Ġsched":5673,"Ġorph":5674,"Ġtwig":5675,"Ġswinging":5676,"Ġopinion":5677,"Ġwherever":5678,"Ġhappens":5679,"Ġspend":5680,"ĠQuick":5681,"ĠInquisitor":5682,"Ġelbow":5683,"Ġresist":5684,"Ġmisty":5685,"ouncing":5686,"Ġpresents":5687,"Ġhurtled":5688,"Ġoccup":5689,"Ġassist":5690,"Ġremembering":5691,"ĠPatil":5692,"Ġpretended":5693,"Ġparticular":5694,"Ġbroomsticks":5695,"Ġfaintly":5696,"Ġdisgu":5697,"ĠNorbert":5698,"Ġencour":5699,"ĠApparition":5700,"Ġsymp":5701,"Ġclouds":5702,"Ġparce":5703,"Ġservant":5704,"Ġpenetr":5705,"Ġexhausted":5706,"Ġmagnific":5707,"Ġdistinctly":5708,"Ġserpent":5709,"Ġreleased":5710,"ĠAbout":5711,"Ġcrumpled":5712,"oubtedly":5713,"One":5714,"gr":5715,"ially":5716,"sy":5717,"turn":5718,"vin":5719,"Ġauthor":5720,"Ġwo":5721,"arter":5722,"arias":5723,"Ġbal":5724,"Ġboggart":5725,"Ġcap":5726,"Ġdully":5727,"Ġment":5728,"Ġmud":5729,"Ġmild":5730,"Ġmiles":5731,"Ġlack":5732,"Ġlaz":5733,"esting":5734,"Ġsack":5735,"otes":5736,"rolled":5737,"ĠSil":5738,"ĠDr":5739,"Ġupper":5740,"uming":5741,"ĠComm":5742,"ĠFather":5743,"ĠNone":5744,"ĠNOT":5745,"ĠOliver":5746,"Ġropes":5747,"ĠEv":5748,"Ġconnected":5749,"Ġworks":5750,"Ġscur":5751,"Ġslim":5752,"Ġtwisting":5753,"Ġarch":5754,"Ġswirling":5755,"Ġflower":5756,"olves":5757,"Ġpeace":5758,"Ġhappier":5759,"acharias":5760,"Ġhurting":5761,"ĠStunning":5762,"bey":5763,"awed":5764,"Ġsquinting":5765,"Ġobs":5766,"Ġcontinuing":5767,"Ġsigned":5768,"Ġgreenh":5769,"Ġwidely":5770,"Ġmadly":5771,"Ġaddressed":5772,"Ġdemon":5773,"ĠRemember":5774,"Ġdiscussing":5775,"Ġeaten":5776,"Ġenclo":5777,"Ġperformed":5778,"Ġcheeks":5779,"ĠDisapparated":5780,"Ġsmirking":5781,"Ġglimpse":5782,"Ġmotionless":5783,"Ġvictim":5784,"Ġgargoyle":5785,"Sirius":5786,"Ġscrewed":5787,"Ġclipboard":5788,"Ġhusband":5789,"IS":5790,"ION":5791,"ILL":5792,"Lupin":5793,"gs":5794,"yard":5795,"Ġtipped":5796,"Ġhollow":5797,"Ġharsh":5798,"Ġfix":5799,"athing":5800,"Ġtopp":5801,"Ġthirty":5802,"ĠId":5803,"Ġwaste":5804,"ĠTe":5805,"ĠTime":5806,"ĠDung":5807,"add":5808,"Ġfork":5809,"Ġshare":5810,"Ġshame":5811,"Ġshade":5812,"Ġrumm":5813,"Ġrushed":5814,"arting":5815,"ĠOb":5816,"ulted":5817,"Ġconcl":5818,"Ġunkn":5819,"iece":5820,"Ġgliding":5821,"Ġturns":5822,"Ġarrest":5823,"ode":5824,"Ġdislike":5825,"Ġhappiness":5826,"Ġafterward":5827,"Ġloc":5828,"Ġprov":5829,"ontague":5830,"Ġretrie":5831,"osp":5832,"Ġalongside":5833,"Ġdetails":5834,"cially":5835,"Ġmistaken":5836,"Ġthickly":5837,"Ġdirections":5838,"Ġuncertainly":5839,"Ġdreamed":5840,"Ġemerald":5841,"Ġflatly":5842,"hov":5843,"ĠHufflepuffs":5844,"Ġadvice":5845,"Ġtowering":5846,"Ġdungeons":5847,"ARRY":5848,"Ġholiday":5849,"Ġmagaz":5850,"ĠZacharias":5851,"Ġcomplain":5852,"Ġgrab":5853,"ĠWillow":5854,"Ġsearched":5855,"Ġsmoothly":5856,"Ġrespons":5857,"Ġurgently":5858,"Ġrumors":5859,"Ġbloke":5860,"Ġnerve":5861,"Ġprogress":5862,"Ġargument":5863,"orcerer":5864,"Ġdepths":5865,"AL":5866,"OW":5867,"PE":5868,"gers":5869,"hin":5870,"mill":5871,"ners":5872,"por":5873,"tion":5874,"upp":5875,"ulf":5876,"Ġvers":5877,"hest":5878,"hetic":5879,"Ġhushed":5880,"Ġbore":5881,"Ġomin":5882,"ĠHARRY":5883,"atch":5884,"asons":5885,"Ġhello":5886,"Ġdiv":5887,"Ġmaze":5888,"Ġlan":5889,"Ġlane":5890,"Ġthresh":5891,"Ġpapers":5892,"Ġinvent":5893,"Ġhissing":5894,"ĠTen":5895,"ĠWitch":5896,"enth":5897,"ĠDunno":5898,"alus":5899,"Ġshak":5900,"Ġshiny":5901,"ĠBar":5902,"Ġupright":5903,"Ġmeasure":5904,"ĠFrog":5905,"lohov":5906,"Ġcharge":5907,"Ġchains":5908,"elp":5909,"Ġuseless":5910,"Ġslit":5911,"apes":5912,"Ġtwin":5913,"Ġgrump":5914,"Ġthoughtfully":5915,"Ġensure":5916,"Ġrooms":5917,"Ġproceeded":5918,"ĠChocolate":5919,"Ġsilk":5920,"Ġsecrets":5921,"Ġdesks":5922,"ĠDolohov":5923,"Ġimpr":5924,"Ġowner":5925,"Ġcrammed":5926,"ĠStu":5927,"Ġcurre":5928,"ibr":5929,"Ġbreathe":5930,"Ġresc":5931,"Ġpainting":5932,"Ġaction":5933,"Ġsorts":5934,"Ġdisappro":5935,"ĠFlet":5936,"Ġedged":5937,"Ġforgive":5938,"Ġrule":5939,"Ġgasp":5940,"Ġfilling":5941,"Ġavoiding":5942,"Ġdares":5943,"Ġridicul":5944,"Ġtraveled":5945,"Ġhonor":5946,"Ġshrugging":5947,"Ġprotective":5948,"Ġkids":5949,"Ġaccidentally":5950,"Ġswayed":5951,"Ġroughly":5952,"Ġdrifted":5953,"ĠOUT":5954,"Ġenthusiastically":5955,"Ġmysterious":5956,"Ġduty":5957,"Ġfarther":5958,"Ġexplanation":5959,"Ġsteadily":5960,"ĠIndeed":5961,"Ġsuspended":5962,"Ġthreshold":5963,"Bl":5964,"Not":5965,"ex":5966,"mare":5967,"rons":5968,"wood":5969,"Ġi":5970,"Ġhid":5971,"Ġhut":5972,"Ġfi":5973,"ĠHER":5974,"itions":5975,"Ġcake":5976,"Ġdarted":5977,"Ġmal":5978,"Ġling":5979,"Ġloose":5980,"Ġgall":5981,"Ġgown":5982,"Ġbeast":5983,"Ġstamp":5984,"oos":5985,"ĠMany":5986,"ĠMontague":5987,"Ġumb":5988,"Ġreaching":5989,"Ġformed":5990,"Ġkettle":5991,"ĠBus":5992,"Ġfrustr":5993,"iftly":5994,"Ġven":5995,"Ġvac":5996,"Ġexting":5997,"Ġpoking":5998,"Ġque":5999,"Ġyourselves":6000,"Ġbloody":6001,"Ġblinking":6002,"Ġslipping":6003,"Ġswiftly":6004,"Ġremains":6005,"Ġsnorted":6006,"Ġdrained":6007,"Ġchess":6008,"Ġcrooked":6009,"Ġcurtly":6010,"Ġobsc":6011,"ĠBehind":6012,"Ġinstance":6013,"Ġstole":6014,"Ġexpress":6015,"Ġpainfully":6016,"Ġdecent":6017,"Ġmarried":6018,"Ġdefi":6019,"Ġplayers":6020,"Ġleaf":6021,"Ġexamine":6022,"ĠExactly":6023,"Ġmonst":6024,"Ġpersonal":6025,"Ġtroub":6026,"ĠLooking":6027,"Ġtentatively":6028,"ĠRavenclaws":6029,"Ġstretching":6030,"Ġgripped":6031,"Ġnarrowed":6032,"Ġabsence":6033,"Ġsnowy":6034,"Ġargue":6035,"Ġblew":6036,"Ġshoes":6037,"Ġlurking":6038,"Ġlamps":6039,"Ġblocked":6040,"ĠMerlin":6041,"Ġbirds":6042,"Ġgloomily":6043,"Ġplainly":6044,"Ġduel":6045,"Ġvarious":6046,"Ġdazz":6047,"ohn":6048,"ĠHorntail":6049,"Ġcellar":6050,"Ġpuzzled":6051,"Ġillegal":6052,"Ġparcel":6053,"Ġlantern":6054,"Ġumbrell":6055,"How":6056,"ID":6057,"ios":6058,"lp":6059,"Ġtur":6060,"Ġtakes":6061,"Ġsou":6062,"Ġwre":6063,"Ġtheory":6064,"Ġhint":6065,"eds":6066,"Ġfus":6067,"atus":6068,"itated":6069,"Ġcause":6070,"ences":6071,"Ġmas":6072,"Ġmixt":6073,"Ġthread":6074,"Ġpel":6075,"Ġhairy":6076,"Ġsake":6077,"omes":6078,"Ġstumbled":6079,"ĠMaking":6080,"ĠSumm":6081,"ades":6082,"ags":6083,"ĠRidd":6084,"stone":6085,"ĠPOT":6086,"Ġshimmering":6087,"ĠGl":6088,"Ġmere":6089,"Ġrad":6090,"Ġshelf":6091,"Ġgogg":6092,"Ġsoot":6093,"udging":6094,"Ġaback":6095,"ĠOoo":6096,"Ġrope":6097,"Ġroaring":6098,"Ġteac":6099,"oyal":6100,"ĠWhile":6101,"Ġspy":6102,"Ġquarter":6103,"Ġeyel":6104,"Ġblasted":6105,"estig":6106,"Ġslamming":6107,"angu":6108,"anges":6109,"Ġhowling":6110,"gging":6111,"idded":6112,"fty":6113,"Ġdiss":6114,"Ġdispl":6115,"Ġremove":6116,"ĠNeither":6117,"Ġfloors":6118,"Ġamused":6119,"ĠInfer":6120,"ĠJohn":6121,"Ġstranger":6122,"Ġresults":6123,"Ġtreasure":6124,"Ġinstrum":6125,"Ġrecently":6126,"Ġideas":6127,"Ġcorners":6128,"Ġplayer":6129,"Ġsweater":6130,"ĠAuntie":6131,"Ġpatting":6132,"ĠEverything":6133,"Ġshriek":6134,"Ġadmir":6135,"Ġtips":6136,"Ġpromised":6137,"Ġtrembled":6138,"Ġspirits":6139,"Ġborns":6140,"Ġjeans":6141,"Ġbewitched":6142,"Ġapprehens":6143,"Ġundoubtedly":6144,"Ġsatisfaction":6145,"Ġcourt":6146,"Ġcomfortable":6147,"Ġbelonged":6148,"Ġincredulously":6149,"Ġgulped":6150,"Ġoccasionally":6151,"Ġstreaming":6152,"Ġpouch":6153,"Ġkissing":6154,"Ġdescended":6155,"Ġreappeared":6156,"Ġastonished":6157,"Ġcontrary":6158,"ĠAccio":6159,"ĠFelix":6160,"Ġabandoned":6161,"ĠSurely":6162,"ascin":6163,"Ġshrilly":6164,"Ġbreeze":6165,"Ġclambered":6166,"ĠHalloween":6167,"Ġmagnificent":6168,"Ġobsess":6169,"Ġdemonstr":6170,"Ġmagazine":6171,"Ġdaresay":6172,"Fudge":6173,"Umbridge":6174,"ball":6175,"go":6176,"iest":6177,"kins":6178,"nis":6179,"ox":6180,"uit":6181,"Ġ;":6182,"Ġtim":6183,"Ġtast":6184,"Ġtrait":6185,"Ġhy":6186,"Ġbark":6187,"Ġbub":6188,"orter":6189,"Ġdaring":6190,"Ġmil":6191,"Ġmort":6192,"Ġmail":6193,"Ġlugg":6194,"anna":6195,"ĠIT":6196,"ĠIg":6197,"oting":6198,"omy":6199,"Ġbeam":6200,"Ġet":6201,"irm":6202,"ĠMA":6203,"ĠWiz":6204,"ĠDON":6205,"Ġreasons":6206,"agini":6207,"ĠRom":6208,"amot":6209,"Ġshuffled":6210,"ĠFrid":6211,"ĠNagini":6212,"ulars":6213,"eper":6214,"Ġchoose":6215,"Ġspite":6216,"Ġconfess":6217,"Ġunmist":6218,"oping":6219,"Ġplant":6220,"Ġclapping":6221,"Ġorgan":6222,"Ġgruff":6223,"Ġswarm":6224,"Ġfluttered":6225,"ĠĠĠĠĠĠ":6226,"Ġbrass":6227,"ltongue":6228,"Ġhost":6229,"Ġcheering":6230,"Ġmustn":6231,"Ġcrit":6232,"ĠInstead":6233,"iffere":6234,"ĠDeathly":6235,"appy":6236,"Ġstrained":6237,"Ġrealizing":6238,"Ġrecent":6239,"Ġcommunity":6240,"Ġmarked":6241,"Ġpotato":6242,"oculars":6243,"Ġuncon":6244,"Ġrepro":6245,"Ġclimbing":6246,"Ġinformed":6247,"ĠGoblet":6248,"Ġwinged":6249,"Ġhumans":6250,"ĠLeave":6251,"Ġadmitted":6252,"ĠSecond":6253,"Ġbanging":6254,"Ġcounting":6255,"Ġarguing":6256,"engamot":6257,"Ġconcentrate":6258,"Ġzooming":6259,"Ġjinxes":6260,"ĠMerope":6261,"Ġdefend":6262,"Ġgulp":6263,"Ġblonde":6264,"Ġpoured":6265,"Ġbrandishing":6266,"Weasley":6267,"Ġdimly":6268,"Ġfeathers":6269,"Ġdeliber":6270,"ĠMacmill":6271,"ĠSquib":6272,"Ġunlikely":6273,"Ġhoarsely":6274,"Ġdrowned":6275,"Ġrisen":6276,"ĠAdv":6277,"ĠOffice":6278,"Ġcautiously":6279,"ĠOwlery":6280,"ĠThestrals":6281,"Ġfaithful":6282,"Ġorphan":6283,"Ġslimy":6284,"Ġarchway":6285,"Ġunknown":6286,"Ġluggage":6287,"ĠWizengamot":6288,"ĠMacmillan":6289,"Know":6290,"car":6291,"coming":6292,"hip":6293,"rat":6294,"Ġsought":6295,"eration":6296,"Ġobey":6297,"ĠHaven":6298,"ĠHoney":6299,"Ġcack":6300,"Ġcart":6301,"Ġcars":6302,"ora":6303,"idy":6304,"Ġheat":6305,"Ġdive":6306,"Ġdwell":6307,"Ġming":6308,"Ġlops":6309,"Ġsand":6310,"ĠSne":6311,"ĠWon":6312,"ĠWond":6313,"agging":6314,"kered":6315,"Ġseize":6316,"amel":6317,"Ġshaken":6318,"Ġshattered":6319,"Ġshabby":6320,"Ġshapes":6321,"ĠBane":6322,"ĠBrit":6323,"Ġoutta":6324,"Ġoutline":6325,"ĠChe":6326,"Ġknuck":6327,"Ġfeared":6328,"ĠFive":6329,"ĠLaw":6330,"ustered":6331,"Ġvig":6332,"Ġvibr":6333,"ourish":6334,"Ġnod":6335,"ousy":6336,"erson":6337,"Ġchim":6338,"Ġchicken":6339,"ĠEl":6340,"Ġblur":6341,"Ġblurred":6342,"Ġworrying":6343,"Ġplunged":6344,"Ġwandering":6345,"ĠThought":6346,"ogging":6347,"Ġtwitched":6348,"angle":6349,"Ġglowing":6350,"Ġglinting":6351,"Ġflashing":6352,"Ġdisp":6353,"Ġspeeding":6354,"Ġproved":6355,"Ġdrinking":6356,"Ġentering":6357,"Ġcrim":6358,"Ġnightmare":6359,"Ġsquinted":6360,"Ġsteak":6361,"Ġdrops":6362,"ĠShall":6363,"Ġmeetings":6364,"Ġinsisted":6365,"Ġbursting":6366,"abbing":6367,"Ġregular":6368,"Ġattacks":6369,"Ġattacking":6370,"Ġintently":6371,"Ġgripping":6372,"Ġstruggle":6373,"ĠFlamel":6374,"Ġlovely":6375,"Ġbangs":6376,"Ġmoonlight":6377,"Ġurge":6378,"ĠBludgers":6379,"Ġrevealed":6380,"Ġhonest":6381,"Ġgraveyard":6382,"Ġsuffered":6383,"Ġslightest":6384,"Ġreflection":6385,"Ġphotographs":6386,"Ġsurvived":6387,"Ġgiggling":6388,"Ġscratching":6389,"Ġcasual":6390,"Ġuncomfortably":6391,"Ġtracks":6392,"Ġtelevision":6393,"Ġswaying":6394,"ĠWHAT":6395,"Ġjudges":6396,"Ġindicated":6397,"Ġawkwardly":6398,"Ġsavage":6399,"Uncle":6400,"Ġfetch":6401,"Ġdisbelief":6402,"ĠParseltongue":6403,"ĠAdvanced":6404,"Ġlopsided":6405,"Course":6406,"FF":6407,"IM":6408,"Who":6409,"ael":6410,"aves":6411,"cross":6412,"land":6413,"pre":6414,"taker":6415,"Ġsen":6416,"Ġwinning":6417,"recy":6418,"Ġhug":6419,"edly":6420,"Ġbind":6421,"Ġbare":6422,"Ġbunch":6423,"ises":6424,"ites":6425,"Ġcong":6426,"Ġcost":6427,"ases":6428,"asures":6429,"Ġlung":6430,"Ġthumb":6431,"Ġpul":6432,"Ġpig":6433,"Ġpity":6434,"Ġpati":6435,"Ġpacing":6436,"Ġhab":6437,"Ġnatural":6438,"Ġsaving":6439,"acon":6440,"Ġstal":6441,"Ġstore":6442,"irk":6443,"ĠSl":6444,"ĠSpe":6445,"ĠSorcerer":6446,"ĠTre":6447,"entions":6448,"keeper":6449,"Ġforbidden":6450,"people":6451,"pecially":6452,"ĠBook":6453,"Ġroof":6454,"Ġjaw":6455,"Ġgoin":6456,"Ġwhoever":6457,"Ġleaping":6458,"Ġlegged":6459,"inkled":6460,"Ġpopping":6461,"Ġchilly":6462,"Ġhandful":6463,"ĠVan":6464,"Ġscroll":6465,"Ġarea":6466,"Ġslug":6467,"Ġslipp":6468,"bbles":6469,"ounded":6470,"ichael":6471,"avement":6472,"Ġswimming":6473,"ĠUse":6474,"Ġknee":6475,"Ġkneeling":6476,"uffling":6477,"Ġbothered":6478,"Ġdram":6479,"Ġmeanwhile":6480,"Ġowners":6481,"Ġcrashed":6482,"ĠStunned":6483,"Ġlightly":6484,"Ġcursed":6485,"new":6486,"Ġminds":6487,"Ġpleasantly":6488,"Ġcaretaker":6489,"Ġeyeing":6490,"Ġindiffere":6491,"Ġslept":6492,"Ġguilt":6493,"Ġpossibility":6494,"ronomy":6495,"Ġrig":6496,"Ġstuffing":6497,"Ġaccount":6498,"Ġinspect":6499,"Ġexception":6500,"ountain":6501,"Ġmidst":6502,"volo":6503,"asket":6504,"Ġflatt":6505,"Ġstretch":6506,"Ġlearning":6507,"Ġpunct":6508,"ĠFloo":6509,"Ġordered":6510,"iction":6511,"Ġtrolley":6512,"Ġhonestly":6513,"dukes":6514,"Ġamazement":6515,"Ġgrandm":6516,"Ġfeeb":6517,"Ġshudder":6518,"Ġpopular":6519,"Ġbroadly":6520,"Ġgreeted":6521,"Ġscribbled":6522,"Ġankles":6523,"Ġutterly":6524,"Ġsternly":6525,"books":6526,"ĠDecree":6527,"Ġskrewts":6528,"Ġenchantments":6529,"Ġblazing":6530,"Ġbeetle":6531,"Ġmixture":6532,"ĠPOTTER":6533,"ĠJohnson":6534,"Ġgruffly":6535,"Once":6536,"US":6537,"Well":6538,"away":6539,"ailed":6540,"break":6541,"duc":6542,"fl":6543,"iarm":6544,"pz":6545,"uous":6546,"xy":6547,"yn":6548,"Ġtro":6549,"Ġtie":6550,"Ġtugging":6551,"inc":6552,"Ġwise":6553,"Ġwrest":6554,"Ġbill":6555,"ĠHa":6556,"ĠHold":6557,"Ġloyal":6558,"Ġprow":6559,"Ġgaped":6560,"Ġinh":6561,"anking":6562,"ĠIr":6563,"ĠIrel":6564,"omping":6565,"Ġevent":6566,"acingly":6567,"Ġstreaked":6568,"icted":6569,"icial":6570,"ĠMarch":6571,"Ġwearily":6572,"Ġate":6573,"Ġrelu":6574,"urry":6575,"Ġshone":6576,"ĠHepz":6577,"ĠCourse":6578,"ĠCarrow":6579,"Ġras":6580,"Ġrot":6581,"Ġrumbling":6582,"ilar":6583,"toe":6584,"umber":6585,"antage":6586,"Ġagg":6587,"Ġteles":6588,"Ġsuck":6589,"iggered":6590,"Ġqual":6591,"Ġunn":6592,"Ġscattered":6593,"Ġclicking":6594,"Ġslide":6595,"Ġswam":6596,"Ġswoll":6597,"thin":6598,"Ġunderground":6599,"Ġremark":6600,"Ġacted":6601,"uffs":6602,"Ġpron":6603,"Ġgoodness":6604,"Ġcontained":6605,"Ġfloated":6606,"Ġcheers":6607,"Ġcrate":6608,"ĠJork":6609,"Ġsurvey":6610,"Ġcurly":6611,"Ġstudying":6612,"isters":6613,"ibah":6614,"Ġobser":6615,"Ġinstinct":6616,"Ġincant":6617,"Ġbadges":6618,"Ġcoins":6619,"Ġcovering":6620,"ivid":6621,"Ġawoke":6622,"Ġstraightening":6623,"Ġsweets":6624,"ĠKnight":6625,"ĠExpell":6626,"Ġaccording":6627,"Ġfleet":6628,"Ġhurriedly":6629,"Ġpatron":6630,"Ġdeaths":6631,"Ġtouching":6632,"rolling":6633,"ĠIsn":6634,"Ġveil":6635,"Ġintr":6636,"Ġassured":6637,"ĠWizards":6638,"Ġblankets":6639,"Ġfrog":6640,"Ġadding":6641,"ĠFluffy":6642,"Ġavoided":6643,"Ġnarrowly":6644,"Ġfrowned":6645,"Ġguarding":6646,"Ġabsolutely":6647,"Ġposts":6648,"Ġsparkling":6649,"Ġconcentrating":6650,"Ġjerk":6651,"ĠAmos":6652,"Ġamazed":6653,"Ġdespite":6654,"Ġpunishment":6655,"Ġdrifting":6656,"ĠMacna":6657,"Ġgrateful":6658,"Ġdisturbed":6659,"aimed":6660,"ĠChasers":6661,"Ġimprove":6662,"ĠBulgarian":6663,"Ġbigger":6664,"Ġreckons":6665,"Ġnecessary":6666,"Ġcontempt":6667,"ĠHorace":6668,"Ġbeckoned":6669,"Ġimprison":6670,"Ġridiculous":6671,"Ġextinguished":6672,"Ġumbrella":6673,"ĠFriday":6674,"Ġunmistak":6675,"Ġorphanage":6676,"ratul":6677,"ĠHoneydukes":6678,"ĠSneak":6679,"Ġgrandmother":6680,"ĠIreland":6681,"Ġreluct":6682,"ĠHepzibah":6683,"Ġswollen":6684,"Ar":6685,"ACK":6686,"Ex":6687,"LD":6688,"Moody":6689,"Some":6690,"__":6691,"cra":6692,"foot":6693,"hand":6694,"jo":6695,"ram":6696,"tory":6697,"water":6698,"Ġ`":6699,"Ġtin":6700,"Ġtucked":6701,"Ġaward":6702,"Ġsin":6703,"Ġsized":6704,"Ġhugged":6705,"eral":6706,"Ġfascin":6707,"ĠHanna":6708,"itte":6709,"Ġmant":6710,"Ġmale":6711,"Ġlimp":6712,"Ġgift":6713,"Ġnin":6714,"lect":6715,"Ġsal":6716,"Ġbeaded":6717,"Ġhistory":6718,"Ġstack":6719,"ics":6720,"ickered":6721,"Ġwhirled":6722,"rop":6723,"ĠMichael":6724,"ĠSH":6725,"ĠSept":6726,"ĠTurn":6727,"stronomy":6728,"acking":6729,"Ġkissed":6730,"unic":6731,"ĠCad":6732,"Ġmead":6733,"andel":6734,"Ġruck":6735,"Ġrushing":6736,"Ġfever":6737,"ĠFOR":6738,"ify":6739,"Ġjudge":6740,"Ġgoble":6741,"ĠDumbledores":6742,"ulous":6743,"ĠYouKnow":6744,"Ġpoked":6745,"Ġchill":6746,"Ġcanv":6747,"Ġseek":6748,"bborn":6749,"Ġswer":6750,"Ġfluttering":6751,"ĠUp":6752,"Ġbrut":6753,"Ġbrick":6754,"Ġmomentarily":6755,"Ġsecure":6756,"Ġsniggered":6757,"Ġowned":6758,"Ġgives":6759,"Ġperi":6760,"Ġstring":6761,"avies":6762,"Ġbegin":6763,"Ġfirelight":6764,"ĠAnim":6765,"Ġmouthed":6766,"ĠArith":6767,"ampire":6768,"liv":6769,"ĠBeaters":6770,"Ġsnap":6771,"Ġcarved":6772,"Ġunderstanding":6773,"ĠExtend":6774,"Ġteams":6775,"Ġpatted":6776,"Ġconfident":6777,"Ġprotected":6778,"Ġinvestig":6779,"ĠAnything":6780,"Ġdiscover":6781,"Ġrats":6782,"Ġfreed":6783,"ĠWithout":6784,"Ġaddress":6785,"Ġgloves":6786,"Ġsubjects":6787,"Ġannounced":6788,"Ġadvanced":6789,"ĠMarvolo":6790,"Ġattempts":6791,"Ġsneaking":6792,"Ġcheerfully":6793,"ĠDelumin":6794,"Ġconcentration":6795,"Ġmusic":6796,"Ġpaying":6797,"Ġblocking":6798,"Ġmerpeople":6799,"ĠMeanwhile":6800,"Ġstrike":6801,"Ġrespond":6802,"Ġbenches":6803,"ĠDisapparate":6804,"Ġtorture":6805,"Ġtortured":6806,"Ġviolently":6807,"Ġvalu":6808,"ĠFelicis":6809,"Ġexperience":6810,"Ġchuckled":6811,"Ġcoward":6812,"Ġprisoners":6813,"Ġstubborn":6814,"coat":6815,"door":6816,"Ġalleyway":6817,"Ġprecisely":6818,"Ġcruel":6819,"Ġexasperated":6820,"ĠStupef":6821,"iarmus":6822,"ĠIrish":6823,"ĠJorkins":6824,"ĠMacnair":6825,"ĠHannah":6826,"ittee":6827,"ĠSeptember":6828,"CT":6829,"ais":6830,"lted":6831,"ma":6832,"site":6833,"vad":6834,"Ġ3":6835,"Ġtit":6836,"Ġtas":6837,"Ġsarc":6838,"Ġhar":6839,"era":6840,"Ġbars":6841,"Ġboring":6842,"Ġbouncing":6843,"Ġfish":6844,"athed":6845,"Ġcream":6846,"Ġcakes":6847,"Ġcards":6848,"Ġcreaked":6849,"orks":6850,"Ġmor":6851,"Ġmuddy":6852,"Ġpal":6853,"Ġpalm":6854,"Ġpinned":6855,"Ġpipe":6856,"Ġgrief":6857,"Ġsaus":6858,"omb":6859,"ĠSit":6860,"ĠSick":6861,"ĠTer":6862,"ĠDavies":6863,"rigg":6864,"ĠAstronomy":6865,"ĠPut":6866,"umst":6867,"pecto":6868,"gend":6869,"Ġrim":6870,"Ġringing":6871,"Ġragged":6872,"Ġsole":6873,"Ġsobs":6874,"Ġagony":6875,"Ġdevelo":6876,"Ġtearing":6877,"ĠWhomping":6878,"Ġpod":6879,"Ġchur":6880,"Ġquarters":6881,"Ġunh":6882,"Ġclatter":6883,"Ġorn":6884,"Ġgritted":6885,"Ġflown":6886,"Ġflicked":6887,"Ġflask":6888,"Ġflickered":6889,"Ġlonging":6890,"oday":6891,"Ġundert":6892,"Ġunderage":6893,"berts":6894,"Ġsnakes":6895,"ucky":6896,"Ġbegun":6897,"Ġpleasant":6898,"Ġsteep":6899,"Ġrestr":6900,"Ġinclin":6901,"Ġreco":6902,"Ġdrove":6903,"ĠErrol":6904,"Ġdetentions":6905,"Ġmovements":6906,"atives":6907,"Ġcompared":6908,"mancy":6909,"Ġseries":6910,"Ġconfidence":6911,"Ġuncont":6912,"Ġyells":6913,"Ġcenturies":6914,"ugust":6915,"Ġinvited":6916,"Ġbattered":6917,"Ġconscious":6918,"Ġtempor":6919,"ĠLeg":6920,"Ġbowler":6921,"ĠSecret":6922,"Ġghostly":6923,"Ġprompt":6924,"Ġadvantage":6925,"Ġabsent":6926,"ORE":6927,"Ġtrolls":6928,"Ġpermitted":6929,"Ġshoved":6930,"Ġgamekeeper":6931,"Ġinjuries":6932,"Ġfuneral":6933,"Ġcourage":6934,"Ġupwards":6935,"Ġdisappointment":6936,"Ġproudly":6937,"Ġblinding":6938,"Ġmountains":6939,"Ġstirred":6940,"Ġdespair":6941,"Ġunwra":6942,"Ġcrouching":6943,"Ġyawned":6944,"Ġresembled":6945,"Ġanimal":6946,"chers":6947,"Ġcampsite":6948,"Ġneatly":6949,"Ġtotal":6950,"Ġautom":6951,"Ġfancy":6952,"Ġembarrassed":6953,"Ġbushy":6954,"Ġhicc":6955,"Ġdeafening":6956,"Ġimpressive":6957,"Ġwithdrew":6958,"Ġgrindy":6959,"Ġbetrayed":6960,"Ġsubstance":6961,"Ġmental":6962,"Ġtoppled":6963,"iosity":6964,"Ġwreck":6965,"Ġmingled":6966,"Ġknuckles":6967,"Ġfeebly":6968,"ĠExpelliarmus":6969,"Ġpatronum":6970,"Ġgoblets":6971,"ĠArithmancy":6972,"ĠDeluminator":6973,"AM":6974,"BLE":6975,"Do":6976,"Ginny":6977,"Something":6978,"elf":6979,"hot":6980,"hod":6981,"looking":6982,"post":6983,"sack":6984,"uish":6985,"zo":6986,"zes":6987,"Ġze":6988,"Ġty":6989,"rene":6990,"edalus":6991,"Ġbarm":6992,"Ġbounced":6993,"Ġbacon":6994,"Ġbasket":6995,"Ġfence":6996,"Ġfountain":6997,"org":6998,"idents":6999,"Ġhell":7000,"Ġheel":7001,"Ġdared":7002,"Ġdarting":7003,"eness":7004,"Ġlone":7005,"Ġlaun":7006,"Ġlangu":7007,"Ġthief":7008,"Ġpausing":7009,"Ġpavement":7010,"Ġgir":7011,"Ġeer":7012,"icol":7013,"icated":7014,"ĠSlowly":7015,"ĠWow":7016,"outh":7017,"ential":7018,"ĠDementor":7019,"ĠDedalus":7020,"struck":7021,"ĠAT":7022,"Ġserene":7023,"Ġkick":7024,"ĠBode":7025,"Ġrare":7026,"Ġjug":7027,"Ġjolt":7028,"Ġchap":7029,"Ġunb":7030,"ĠProbably":7031,"Ġworn":7032,"Ġcliff":7033,"Ġmyst":7034,"Ġtwitching":7035,"Ġtwinkling":7036,"ĠButterbeer":7037,"Ġswore":7038,"Ġflushed":7039,"Ġens":7040,"Ġwatery":7041,"Ġspending":7042,"ĠChang":7043,"ĠChosen":7044,"Ġamusing":7045,"ucking":7046,"aterial":7047,"Ġcuriosity":7048,"Ġblackened":7049,"Ġemotion":7050,"Ġhairs":7051,"Ġjoking":7052,"Ġfriendship":7053,"Ġcommunic":7054,"racting":7055,"Ġlowering":7056,"Ġhopeful":7057,"Ġdefense":7058,"Ġdefens":7059,"Ġintended":7060,"ĠExpecto":7061,"Ġinsist":7062,"Ġvanish":7063,"Ġplanned":7064,"Ġsprinting":7065,"Ġapproach":7066,"Ġsuspect":7067,"oony":7068,"Ġhangings":7069,"Ġvisitors":7070,"Ġeagle":7071,"Ġtaller":7072,"Ġdisgr":7073,"Ġcircumst":7074,"Ġdeparted":7075,"Ġdepartment":7076,"ĠNevertheless":7077,"Ġpolished":7078,"Ġpolitely":7079,"Ġcharms":7080,"Ġsnatching":7081,"Ġgloomy":7082,"Ġincredible":7083,"ĠCouldn":7084,"Ġgeneral":7085,"Ġmaintain":7086,"Ġanti":7087,"Ġfairly":7088,"Ġdueling":7089,"Ġdevoted":7090,"Ġpreferred":7091,"Ġthundering":7092,"Ġviolent":7093,"Ġstiffly":7094,"Ġseparated":7095,"Ġglimpsed":7096,"ĠOWLs":7097,"Ġgrasped":7098,"ĠChaser":7099,"Ġintroduce":7100,"ĠRoberts":7101,"Ġsunken":7102,"ĠMalkin":7103,"Ġtrapdoor":7104,"Madam":7105,"Ġmounted":7106,"Ġpupils":7107,"Ġhuddled":7108,"Ġlazily":7109,"ĠCommittee":7110,"Ġretrieve":7111,"Ġcurrently":7112,"Ġmilk":7113,"ĠSneakos":7114,"Ġrucksack":7115,"Ġcanvas":7116,"ĠAnimag":7117,"Ġvaluable":7118,"Ġuncontroll":7119,"Ġpromptly":7120,"Ch":7121,"Dudley":7122,"IC":7123,"OP":7124,"TS":7125,"UN":7126,"Yes":7127,"long":7128,"mosp":7129,"vy":7130,"vid":7131,"ware":7132,"wolves":7133,"yll":7134,"Ġting":7135,"Ġtents":7136,"Ġtugged":7137,"Ġah":7138,"Ġaud":7139,"Ġaching":7140,"ints":7141,"Ġsess":7142,"Ġwoken":7143,"Ġwrigg":7144,"ouet":7145,"erted":7146,"arling":7147,"Ġbund":7148,"Ġbolt":7149,"Ġbike":7150,"ĠHerm":7151,"ĠHand":7152,"ĠHIM":7153,"ats":7154,"ators":7155,"Ġcam":7156,"Ġlady":7157,"ania":7158,"lected":7159,"Ġsacked":7160,"Ġelder":7161,"acles":7162,"veying":7163,"ĠDet":7164,"ĠDirk":7165,"Ġredd":7166,"Ġrequire":7167,"alk":7168,"ĠRook":7169,"ĠRest":7170,"ĠAugust":7171,"Ġantic":7172,"ĠRonan":7173,"Ġshaw":7174,"Ġshows":7175,"Ġshrive":7176,"ĠHealer":7177,"ĠHelp":7178,"emb":7179,"unched":7180,"Ġwerewolves":7181,"Ġbutton":7182,"Ġgovern":7183,"ĠNE":7184,"Ġlegend":7185,"Ġability":7186,"ĠOmn":7187,"istered":7188,"Ġchandel":7189,"Ġofficial":7190,"izz":7191,"ĠEaster":7192,"Ġunfortunately":7193,"Ġblown":7194,"ĠVol":7195,"Ġscut":7196,"Ġscore":7197,"Ġscales":7198,"Ġseeking":7199,"Ġplump":7200,"Ġarrog":7201,"Ġpearly":7202,"ĠVoldemorts":7203,"Ġload":7204,"Ġbru":7205,"Ġpride":7206,"Ġhoisted":7207,"Ġattitude":7208,"ĠQuite":7209,"ĠInside":7210,"Ġgreater":7211,"Ġskill":7212,"Ġskidded":7213,"Ġmagically":7214,"Ġdeadly":7215,"ĠHeads":7216,"ĠShh":7217,"ĠShield":7218,"ĠExcuse":7219,"Ġdirected":7220,"Ġhatred":7221,"Ġinsane":7222,"Ġinterf":7223,"locked":7224,"Ġprotr":7225,"Ġrepres":7226,"Ġsprout":7227,"ĠWizardry":7228,"ĠAnyone":7229,"Ġtorches":7230,"Ġimagining":7231,"Ġdoubted":7232,"Ġhotly":7233,"ĠSecrecy":7234,"Ġcreep":7235,"ĠImped":7236,"Ġshops":7237,"what":7238,"Ġforcefully":7239,"Ġpacking":7240,"Ġwarmth":7241,"Ġconceal":7242,"ĠMudbloods":7243,"Ġexistence":7244,"Ġunusually":7245,"Ġurgent":7246,"Ġscreeched":7247,"Ġyawning":7248,"Ġflickering":7249,"Ġswelled":7250,"Ġwidened":7251,"Ġachieved":7252,"Ġdescrib":7253,"Ġtransparent":7254,"Ġneighbors":7255,"acklebolt":7256,"ĠCruciatus":7257,"Ġpudding":7258,"Ġgathering":7259,"Ġenemy":7260,"Ġtwigs":7261,"Black":7262,"Ġvenom":7263,"Ġdazzling":7264,"Ġsoup":7265,"Ġteacup":7266,"Ġtaste":7267,"Ġbubble":7268,"ĠWonder":7269,"Ġhabit":7270,"Ġrigid":7271,"Ġsurveyed":7272,"craft":7273,"Ġperiod":7274,"ĠExtendable":7275,"Ġchurch":7276,"ĠRookwood":7277,"ĠOmni":7278,"Fr":7279,"Now":7280,"RA":7281,"aired":7282,"ended":7283,"jected":7284,"mpt":7285,"xed":7286,"Ġ2":7287,"Ġes":7288,"Ġrou":7289,"Ġtapping":7290,"Ġbiz":7291,"Ġbowing":7292,"Ġbread":7293,"Ġfem":7294,"Ġori":7295,"ĠHar":7296,"ĠHmm":7297,"Ġtomb":7298,"Ġcries":7299,"llow":7300,"idently":7301,"Ġheaving":7302,"Ġmourn":7303,"Ġlarg":7304,"Ġthumping":7305,"Ġpace":7306,"Ġnudged":7307,"Ġyel":7308,"Ġbend":7309,"acious":7310,"acts":7311,"Ġstif":7312,"Ġstooped":7313,"Ġwhim":7314,"ĠMand":7315,"ĠSund":7316,"ĠSaid":7317,"ĠToday":7318,"Ġast":7319,"Ġatmosp":7320,"Ġreward":7321,"stones":7322,"standing":7323,"chley":7324,"ĠAvad":7325,"Ġseated":7326,"umos":7327,"ĠBel":7328,"ĠBest":7329,"ements":7330,"ĠGu":7331,"ĠGold":7332,"indly":7333,"Ġknight":7334,"Ġruddy":7335,"ĠNumber":7336,"Ġsob":7337,"Ġleap":7338,"Ġnoble":7339,"ularly":7340,"ffee":7341,"Ġteen":7342,"Ġchattering":7343,"Ġoffering":7344,"Ġspilled":7345,"Ġheadmistress":7346,"Ġcomb":7347,"ption":7348,"Ġflaming":7349,"ĠUP":7350,"ometimes":7351,"Ġener":7352,"abouts":7353,"Ġwhereabouts":7354,"Ġtells":7355,"Ġdish":7356,"tended":7357,"Ġbran":7358,"Ġnevertheless":7359,"dden":7360,"ishment":7361,"Ġhovering":7362,"Ġsnout":7363,"Ġdrunk":7364,"hension":7365,"onsense":7366,"Ġcrashing":7367,"Ġcleaning":7368,"rewd":7369,"Ġcurved":7370,"Ġperf":7371,"ips":7372,"Ġskinny":7373,"Ġfires":7374,"ĠUnf":7375,"Ġcareer":7376,"ricted":7377,"Ġresumed":7378,"Ġtrem":7379,"Ġdeepest":7380,"erence":7381,"ummy":7382,"ĠShacklebolt":7383,"Ġbushes":7384,"ĠReady":7385,"Ġarrive":7386,"box":7387,"Ġcomplex":7388,"Ġrefusing":7389,"Ġmistress":7390,"Ġkitchens":7391,"Ġexplaining":7392,"ĠBagshot":7393,"Ġearshot":7394,"Ġruined":7395,"Ġpressure":7396,"ĠGoblin":7397,"Ġassume":7398,"Ġfrequ":7399,"Ġfrightening":7400,"Ġaddition":7401,"Ġshrieking":7402,"Ġgroups":7403,"Ġimmediate":7404,"Ġenjoyed":7405,"That":7406,"Ġelect":7407,"Ġgrabbing":7408,"Ġdepart":7409,"rington":7410,"LEY":7411,"Ġsneering":7412,"Ġafford":7413,"Ġefforts":7414,"Ġsuffering":7415,"Ġsleeves":7416,"Ġspreading":7417,"Ġbanned":7418,"ANG":7419,"Ġunpleasantly":7420,"Ġcarriages":7421,"Ġsurvive":7422,"Ġgrandfather":7423,"Ġtriumphant":7424,"Ġearnestly":7425,"Ġseparate":7426,"Ġengine":7427,"Ġexperienced":7428,"ĠSquad":7429,"Ġanimals":7430,"Ġrustling":7431,"Ġissued":7432,"Ġswelling":7433,"Ġdismiss":7434,"Ġrequired":7435,"Ġankle":7436,"Ġdistractedly":7437,"Ġdeny":7438,"Ġdisgusting":7439,"Ġimmensely":7440,"Ġfeatures":7441,"Ġprickling":7442,"Ġcushion":7443,"Ġflowers":7444,"Ġscanned":7445,"Ġapolog":7446,"ĠBaron":7447,"Ġfiery":7448,"Ġmalic":7449,"Ġeyelids":7450,"ĠInferi":7451,"ĠBritain":7452,"ĠStupefy":7453,"Ġbarman":7454,"Ġserenely":7455,"Ġcircumstances":7456,"Ġuncontrollably":7457,"Ġchandelier":7458,"ĠImpediment":7459,"ĠOmnioculars":7460,"Ġbizar":7461,"Ġlargest":7462,"Ġatmosphere":7463,"AA":7464,"bell":7465,"com":7466,"fus":7467,"forc":7468,"gl":7469,"ms":7470,"truck":7471,"Ġtu":7472,"Ġaid":7473,"Ġsip":7474,"Ġhooked":7475,"edav":7476,"Ġfog":7477,"Ġtooth":7478,"Ġcust":7479,"Ġder":7480,"Ġdug":7481,"Ġlid":7482,"Ġpiles":7483,"Ġgaping":7484,"Ġnamed":7485,"Ġnorth":7486,"Ġnature":7487,"Ġbezo":7488,"acter":7489,"uster":7490,"Ġstock":7491,"Ġstamm":7492,"irmed":7493,"ĠSometimes":7494,"Ġreven":7495,"Ġrejo":7496,"sec":7497,"ager":7498,"ĠRes":7499,"ĠPol":7500,"allen":7501,"Ġship":7502,"Ġshrewd":7503,"ĠBow":7504,"ĠCont":7505,"andom":7506,"Ġrace":7507,"Ġrarely":7508,"Ġrandom":7509,"ilim":7510,"Ġfeed":7511,"aky":7512,"ĠWeird":7513,"ĠNah":7514,"astered":7515,"Ġbacks":7516,"Ġwhatso":7517,"Ġvom":7518,"ĠOuch":7519,"lfriend":7520,"ulation":7521,"ssy":7522,"Ġchoo":7523,"ĠEars":7524,"Ġhandbag":7525,"Ġunre":7526,"Ġblowing":7527,"arer":7528,"Ġgotta":7529,"Ġscars":7530,"Ġmopping":7531,"ĠThick":7532,"Ġtrusted":7533,"ĠKend":7534,"ĠKedav":7535,"vingly":7536,"Ġglum":7537,"Ġglowed":7538,"Ġart":7539,"Ġgrace":7540,"Ġswooping":7541,"Ġfluffy":7542,"ĠUr":7543,"Ġimage":7544,"Ġpecul":7545,"Ġprocess":7546,"Ġprice":7547,"Ġhooting":7548,"Ġfeels":7549,"Ġwinding":7550,"Ġentr":7551,"ĠJune":7552,"Ġsurveying":7553,"Ġblackboard":7554,"Ġshouts":7555,"lines":7556,"Ġuntidy":7557,"undered":7558,"Ġbobbing":7559,"Ġforeign":7560,"Ġpainted":7561,"Ġstraw":7562,"erer":7563,"ĠAlways":7564,"Ġemptied":7565,"Ġcornered":7566,"Ġriver":7567,"Ġhopelessly":7568,"Ġdefensive":7569,"Ġexcl":7570,"Ġcompan":7571,"Ġarriving":7572,"Ġmethod":7573,"Ġbuz":7574,"Ġfreezing":7575,"Ġstrewn":7576,"Ġsleepy":7577,"Ġevents":7578,"Ġcollided":7579,"Ġinvol":7580,"Ġdeserved":7581,"Ġtempt":7582,"ĠLev":7583,"ĠLean":7584,"Ġcreeping":7585,"Ġdrinks":7586,"Ġforgetting":7587,"Ġunaware":7588,"Ġjeal":7589,"ĠBurkes":7590,"Ġfollowers":7591,"Ġshopping":7592,"Ġsleek":7593,"Ġsenses":7594,"iasm":7595,"iolet":7596,"Ġamazing":7597,"ĠWouldn":7598,"Ġdefeated":7599,"Ġservice":7600,"Ġtreated":7601,"Ġcasually":7602,"Ġladder":7603,"Ġshuddered":7604,"Ġjudging":7605,"Ġgesture":7606,"Ġthousands":7607,"Ġshifting":7608,"ĠSTU":7609,"Ġindicating":7610,"Ġambition":7611,"Ġscowled":7612,"Ġflooding":7613,"Ġscribbling":7614,"ĠHAVE":7615,"ĠBetter":7616,"Ġsniffed":7617,"Ġgleefully":7618,"Ġbucket":7619,"Ġfragment":7620,"Ġequal":7621,"ĠRufus":7622,"Ġoutraged":7623,"Ġvicious":7624,"Ġretreated":7625,"ĠWarrington":7626,"Ġhammering":7627,"ĠWhee":7628,"ĠPadma":7629,"Ġsmoking":7630,"ĠSkrew":7631,"Ġsucceeded":7632,"Ġschedule":7633,"Ġencourag":7634,"Ġsympat":7635,"Ġpenetrate":7636,"grown":7637,"Ġvictims":7638,"ĠSummoning":7639,"Ġdissolved":7640,"Ġsandw":7641,"Ġsensed":7642,"Ġlungs":7643,"Arry":7644,"Ġsinister":7645,"Ġmantelp":7646,"Ġstubbornly":7647,"ĠLegilim":7648,"Ġautomatically":7649,"Ġlaunched":7650,"Ġgirlfriend":7651,"Ġespecially":7652,"Ġorigin":7653,"ĠSunday":7654,"ĠAvada":7655,"Ġbranch":7656,"Ġwhatsoever":7657,"ĠKendra":7658,"ĠKedavra":7659,"De":7660,"Out":7661,"Sever":7662,"TH":7663,"UR":7664,"bye":7665,"bike":7666,"ek":7667,"hood":7668,"houet":7669,"plo":7670,"sers":7671,"ties":7672,"then":7673,"vor":7674,"viously":7675,"writ":7676,"Ġtar":7677,"Ġtact":7678,"Ġtale":7679,"Ġtangled":7680,"Ġais":7681,"inent":7682,"inth":7683,"Ġwinking":7684,"Ġwider":7685,"ouched":7686,"Ġbone":7687,"Ġbanged":7688,"Ġfed":7689,"Ġfading":7690,"Ġtoes":7691,"orse":7692,"orious":7693,"Ġheir":7694,"ennis":7695,"Ġmim":7696,"Ġmaterial":7697,"Ġlunged":7698,"Ġparted":7699,"Ġgit":7700,"Ġinqu":7701,"Ġinex":7702,"oms":7703,"acted":7704,"ldrons":7705,"verell":7706,"ether":7707,"Ġwhimp":7708,"ĠME":7709,"ĠMom":7710,"ĠTold":7711,"ĠWed":7712,"ĠWILL":7713,"ĠDay":7714,"ĠDipp":7715,"Ġattend":7716,"rium":7717,"ĠAp":7718,"Ġforty":7719,"Ġsell":7720,"Ġsealed":7721,"umn":7722,"terge":7723,"ĠRonald":7724,"ardon":7725,"pend":7726,"Ġhers":7727,"Ġfrantic":7728,"Ġdoe":7729,"unp":7730,"ĠCole":7731,"Ġruffled":7732,"ĠLumos":7733,"Ġlivid":7734,"Ġexec":7735,"ulsion":7736,"Ġchances":7737,"Ġchasing":7738,"olded":7739,"Ġanythin":7740,"Ġsphere":7741,"ĠEnded":7742,"Ġuses":7743,"Ġplants":7744,"Ġslits":7745,"Ġwandered":7746,"oger":7747,"ogan":7748,"atever":7749,"Ġsmart":7750,"Ġglist":7751,"Ġswive":7752,"Ġmanner":7753,"Ġclos":7754,"Ġattached":7755,"Ġattract":7756,"Ġfinds":7757,"ĠBlast":7758,"ĠBlotts":7759,"Ġbiting":7760,"ĠStay":7761,"ĠSturg":7762,"Ġblackness":7763,"Ġstrang":7764,"Ġsquashed":7765,"Ġstew":7766,"Ġgreasy":7767,"Ġmouths":7768,"Ġmouthful":7769,"ursday":7770,"Ġcauldrons":7771,"Ġbelieves":7772,"Ġboiling":7773,"ĠGrim":7774,"Ġcommand":7775,"Ġguests":7776,"Ġlots":7777,"Ġawait":7778,"Ġheartily":7779,"Ġgreenish":7780,"Ġanswers":7781,"Ġanswering":7782,"Ġrip":7783,"ĠHeadquarters":7784,"Ġinterrog":7785,"Ġpatches":7786,"Ġpersonally":7787,"Ġbuilt":7788,"locks":7789,"Ġvanishing":7790,"Ġrepair":7791,"Ġspring":7792,"Ġtripped":7793,"Ġinvitation":7794,"Ġthrobbing":7795,"Ġreasonably":7796,"orthy":7797,"Ġforming":7798,"ĠFlourish":7799,"Ġcreaking":7800,"Ġdiscussion":7801,"Ġpossessed":7802,"Ġjew":7803,"Ġrevealing":7804,"Ġaffection":7805,"ĠGalleon":7806,"Ġpreviously":7807,"Ġbeaten":7808,"ĠAmy":7809,"Ġspectacular":7810,"Ġlawns":7811,"Ġpillows":7812,"Ġscratched":7813,"Ġexchange":7814,"Ġstrolled":7815,"Ġsmirked":7816,"Ġbothering":7817,"Ġladen":7818,"Ġgesturing":7819,"Ġsneaked":7820,"Ġenthusiasm":7821,"Ġstormed":7822,"Ġgnome":7823,"Ġscreech":7824,"Ġbustling":7825,"Ġnerves":7826,"Ġissuing":7827,"ixty":7828,"Ġwidening":7829,"Ġscowling":7830,"Ġidentical":7831,"Ġachieve":7832,"Ġcushions":7833,"Percy":7834,"Ġskelet":7835,"Ġpiercing":7836,"Ġrippling":7837,"ĠEnglish":7838,"Ġmotorbike":7839,"Ġantidote":7840,"Ġhoops":7841,"Ġauthority":7842,"Ġmildly":7843,"ĠDungb":7844,"addock":7845,"Ġominous":7846,"Ġshakily":7847,"Ġgrumpily":7848,"Ġlingered":7849,"Ġmasked":7850,"ĠRiddles":7851,"Ġdeliberately":7852,"Ġvigor":7853,"Ġcongratul":7854,"Ġflattened":7855,"Ġinhab":7856,"Ġunmistakable":7857,"ĠCadogan":7858,"Ġtasks":7859,"ĠSickles":7860,"Ġundertone":7861,"ĠSneakoscope":7862,"Ġcamera":7863,"Ġfemale":7864,"Ġbizarre":7865,"Ġbezoar":7866,"Ġpeculiar":7867,"Ġmantelpiece":7868,"tergeist":7869,"ĠSturgis":7870,"By":7871,"Cr":7872,"Her":7873,"KE":7874,"KS":7875,"QU":7876,"To":7877,"aust":7878,"banks":7879,"cr":7880,"fe":7881,"gus":7882,"lm":7883,"maker":7884,"uber":7885,"works":7886,"Ġ4":7887,"Ġturb":7888,"hem":7889,"Ġaver":7890,"Ġsul":7891,"Ġsons":7892,"Ġwinked":7893,"reen":7894,"ounts":7895,"edle":7896,"Ġbould":7897,"Ġbully":7898,"Ġbunk":7899,"Ġfumbled":7900,"Ġferv":7901,"ĠHon":7902,"ĠHoke":7903,"ĠHurry":7904,"Ġca":7905,"Ġcub":7906,"Ġcrawled":7907,"Ġheap":7908,"Ġdot":7909,"Ġdign":7910,"Ġduck":7911,"Ġdashing":7912,"Ġdais":7913,"Ġmold":7914,"Ġmound":7915,"Ġlimb":7916,"Ġinher":7917,"ann":7918,"anked":7919,"Ġnaturally":7920,"Ġsallow":7921,"Ġyards":7922,"ombs":7923,"Ġwasted":7924,"Ġwashed":7925,"Ġstarry":7926,"Ġstones":7927,"iches":7928,"ioned":7929,"ĠMind":7930,"ĠTop":7931,"ĠDem":7932,"ĠDaw":7933,"ĠDennis":7934,"Ġrein":7935,"Ġreaction":7936,"aggy":7937,"ĠRed":7938,"ste":7939,"rig":7940,"chaun":7941,"ums":7942,"Ġshivered":7943,"Ġlookout":7944,"ĠBas":7945,"ĠBig":7946,"ĠBox":7947,"Ġmeal":7948,"Ġfears":7949,"ĠLast":7950,"ĠNaturally":7951,"Ġbacking":7952,"Ġvampire":7953,"ĠOther":7954,"Ġrobe":7955,"Ġalert":7956,"ctor":7957,"Ġovergrown":7958,"ersed":7959,"ization":7960,"Ġcondu":7961,"Ġhandwrit":7962,"Ġunin":7963,"Ġplacing":7964,"Ġclas":7965,"Ġclaim":7966,"Ġslowed":7967,"Ġwandlight":7968,"Ġheadline":7969,"ĠThursday":7970,"ogether":7971,"Ġhowled":7972,"Their":7973,"Ġdoorkn":7974,"Ġglided":7975,"Ġsomewhat":7976,"olia":7977,"Ġmane":7978,"Ġprecious":7979,"Ġimper":7980,"thorn":7981,"Ġprat":7982,"Ġcontaining":7983,"Ġdarker":7984,"Ġtalent":7985,"ĠJus":7986,"Ġdaylight":7987,"ĠStre":7988,"Ġsidecar":7989,"Ġfinishing":7990,"Ġfellows":7991,"Ġsmallest":7992,"Ġcares":7993,"Ġstealing":7994,"Ġappearing":7995,"Ġresign":7996,"Ġtopmost":7997,"Ġscarves":7998,"ension":7999,"Ġadvent":8000,"ĠSeven":8001,"Ġdetect":8002,"Ġmarching":8003,"Ġcats":8004,"Ġripping":8005,"ĠShunp":8006,"Ġpointless":8007,"Ġspellbooks":8008,"Ġrefer":8009,"Ġbuying":8010,"cloth":8011,"Ġnecks":8012,"Ġedges":8013,"Ġconfusion":8014,"ĠAtrium":8015,"Ġdreaming":8016,"ounce":8017,"Ġyoungest":8018,"ĠEverybody":8019,"Ġwomen":8020,"Ġwrithing":8021,"Ġdrawer":8022,"Ġdrawers":8023,"Ġwoods":8024,"Ġgleamed":8025,"Ġcopies":8026,"Ġfreck":8027,"hole":8028,"ĠYOUR":8029,"Ġterms":8030,"Ġcounted":8031,"Ġspirit":8032,"Ġcircling":8033,"Ġgroan":8034,"Ġpolite":8035,"Ġdraped":8036,"Ġexciting":8037,"Ġdriven":8038,"Ġstatues":8039,"Ġreceive":8040,"Ġjerking":8041,"Ġuneasy":8042,"AND":8043,"Ġdamn":8044,"uesday":8045,"Ġmurderer":8046,"ctober":8047,"Ġstroking":8048,"Ġsloping":8049,"Ġsweaty":8050,"Ġshifted":8051,"Ġcharged":8052,"Ġreappear":8053,"Ġgnarled":8054,"Ġtransformed":8055,"Ġbustled":8056,"Ġbriefly":8057,"Ġmodel":8058,"Ġgrasp":8059,"Ġcapture":8060,"Ġappreciate":8061,"Ġborrowed":8062,"Ġwitnessed":8063,"Ġpetrified":8064,"Ġdodged":8065,"Ġdecorated":8066,"Perhaps":8067,"nesse":8068,"nesday":8069,"Ġcompete":8070,"Ġboots":8071,"Ġreassuring":8072,"Before":8073,"Ġrelaxed":8074,"Ġhealth":8075,"Ġintense":8076,"turned":8077,"Ġinvented":8078,"ĠWitchcraft":8079,"Ġdefiantly":8080,"Ġtraitor":8081,"Ġexceptionally":8082,"ĠMarchbanks":8083,"ĠCarrows":8084,"Ġtelescope":8085,"Ġbrutal":8086,"Ġlonely":8087,"Ġanticip":8088,"Ġprotruding":8089,"Ġstammered":8090,"ĠThicknesse":8091,"ĠLeanne":8092,"Ġoriginal":8093,"ĠWednesday":8094,"ĠHokey":8095,"ĠDawlish":8096,"ĠShunpike":8097,"Aunt":8098,"IST":8099,"LY":8100,"RON":8101,"fixed":8102,"iven":8103,"iently":8104,"jar":8105,"nolia":8106,"whe":8107,"ys":8108,"Ġtough":8109,"Ġajar":8110,"Ġhind":8111,"edy":8112,"Ġbol":8113,"Ġfled":8114,"Ġfanc":8115,"Ġtown":8116,"Ġcooking":8117,"orridge":8118,"orian":8119,"idering":8120,"Ġded":8121,"Ġdirt":8122,"Ġlat":8123,"Ġlace":8124,"Ġpine":8125,"Ġnonsense":8126,"Ġyouth":8127,"Ġhiss":8128,"Ġwhiz":8129,"ĠMon":8130,"ĠMill":8131,"ĠSI":8132,"ĠTot":8133,"ĠToo":8134,"ĠTuesday":8135,"ĠWish":8136,"agers":8137,"ĠRoger":8138,"ĠAbb":8139,"ĠPince":8140,"Ġforth":8141,"Ġsees":8142,"Ġshared":8143,"Ġshower":8144,"Ġshaggy":8145,"Ġkidding":8146,"ĠBit":8147,"Ġframes":8148,"ĠGO":8149,"Ġmend":8150,"andal":8151,"Ġrack":8152,"Ġride":8153,"ĠFif":8154,"Ġallowing":8155,"Ġsheet":8156,"ĠWelcome":8157,"quee":8158,"ĠOctober":8159,"Ġnoses":8160,"Ġaged":8161,"ulting":8162,"ĠWha":8163,"Ġsugar":8164,"Ġchased":8165,"Ġchallen":8166,"Ġspo":8167,"Ġsplin":8168,"Ġspitting":8169,"Ġspilling":8170,"icky":8171,"Ġunse":8172,"Ġscru":8173,"Ġscathing":8174,"Ġgettin":8175,"Ġclattering":8176,"Ġclanking":8177,"Ġwandmaker":8178,"Ġtwit":8179,"Ġsmug":8180,"Ġhowl":8181,"Ġvol":8182,"Ġtrained":8183,"ĠKilling":8184,"Ġglare":8185,"Ġglory":8186,"Ġgru":8187,"Ġgrudging":8188,"Ġswing":8189,"Ġswig":8190,"Ġflapping":8191,"Ġwilling":8192,"Ġprec":8193,"Ġdisag":8194,"ĠĠĠĠĠčĊ":8195,"Ġmug":8196,"teenth":8197,"Ġfirs":8198,"Ġremote":8199,"Ġremorse":8200,"Ġpropped":8201,"Ġproceed":8202,"Ġsilhouet":8203,"plexed":8204,"Ġsnigg":8205,"Ġamid":8206,"ĠInc":8207,"Ġclearer":8208,"Ġsuppress":8209,"Ġsupported":8210,"Ġelb":8211,"Ġschoolbag":8212,"Ġraw":8213,"ipes":8214,"Ġstraining":8215,"tyard":8216,"Ġjoining":8217,"Ġbeginning":8218,"untled":8219,"ĠArgus":8220,"Ġbelieving":8221,"Ġboar":8222,"Ġbooming":8223,"Ġcovers":8224,"Ġsignific":8225,"ĠAlthough":8226,"Ġhearth":8227,"Ġmaroon":8228,"umming":8229,"Ġhallway":8230,"Ġserved":8231,"Ġinsult":8232,"Ġbubbles":8233,"Ġdangerously":8234,"Ġeduc":8235,"Ġconfisc":8236,"Ġreported":8237,"ounter":8238,"Ġgasping":8239,"Ġregard":8240,"Ġcrossbow":8241,"Ġpractical":8242,"Ġquestioning":8243,"Ġcolle":8244,"Ġcollar":8245,"Ġwindowsill":8246,"Ġdisappearing":8247,"Ġcolors":8248,"Ġinvite":8249,"Ġimagination":8250,"Ġpunished":8251,"Ġtransfixed":8252,"Ġtemple":8253,"Ġtrailing":8254,"Ġguards":8255,"Ġadvised":8256,"ĠImag":8257,"Ġposters":8258,"Ġconvince":8259,"Ġpossessions":8260,"Ġurged":8261,"Ġreminding":8262,"Ġjeering":8263,"Ġgroped":8264,"Ġpolice":8265,"Ġaffect":8266,"Ġdriving":8267,"ĠPeverell":8268,"Ġcomplicated":8269,"Ġparaly":8270,"Ġpreparing":8271,"Ġmusc":8272,"Ġcourtyard":8273,"Ġnoisy":8274,"ĠMerry":8275,"Ġaiming":8276,"Ġlimping":8277,"Ġstirring":8278,"ĠEnforc":8279,"Ġconstant":8280,"Nobody":8281,"Ġdeliver":8282,"Ġastonishment":8283,"Ġdazed":8284,"Ġflooded":8285,"Ġstarving":8286,"Ġdelivered":8287,"Ġproduce":8288,"Ġskrewt":8289,"Ġcandlelight":8290,"Ġtickets":8291,"Ġskept":8292,"Ġconditions":8293,"ĠMagorian":8294,"Ġfashioned":8295,"Ġgreenhouses":8296,"Ġstamping":8297,"Ġqueue":8298,"Ġobscured":8299,"Ġexpressions":8300,"Ġmonstrous":8301,"Ġinstruments":8302,"Ġhyster":8303,"Ġmortal":8304,"Ġetched":8305,"ĠTrevor":8306,"Ġbillowing":8307,"Ġincantation":8308,"Ġfleeting":8309,"Ġfeverishly":8310,"Ġeerie":8311,"Ġdisgruntled":8312,"Ġarrogant":8313,"Ġrepresent":8314,"Ġelectric":8315,"Ġrevenge":8316,"Ġbuzzing":8317,"Ġwhimpering":8318,"Ġclosest":8319,"ĠAmycus":8320,"ĠEnforcement":8321,"DER":8322,"EA":8323,"GIC":8324,"IR":8325,"IGH":8326,"Just":8327,"Min":8328,"Riddle":8329,"SE":8330,"UT":8331,"Ye":8332,"cast":8333,"iers":8334,"ko":8335,"nut":8336,"occ":8337,"pos":8338,"uary":8339,"Ġ:":8340,"Ġtant":8341,"Ġwire":8342,"Ġhoop":8343,"ederation":8344,"onse":8345,"onze":8346,"onko":8347,"ero":8348,"Ġbun":8349,"Ġbrow":8350,"Ġfiled":8351,"ĠHouses":8352,"Ġcrest":8353,"aser":8354,"Ġdumb":8355,"Ġdried":8356,"Ġmes":8357,"Ġmixed":8358,"Ġlion":8359,"Ġpaces":8360,"Ġpaler":8361,"Ġporridge":8362,"Ġgar":8363,"Ġgif":8364,"Ġgrill":8365,"Ġinvisibility":8366,"Ġnet":8367,"ĠIS":8368,"Ġwash":8369,"Ġwasting":8370,"Ġease":8371,"Ġstage":8372,"icle":8373,"icent":8374,"vert":8375,"ĠSer":8376,"ĠSide":8377,"ĠWant":8378,"adies":8379,"urt":8380,"alty":8381,"agger":8382,"ĠRep":8383,"ĠAren":8384,"ĠARE":8385,"redit":8386,"ĠHeir":8387,"Ġlookin":8388,"ĠBack":8389,"ĠBog":8390,"ĠBANG":8391,"Ġupro":8392,"Ġmeasures":8393,"Ġknives":8394,"ĠYer":8395,"ili":8396,"ĠFort":8397,"Ġsheets":8398,"ĠNet":8399,"ĠNicol":8400,"Ġliking":8401,"orts":8402,"Ġvivid":8403,"Ġlepre":8404,"Ġaltern":8405,"Ġtext":8406,"ĠWhatever":8407,"Ġpoke":8408,"Ġchart":8409,"Ġspoon":8410,"assed":8411,"opes":8412,"Ġblunder":8413,"ĠVer":8414,"Ġclick":8415,"Ġheadstone":8416,"Ġmoan":8417,"ĠKN":8418,"ĠKill":8419,"Ġthroughout":8420,"Ġgrat":8421,"innet":8422,"ĠUN":8423,"abior":8424,"Ġlittered":8425,"Ġbronze":8426,"Ġprodding":8427,"Ġcontorted":8428,"Ġarmed":8429,"Ġchewing":8430,"Ġoldest":8431,"Ġcris":8432,"Ġcrime":8433,"Ġgreatly":8434,"ĠHowler":8435,"Ġnewly":8436,"Ġemplo":8437,"Ġperch":8438,"Ġskul":8439,"Ġlifting":8440,"ĠUnless":8441,"Ġsquat":8442,"Ġsquash":8443,"ibyll":8444,"ĠArmy":8445,"urses":8446,"Ġpartner":8447,"Ġboss":8448,"Ġresting":8449,"ĠBeedle":8450,"Ġsnapping":8451,"phias":8452,"Ġincident":8453,"ithering":8454,"igging":8455,"Ġcozy":8456,"ĠErm":8457,"Ġdetail":8458,"ĠScabior":8459,"Ġactiv":8460,"Ġpots":8461,"Ġbreathless":8462,"Ġsweating":8463,"Ġbloodshot":8464,"Ġrelated":8465,"Ġrelatives":8466,"Ġinsp":8467,"Ġsnakelike":8468,"Ġrepeat":8469,"Ġhurtling":8470,"Ġcrossing":8471,"Ġtones":8472,"Ġimportance":8473,"Ġmeantime":8474,"Ġveget":8475,"Ġintent":8476,"Ġassure":8477,"ĠDefensive":8478,"Ġvisiting":8479,"Ġconsidering":8480,"Ġpunched":8481,"Ġpunching":8482,"Ġrattled":8483,"Ġdeserve":8484,"ĠLevel":8485,"Ġmasters":8486,"Ġdesperation":8487,"Ġadvancing":8488,"ĠImp":8489,"Ġsmelled":8490,"Ġcrackling":8491,"Ġdealing":8492,"Ġprior":8493,"Ġrolls":8494,"ompre":8495,"ĠZonko":8496,"Ġheadmasters":8497,"Ġdripping":8498,"Ġwinced":8499,"Ġcomplaining":8500,"Ġmurmur":8501,"Ġhighest":8502,"Ġinjury":8503,"Ġexplosion":8504,"Ġspluttered":8505,"Ġyellowish":8506,"Ġreflect":8507,"Ġwhistling":8508,"Ġfreshly":8509,"ikulus":8510,"Ġinflu":8511,"Ġbelongs":8512,"Ġpersuaded":8513,"ĠFinch":8514,"Ġgenerally":8515,"Ġmainly":8516,"Ġexhaust":8517,"Ġlimped":8518,"Ġstroke":8519,"Ġmagnified":8520,"Ġdescending":8521,"Ġearned":8522,"Ġboarded":8523,"Ġwipe":8524,"ĠTwenty":8525,"Ġconsiderable":8526,"Ġwishes":8527,"ĠFeeling":8528,"Ġfortun":8529,"Ġpredict":8530,"Ġrequest":8531,"Ġhexes":8532,"Ġarrang":8533,"Ġarranged":8534,"Everyone":8535,"Ġsevere":8536,"Ġseverely":8537,"Ġlabeled":8538,"Ġoutrage":8539,"Ġrevolving":8540,"ĠMagnolia":8541,"Ġscanning":8542,"Ġresentful":8543,"ĠStudents":8544,"Ġaccepted":8545,"Ġgreenhouse":8546,"Ġversion":8547,"ĠFletcher":8548,"Ġtroubled":8549,"Ġapprehensive":8550,"Ġswarming":8551,"Ġreproach":8552,"Ġchimney":8553,"ĠVanishing":8554,"Ġtroph":8555,"Ġpronounced":8556,"Ġintrud":8557,"ĠYouKnowWho":8558,"Ġsausages":8559,"Dobby":8560,"ĠAnimagus":8561,"Ġdescribed":8562,"Ġdeparture":8563,"ĠBowtruck":8564,"ĠDippet":8565,"Ġvigorously":8566,"Ġdoorknob":8567,"Ġadventure":8568,"ĠMillicent":8569,"ĠAbbott":8570,"ĠNicolas":8571,"Ġleprechaun":8572,"CE":8573,"Cedric":8574,"EE":8575,"Fil":8576,"Of":8577,"Oh":8578,"Rita":8579,"Slughorn":8580,"Two":8581,"auding":8582,"bal":8583,"cers":8584,"de":8585,"gain":8586,"hold":8587,"iped":8588,"mon":8589,"pher":8590,"rick":8591,"sk":8592,"vol":8593,"was":8594,"ym":8595,"Ġest":8596,"Ġtut":8597,"Ġtested":8598,"hery":8599,"Ġsid":8600,"Ġsorted":8601,"Ġwan":8602,"Ġwiz":8603,"Ġwary":8604,"inge":8605,"Ġbarn":8606,"Ġfate":8607,"ĠHope":8608,"itating":8609,"asingly":8610,"Ġdw":8611,"Ġdus":8612,"Ġlime":8613,"Ġlasted":8614,"Ġpuffy":8615,"Ġpaddock":8616,"Ġhaught":8617,"Ġgon":8618,"Ġgaunt":8619,"Ġniff":8620,"lets":8621,"omers":8622,"Ġbem":8623,"Ġstowed":8624,"Ġstreak":8625,"Ġstained":8626,"Ġstumped":8627,"Ġstamped":8628,"Ġonward":8629,"Ġwhit":8630,"road":8631,"rock":8632,"ĠMis":8633,"ĠMake":8634,"ĠMaf":8635,"ĠSA":8636,"ĠSC":8637,"ĠSal":8638,"ĠSibyll":8639,"Ġweb":8640,"ĠWhing":8641,"Ġrear":8642,"Ġreli":8643,"urd":8644,"step":8645,"kew":8646,"ĠPiers":8647,"Ġseared":8648,"ampered":8649,"alls":8650,"Ġsharing":8651,"Ġshirt":8652,"Ġshorter":8653,"Ġkit":8654,"ĠBard":8655,"ems":8656,"Ġfraction":8657,"Ġfruit":8658,"Ġneg":8659,"ĠYep":8660,"Ġrich":8661,"Ġrange":8662,"ĠFen":8663,"ĠFunny":8664,"Ġjoy":8665,"ĠLI":8666,"Ġgoals":8667,"Ġsold":8668,"Ġsocket":8669,"Ġvap":8670,"Ġviolet":8671,"inks":8672,"ĠON":8673,"ĠOR":8674,"Ġagitated":8675,"raught":8676,"Ġovercome":8677,"Ġtheirs":8678,"Ġchor":8679,"Ġchase":8680,"Ġdownward":8681,"izable":8682,"Ġsprawled":8683,"ĠEver":8684,"elz":8685,"Ġunne":8686,"Ġunner":8687,"Ġunfortun":8688,"ieving":8689,"opy":8690,"Ġblot":8691,"Ġblink":8692,"Ġscored":8693,"Ġscooped":8694,"estia":8695,"Ġclamped":8696,"Ġslack":8697,"Ġcomin":8698,"Ġcompr":8699,"ĠTha":8700,"Ġsmugg":8701,"angular":8702,"Ġsworn":8703,"Ġflu":8704,"Ġflin":8705,"Ġflapped":8706,"Ġmanaging":8707,"Ġloathed":8708,"Ġappalled":8709,"ĠDev":8710,"Ġevenings":8711,"Ġbrushed":8712,"Ġbrushing":8713,"atedly":8714,"Ġcontrolled":8715,"Ġhooted":8716,"Ġarmy":8717,"rieking":8718,"lessness":8719,"ĠDoxy":8720,"armed":8721,"Ġsurge":8722,"Ġcurling":8723,"ĠSoon":8724,"Ġrabb":8725,"Ġstrangled":8726,"ailing":8727,"Ġours":8728,"Ġfireworks":8729,"ĠAncient":8730,"Ġangle":8731,"Ġsteering":8732,"Ġobst":8733,"Ġpartners":8734,"Ġboomed":8735,"eyed":8736,"Ġtreacle":8737,"ĠAsk":8738,"Ġforearm":8739,"Ġfourteen":8740,"Ġfingered":8741,"Ġfacts":8742,"ival":8743,"rific":8744,"Ġrelation":8745,"Ġspots":8746,"Ġaccord":8747,"Ġpathetic":8748,"Ġrefuse":8749,"ĠSnat":8750,"ĠSnork":8751,"Ġprotest":8752,"Ġsimilar":8753,"Ġcups":8754,"Ġrepaired":8755,"Ġrubbed":8756,"alda":8757,"Ġcollection":8758,"ĠSomewhere":8759,"Ġintrig":8760,"Ġmission":8761,"isky":8762,"Ġfrost":8763,"ĠTHAT":8764,"ĠDaddy":8765,"Ġlocker":8766,"Ġferret":8767,"Ġmessing":8768,"Ġstrongly":8769,"Ġbounded":8770,"Ġholes":8771,"Ġcracking":8772,"whisky":8773,"Ġdestination":8774,"Ġdetermination":8775,"Ġpanicked":8776,"Ġtrusts":8777,"Ġdiscussed":8778,"Ġinner":8779,"Ġproblems":8780,"Ġglittered":8781,"Ġsneer":8782,"Ġtricks":8783,"Ġsuspicion":8784,"Ġessential":8785,"rilliant":8786,"Ġdreading":8787,"Why":8788,"ĠCorner":8789,"Ġthreatened":8790,"Ġmercy":8791,"Ġpureblood":8792,"Ġarmchairs":8793,"scent":8794,"Ġunfolded":8795,"Ġpounded":8796,"Ġabrupt":8797,"Ġpoisonous":8798,"Ġresponse":8799,"Ġgiggled":8800,"Ġcorrected":8801,"Ġindignation":8802,"Ġaimed":8803,"Ġsqueezing":8804,"Ġfaintest":8805,"Ġshuddering":8806,"Ġgestured":8807,"ĠSpinnet":8808,"Ġgnomes":8809,"Ġglowering":8810,"Ġsweetly":8811,"Ġrumor":8812,"Ġbalding":8813,"Ġwounds":8814,"Ġcowering":8815,"Ġincreased":8816,"Ġincreasingly":8817,"Ġcollecting":8818,"Ġbiggest":8819,"Ġfocused":8820,"ĠPrefect":8821,"ĠRunes":8822,"Ġdelicious":8823,"Ġcondition":8824,"Ġappointment":8825,"OME":8826,"Ġintens":8827,"Ġcapable":8828,"ĠSilence":8829,"Ġscurrying":8830,"Ġrummaged":8831,"Ġrummaging":8832,"Ġresponsible":8833,"Ġresponsibility":8834,"Ġrescue":8835,"ĠFletchley":8836,"Ġgalloping":8837,"Ġfrustration":8838,"Ġgoggling":8839,"Ġsoothing":8840,"ĠOooh":8841,"Ġdisplay":8842,"Ġobsessed":8843,"ĠMAGIC":8844,"ĠRomilda":8845,"Ġcritic":8846,"ĠElphias":8847,"Ġsavagely":8848,"Ġbinding":8849,"Ġslugs":8850,"Ġdramatically":8851,"ynch":8852,"Ġaggress":8853,"Ġinstinctively":8854,"Ġswerved":8855,"Ġinvestigate":8856,"Ġfreedom":8857,"Ġsarcastically":8858,"Ġlanguage":8859,"Ġchapter":8860,"ĠNEW":8861,"ĠControl":8862,"Ġaisle":8863,"Ġturban":8864,"ĠHonestly":8865,"Ġinherited":8866,"ĠDemelz":8867,"Ġgrudgingly":8868,"occup":8869,"ĠMafalda":8870,"ĠWhinging":8871,"Ġunnecess":8872,"Ġunfortunate":8873,"ĠSnorkack":8874,"Even":8875,"Me":8876,"VER":8877,"hound":8878,"ience":8879,"ians":8880,"ials":8881,"iature":8882,"lamp":8883,"mar":8884,"mat":8885,"pting":8886,"said":8887,"uously":8888,"vable":8889,"Ġut":8890,"Ġtiar":8891,"Ġav":8892,"Ġagh":8893,"Ġsust":8894,"Ġsixty":8895,"rees":8896,"Ġholly":8897,"Ġhilt":8898,"Ġhugging":8899,"Ġhunting":8900,"erating":8901,"Ġboo":8902,"Ġbond":8903,"Ġbared":8904,"Ġfav":8905,"Ġfreak":8906,"Ġfulf":8907,"Ġowe":8908,"ĠHestia":8909,"itive":8910,"Ġcal":8911,"Ġcock":8912,"Ġcreak":8913,"orre":8914,"lle":8915,"Ġhed":8916,"Ġdin":8917,"Ġdren":8918,"Ġmarry":8919,"Ġmill":8920,"Ġmouse":8921,"Ġmoth":8922,"Ġlun":8923,"Ġlatter":8924,"Ġthrill":8925,"Ġthundered":8926,"Ġpus":8927,"Ġpall":8928,"Ġgain":8929,"Ġgained":8930,"ancy":8931,"leg":8932,"lecto":8933,"Ġbelt":8934,"Ġbeads":8935,"acy":8936,"aches":8937,"veled":8938,"Ġstump":8939,"oooo":8940,"eted":8941,"ĠMight":8942,"ĠMother":8943,"ĠSw":8944,"ĠSin":8945,"ĠSlu":8946,"ĠTry":8947,"uted":8948,"Ġwel":8949,"ĠWIT":8950,"ĠDI":8951,"ĠDanger":8952,"Ġaskew":8953,"Ġrelease":8954,"urre":8955,"ĠRE":8956,"Ġ...":8957,"ĠAvery":8958,"ĠAnt":8959,"ĠAlecto":8960,"ĠPod":8961,"Ġseason":8962,"herry":8963,"tery":8964,"ppings":8965,"ardly":8966,"Ġshred":8967,"Ġshuffling":8968,"ĠBrilliant":8969,"aint":8970,"Ġfrail":8971,"Ġdoin":8972,"ĠGOT":8973,"ĠGET":8974,"Ġkno":8975,"Ġrout":8976,"Ġrag":8977,"ilities":8978,"ĠFollow":8979,"akers":8980,"ifying":8981,"Ġshed":8982,"Ġjets":8983,"Ġjabbed":8984,"ĠLucky":8985,"ĠLynch":8986,"Ġsock":8987,"Ġexer":8988,"ĠOp":8989,"Ġroast":8990,"cts":8991,"Ġoverwhe":8992,"Ġsucked":8993,"Ġpopped":8994,"Ġchort":8995,"Ġchained":8996,"izes":8997,"Ġspin":8998,"ĠEach":8999,"ĠEgy":9000,"Ġunbe":9001,"Ġunbl":9002,"Ġblushing":9003,"arewell":9004,"Ġclaw":9005,"Ġslithering":9006,"ĠProfessors":9007,"bber":9008,"ĠThrough":9009,"Ġtrad":9010,"Ġtragic":9011,"Ġswishing":9012,"Ġflared":9013,"Ġflustered":9014,"olution":9015,"Ġwatering":9016,"Ġpeer":9017,"Ġpeeling":9018,"Ġdisple":9019,"Ġloathing":9020,"Ġprof":9021,"ĠNew":9022,"ressing":9023,"ruction":9024,"Ġwailing":9025,"Ġwailed":9026,"Ġdarkening":9027,"Ġattic":9028,"Ġsnort":9029,"Ġsnide":9030,"Ġcheered":9031,"ĠJinx":9032,"ĠJuly":9033,"Ġcleve":9034,"ĠBloody":9035,"Ġbitten":9036,"Ġstandard":9037,"Ġfewer":9038,"Ġperplexed":9039,"azed":9040,"getically":9041,"Ġsets":9042,"Ġsettle":9043,"Ġstrain":9044,"Ġstricken":9045,"Ġmatching":9046,"osing":9047,"ĠUnfortunately":9048,"Ġmutter":9049,"Ġresult":9050,"Ġresigned":9051,"Ġrested":9052,"shine":9053,"Ġrecall":9054,"Ġadvis":9055,"Ġcommitted":9056,"Ġcoast":9057,"Ġmemor":9058,"rawling":9059,"ronted":9060,"Ġreduced":9061,"Ġmarquee":9062,"Ġbreaths":9063,"ĠShack":9064,"ĠShrieking":9065,"Ġsurprising":9066,"Ġserve":9067,"Ġspotting":9068,"Ġaccidents":9069,"Ġflex":9070,"Ġinterven":9071,"Ġpattern":9072,"Ġmisery":9073,"version":9074,"Ġedging":9075,"Ġtrousers":9076,"Ġsubs":9077,"Ġparent":9078,"ĠLooks":9079,"Ġshallow":9080,"Ġregister":9081,"Ġcrossly":9082,"Ġpractices":9083,"ĠSomebody":9084,"Ġthrashing":9085,"Ġveins":9086,"Ġcuts":9087,"Ġassumed":9088,"Ġbats":9089,"Ġpunch":9090,"Ġghoul":9091,"IND":9092,"ĠTrace":9093,"noticed":9094,"Ġhastened":9095,"Ġtightened":9096,"Ġweakness":9097,"Ġenjoyable":9098,"Ġimpatient":9099,"Ġbearded":9100,"ĠApparating":9101,"Ġpermit":9102,"Ġdefinite":9103,"ĠPatronuses":9104,"Ġimmob":9105,"Ġsuffer":9106,"Ġcharming":9107,"Ġirritable":9108,"Ġirritated":9109,"ANT":9110,"Ġlurched":9111,"ĠPoor":9112,"Ġinterrupt":9113,"Ġinfl":9114,"Ġgiggle":9115,"Ġblindly":9116,"Ġkeyhole":9117,"Ġpincers":9118,"Ġslope":9119,"Ġconstantly":9120,"Ġcharges":9121,"Ġcharacter":9122,"ĠSTOP":9123,"Ġilluminating":9124,"ENT":9125,"Ġunicorns":9126,"Ġwisp":9127,"Ġfortune":9128,"Ġscraping":9129,"Ġcaution":9130,"Ġdescri":9131,"ĠConfederation":9132,"Ġproduced":9133,"ĠRoad":9134,"Ġsuperb":9135,"ĠClass":9136,"Ġcontempl":9137,"Ġdecorations":9138,"Ġdelicate":9139,"ĠPadfoot":9140,"Ġunexpectedly":9141,"Ġhooves":9142,"Ġheavens":9143,"ĠCleans":9144,"Ġassistant":9145,"Ġdisguise":9146,"Ġsympath":9147,"Ġenclosed":9148,"Ġenclosure":9149,"ĠObviously":9150,"Ġconclusion":9151,"Ġarrested":9152,"Ġdisapproving":9153,"Ġlanterns":9154,"Ġpelted":9155,"Ġcourtroom":9156,"Ġpotatoes":9157,"Ġcackled":9158,"ersonally":9159,"Ġcrimson":9160,"Ġslippery":9161,"Ġfascinating":9162,"Ġmalevol":9163,"Ġtitle":9164,"Ġsolemn":9165,"Ġunhappy":9166,"Ġinclined":9167,"Ġtemporarily":9168,"Ġdefensively":9169,"Ġbundle":9170,"Ġfrequently":9171,"Ġdismissively":9172,"ĠSkrewts":9173,"ekly":9174,"Ġexecution":9175,"ĠDungbombs":9176,"Ġfervently":9177,"Ġcavern":9178,"Ġmoldy":9179,"ĠStreet":9180,"Ġgrubby":9181,"Ġprecaut":9182,"ĠImagine":9183,"Yeah":9184,"Ġgrilles":9185,"ĠBogrod":9186,"ĠNetwork":9187,"Ġgratitude":9188,"Ġarrangements":9189,"Filch":9190,"Ġbemused":9191,"Ġrabbit":9192,"ĠNEWT":9193,"ĠDemelza":9194,"Meanwhile":9195,"Ġutmost":9196,"Ġtiara":9197,"Ġaghast":9198,"ĠPodmore":9199,"ĠEgypt":9200,"Don":9201,"Fle":9202,"Keep":9203,"My":9204,"Pot":9205,"Very":9206,"Wormtail":9207,"aque":9208,"born":9209,"cut":9210,"cent":9211,"cil":9212,"corn":9213,"col":9214,"ciety":9215,"cases":9216,"iac":9217,"ique":9218,"kers":9219,"look":9220,"mates":9221,"no":9222,"rs":9223,"Ġ5":9224,"Ġï¿½":9225,"Ġtil":9226,"Ġtying":9227,"Ġtune":9228,"Ġtini":9229,"inal":9230,"Ġsan":9231,"Ġwoo":9232,"Ġwaking":9233,"Ġwrought":9234,"rescent":9235,"Ġhi":9236,"Ġhook":9237,"onc":9238,"erous":9239,"arant":9240,"Ġbony":9241,"Ġfurn":9242,"ĠHO":9243,"ĠHaving":9244,"ĠHippogriff":9245,"Ġtoe":9246,"Ġtoss":9247,"isingly":9248,"itaser":9249,"Ġcul":9250,"Ġcredit":9251,"llig":9252,"llert":9253,"idge":9254,"Ġdung":9255,"Ġdense":9256,"Ġdining":9257,"Ġdabbing":9258,"Ġmice":9259,"Ġmask":9260,"Ġlaws":9261,"Ġparts":9262,"Ġpix":9263,"Ġpiled":9264,"Ġpaced":9265,"Ġpomp":9266,"Ġpardon":9267,"Ġhaze":9268,"Ġnap":9269,"Ġsac":9270,"ompl":9271,"Ġeaves":9272,"acc":9273,"vered":9274,"Ġstab":9275,"Ġstabbed":9276,"ett":9277,"iche":9278,"Ġwhirl":9279,"iring":9280,"ĠMan":9281,"ĠMem":9282,"ĠMorning":9283,"ĠSay":9284,"ĠSix":9285,"ĠSupp":9286,"ĠTrying":9287,"ĠTogether":9288,"ĠDown":9289,"sters":9290,"ĠPass":9291,"Ġforb":9292,"Ġsem":9293,"umes":9294,"ĠRons":9295,"ackets":9296,"ĠTheory":9297,"Ġsham":9298,"ĠBall":9299,"ĠBeen":9300,"ĠBoggart":9301,"Ġframed":9302,"ĠGone":9303,"ĠGol":9304,"ĠGab":9305,"ĠCent":9306,"ĠCrescent":9307,"Ġmeat":9308,"Ġmended":9309,"Ġron":9310,"Ġriding":9311,"Ġrotting":9312,"Ġrumble":9313,"Ġfeeding":9314,"iform":9315,"ifacts":9316,"ĠWere":9317,"Ġjammed":9318,"Ġjaws":9319,"Ġgoss":9320,"Ġsodden":9321,"astor":9322,"Ġbackf":9323,"Ġisland":9324,"ongs":9325,"Ġdeb":9326,"Ġteap":9327,"Ġoffended":9328,"Ġspi":9329,"Ġquant":9330,"ĠEduc":9331,"Ġunited":9332,"Ġuniform":9333,"Ġbless":9334,"Ġcanopy":9335,"Ġscaly":9336,"Ġscandal":9337,"Ġplanted":9338,"Ġplotting":9339,"Ġclinging":9340,"Ġslapping":9341,"aph":9342,"Ġmock":9343,"ĠThird":9344,"Ġtwitch":9345,"Ġglorious":9346,"Ġgrunt":9347,"Ġgrades":9348,"Ġflutter":9349,"Ġunderwater":9350,"Ġapple":9351,"ĠDead":9352,"Ġbrim":9353,"Ġbracingly":9354,"uffles":9355,"Ġwail":9356,"Ġgoodbye":9357,"rielle":9358,"Ġdraining":9359,"Ġcheery":9360,"ĠGellert":9361,"ĠQuill":9362,"Ġimpl":9363,"Ġentertain":9364,"Ġcrown":9365,"Ġendure":9366,"ĠStat":9367,"Ġtablecloth":9368,"Ġblackm":9369,"Ġblackthorn":9370,"Ġrapped":9371,"Ġfounders":9372,"Ġstrings":9373,"Ġmatted":9374,"Ġlifts":9375,"avy":9376,"Ġcorp":9377,"Ġpleading":9378,"Ġstepping":9379,"Ġminiature":9380,"ĠPetrified":9381,"Ġbelief":9382,"ĠBeater":9383,"Ġscarf":9384,"Ġcolder":9385,"Ġdistract":9386,"Ġhoriz":9387,"Ġcoffee":9388,"Ġideal":9389,"Ġpersisted":9390,"Ġsignature":9391,"ĠAlb":9392,"ĠAlastor":9393,"Ġawoken":9394,"cipl":9395,"Ġsincerely":9396,"Ġdiversion":9397,"itches":9398,"Ġrelent":9399,"Ġaccur":9400,"Ġconfirmed":9401,"Ġstreaking":9402,"Ġsubd":9403,"ĠBella":9404,"Ġnumbers":9405,"Ġdreamily":9406,"ĠProte":9407,"Ġbenef":9408,"Ġrug":9409,"Ġsleepily":9410,"Ġtrial":9411,"Ġapproval":9412,"Ġregained":9413,"Ġstupidly":9414,"Ġpracticed":9415,"Ġoppon":9416,"Ġcentury":9417,"Ġwarningly":9418,"Ġintim":9419,"Ġjobs":9420,"ĠCrack":9421,"Ġhumor":9422,"Ġtempted":9423,"Ġfrighten":9424,"ĠTrue":9425,"Ġadmire":9426,"Ġstreetlamp":9427,"Ġferoc":9428,"Ġabsurd":9429,"aggering":9430,"Ġsurroundings":9431,"Ġconvicted":9432,"Ġconversations":9433,"Ġdisgusted":9434,"Ġargued":9435,"Though":9436,"Ġprize":9437,"Ġworthy":9438,"Ġencounter":9439,"Ġfacedown":9440,"Ġgrimy":9441,"Ġtravel":9442,"Ġperman":9443,"Ġtrickling":9444,"Ġsmoothed":9445,"Ġmurmuring":9446,"Ġlunchtime":9447,"Ġfilth":9448,"Ġapplauding":9449,"Ġbanner":9450,"Ġsplattered":9451,"Ġlurch":9452,"Ġmerrily":9453,"Ġincluded":9454,"Ġfireplaces":9455,"ĠMoran":9456,"Ġdefeat":9457,"Ġgiggles":9458,"Ġrubber":9459,"Ġoccasional":9460,"Ġscratch":9461,"cisely":9462,"Ġkeys":9463,"Ġsuggestion":9464,"Ġpunishments":9465,"Ġdescend":9466,"ĠAccording":9467,"Ġrusty":9468,"Ġprevented":9469,"ĠOUCH":9470,"Ġdawned":9471,"Ġshrunk":9472,"Ġshrinking":9473,"Ġchina":9474,"Ġcorrectly":9475,"Ġautograph":9476,"Ġstubby":9477,"ĠBoys":9478,"Ġcommentary":9479,"Ġenchantment":9480,"Ġneighbor":9481,"Ġlumpy":9482,"Ġfragments":9483,"Ġsuperior":9484,"Ġticket":9485,"Ġgingerly":9486,"Ġaccused":9487,"ĠSnapes":9488,"ĠHasn":9489,"Ġcrucial":9490,"ĠRuncorn":9491,"ĠCrucio":9492,"Ġexasperation":9493,"Ġgrinding":9494,"Ġmounting":9495,"ĠStudies":9496,"Ġtartan":9497,"Ġwheezy":9498,"Ġenemies":9499,"Ġmotorcy":9500,"Ġhealthy":9501,"Ġdisguised":9502,"Ġwolf":9503,"Nothing":9504,"ĠHERE":9505,"Ġmonsters":9506,"Ġfuss":9507,"Ġapprehensively":9508,"Ġdemonstrate":9509,"Ġunconvin":9510,"ĠSeconds":9511,"Ġcackling":9512,"Ġthumbs":9513,"Ġstalked":9514,"Ġwrestling":9515,"Ġunnaturally":9516,"Ġreluctantly":9517,"Ġninety":9518,"CTO":9519,"Ġaudible":9520,"Ġsessions":9521,"Ġscuttled":9522,"From":9523,"Ġenergy":9524,"Ġglumly":9525,"Ġtemptation":9526,"Ġsandwiches":9527,"ĠLegilimency":9528,"Several":9529,"Ġhandwriting":9530,"Ġboarhound":9531,"ĠVeritaser":9532,"ĠKNOW":9533,"Ġinfluence":9534,"Ġtrophy":9535,"ĠDangerous":9536,"Ġtiniest":9537,"Ġeavesd":9538,"ĠGabrielle":9539,"Ġteapot":9540,"ĠVeritaserum":9541,"AD":9542,"Al":9543,"BER":9544,"Crouch":9545,"Lockhart":9546,"PP":9547,"Sc":9548,"Slowly":9549,"UD":9550,"but":9551,"boy":9552,"cule":9553,"ees":9554,"eenth":9555,"faced":9556,"hard":9557,"iks":9558,"mind":9559,"nie":9560,"ocus":9561,"weed":9562,"ycross":9563,"Âĵ":9564,"Ġ=":9565,"Ġuttered":9566,"Ġtet":9567,"Ġtucking":9568,"Ġtension":9569,"het":9570,"hearted":9571,"Ġalo":9572,"ina":9573,"initely":9574,"Ġsunny":9575,"Ġthestr":9576,"Ġhumming":9577,"erable":9578,"arf":9579,"aries":9580,"Ġbase":9581,"Ġbump":9582,"Ġfiling":9583,"Ġfitted":9584,"ĠHermion":9585,"ĠHappy":9586,"att":9587,"Ġtopped":9588,"ishes":9589,"Ġcook":9590,"orp":9591,"idget":9592,"Ġdates":9593,"Ġdigging":9594,"Ġmerm":9595,"Ġlem":9596,"Ġlog":9597,"Ġloos":9598,"Ġpark":9599,"Ġpond":9600,"Ġporing":9601,"Ġpiped":9602,"letoe":9603,"Ġwashing":9604,"usement":9605,"uscule":9606,"Ġstacked":9607,"etra":9608,"Ġwhip":9609,"irs":9610,"irts":9611,"ĠMir":9612,"ĠMuff":9613,"ĠSE":9614,"ĠSince":9615,"Ġweed":9616,"ĠWr":9617,"ĠWil":9618,"ĠDes":9619,"adora":9620,"Ġasse":9621,"Ġasso":9622,"Ġreared":9623,"Ġreread":9624,"stained":9625,"strode":9626,"ĠAB":9627,"ĠAL":9628,"ĠPuce":9629,"ĠPersonally":9630,"Ġsearing":9631,"illusion":9632,"ackbox":9633,"ĠBreak":9634,"emed":9635,"Ġfrank":9636,"unts":9637,"unte":9638,"unching":9639,"ĠCorm":9640,"ĠCurses":9641,"ĠCorre":9642,"Ġmelted":9643,"Ġknel":9644,"ĠYule":9645,"Ġroo":9646,"Ġrate":9647,"Ġruff":9648,"Ġramp":9649,"Ġrapt":9650,"Ġracket":9651,"Ġrags":9652,"ĠFam":9653,"ĠFind":9654,"akin":9655,"Ġshel":9656,"Ġjog":9657,"Ġjost":9658,"ĠLo":9659,"ĠLife":9660,"asting":9661,"Ġexcus":9662,"raved":9663,"Ġrocket":9664,"Ġsuits":9665,"Ġchunk":9666,"Ġchucked":9667,"Ġsple":9668,"Ġquivered":9669,"Ġquality":9670,"ĠEN":9671,"ĠEle":9672,"Ġconqu":9673,"elting":9674,"elest":9675,"Ġunp":9676,"Ġunlocked":9677,"Ġunnoticed":9678,"Ġblade":9679,"Ġscum":9680,"Ġscare":9681,"Ġplinth":9682,"Ġclump":9683,"Ġclunk":9684,"Ġclaws":9685,"Ġclawed":9686,"Ġslam":9687,"Ġtwil":9688,"angers":9689,"Ġdoorstep":9690,"Ġvolum":9691,"Ġtracked":9692,"ĠKnew":9693,"Ġgran":9694,"ggy":9695,"Ġswapped":9696,"Ġswift":9697,"Ġflag":9698,"Ġflush":9699,"Ġflashes":9700,"ĠUnd":9701,"oles":9702,"iddling":9703,"Ġlongingly":9704,"Ġprem":9705,"Ġsomethin":9706,"Ġdishe":9707,"Ġbehave":9708,"Ġmugs":9709,"tending":9710,"Ġfiring":9711,"Ġremin":9712,"Ġprob":9713,"Ġprop":9714,"Ġprodded":9715,"Ġshouldered":9716,"uffed":9717,"ruit":9718,"Ġcontain":9719,"Ġdarkened":9720,"plete":9721,"Ġimpost":9722,"Ġcraning":9723,"ĠInst":9724,"ĠStr":9725,"ĠStun":9726,"Ġfloorboard":9727,"Ġnights":9728,"Ġschools":9729,"azar":9730,"Ġretorted":9731,"Ġstray":9732,"Ġskies":9733,"uddenly":9734,"issy":9735,"Ġquicker":9736,"Ġsquid":9737,"Ġmostly":9738,"Ġanguished":9739,"Ġminuscule":9740,"ĠArt":9741,"Ġappears":9742,"Ġobed":9743,"Ġobliv":9744,"shirt":9745,"enses":9746,"Ġforef":9747,"Ġcommotion":9748,"headed":9749,"Ġfurt":9750,"Ġcrowds":9751,"Ġemptying":9752,"Ġbreakout":9753,"rumple":9754,"lights":9755,"Ġextracted":9756,"ĠHeadmistress":9757,"ĠKnock":9758,"ĠClose":9759,"ubil":9760,"Ġintending":9761,"ĠExcept":9762,"Ġhates":9763,"Ġpowerfully":9764,"Ġaccess":9765,"Ġaccompl":9766,"Ġflee":9767,"Ġpatched":9768,"ĠSnackbox":9769,"Ġmistakes":9770,"Ġlaying":9771,"Ġfreely":9772,"Ġconfided":9773,"Ġconfidently":9774,"Ġsafer":9775,"ounted":9776,"Ġpurring":9777,"asonable":9778,"Ġregistered":9779,"Ġsummat":9780,"Ġescaping":9781,"Ġimportantly":9782,"OUT":9783,"leton":9784,"Ġleads":9785,"ĠCann":9786,"Ġzat":9787,"Ġtorch":9788,"ĠKarkus":9789,"Ġdisco":9790,"Ġdoubled":9791,"Ġhumili":9792,"Ġanxiety":9793,"ĠWithin":9794,"ipper":9795,"Ġsuggesting":9796,"ĠDiggle":9797,"ĠTofty":9798,"Ġtiptoe":9799,"Ġmessages":9800,"Ġprominent":9801,"Ġchoking":9802,"Ġabsor":9803,"ARD":9804,"Ġfingerna":9805,"Three":9806,"Ġcircles":9807,"Ġsickening":9808,"afa":9809,"Ġdepos":9810,"ĠApparated":9811,"Ġphotos":9812,"ĠBurke":9813,"Ġdeterminedly":9814,"Ġstatement":9815,"underst":9816,"While":9817,"Ġperformance":9818,"Ġprepare":9819,"Ġmenacingly":9820,"Ġmuster":9821,"Ġmuscle":9822,"Ġmusical":9823,"Ġguessing":9824,"Ġapplied":9825,"Ġgraves":9826,"ĠRegulation":9827,"Ġoccasions":9828,"ĠSmelting":9829,"Ġplatforms":9830,"Ġfox":9831,"Ġmurders":9832,"Ġeffects":9833,"Ġsurvives":9834,"Ġpoisoned":9835,"Ġtreating":9836,"Ġbrandished":9837,"Ġcases":9838,"Ġsqueeze":9839,"Ġwhispers":9840,"Ġcountryside":9841,"Ġshift":9842,"ĠBulstrode":9843,"Ġgreeting":9844,"Ġtottering":9845,"ĠStandard":9846,"Ġcelebration":9847,"Ġcelebrating":9848,"Ġconnect":9849,"Ġdisturbance":9850,"ĠHangleton":9851,"ĠLestranges":9852,"Ġprogram":9853,"Ġimproved":9854,"Ġserpents":9855,"Ġbandages":9856,"ĠHorned":9857,"Ġwitnesses":9858,"ĠDoesn":9859,"Ġthreateningly":9860,"ĠConfund":9861,"Ġpuffed":9862,"ĠThestral":9863,"ĠBEEN":9864,"ĠSnare":9865,"Ġretreating":9866,"Ġfondly":9867,"Ġpierced":9868,"Ġappointed":9869,"Ġresentment":9870,"Ġchatting":9871,"Ġantidotes":9872,"Ġtankard":9873,"ĠInquisitorial":9874,"ĠEvans":9875,"Ġominously":9876,"Ġslithered":9877,"Ġgrumpy":9878,"Ġrescued":9879,"ĠHERM":9880,"Ġfrustrated":9881,"Ġinstrument":9882,"Ġtimidly":9883,"Ġobeyed":9884,"Ġvibrating":9885,"ĠSpecial":9886,"Ġindifferently":9887,"Ġloyalty":9888,"Ġsucking":9889,"Ġqualified":9890,"Ġimprovement":9891,"Ġimprisoned":9892,"ĠTerry":9893,"Ġornate":9894,"Ġunwrapped":9895,"Ġgrindylow":9896,"Ġwreckage":9897,"Ġtype":9898,"Ġshawls":9899,"Ġgovernors":9900,"ĠMandr":9901,"Ġmaliciously":9902,"Ġderis":9903,"ĠResurre":9904,"Ġchoosing":9905,"Ġgracefully":9906,"Ġcompanion":9907,"ĠWheezes":9908,"Ġtarget":9909,"Ġglistening":9910,"Ġawaiting":9911,"Ġinhabit":9912,"Crookshanks":9913,"Ġboulder":9914,"stein":9915,"Ġtwittering":9916,"Ġvolunte":9917,"Ġremotely":9918,"Ġsniggering":9919,"IGHT":9920,"Ministry":9921,"Ġuproar":9922,"Ġalternative":9923,"Ġvegetable":9924,"Ġpredictions":9925,"ymph":9926,"Ġdwarf":9927,"Ġdusk":9928,"ĠSalazar":9929,"ĠSnatchers":9930,"occupied":9931,"Ġdrenched":9932,"Ġtradition":9933,"Fleur":9934,"Ġwoolly":9935,"Ġsacrif":9936,"ĠStatute":9937,"Ġaloft":9938,"ĠHermiones":9939,"Ġassoci":9940,"ĠPucey":9941,"ĠCormac":9942,"Ġknelt":9943,"ĠResurrection":9944,"Bell":9945,"DORE":9946,"GE":9947,"GG":9948,"OY":9949,"Tom":9950,"UFF":9951,"Wood":9952,"Yet":9953,"bru":9954,"cod":9955,"cern":9956,"dered":9957,"dress":9958,"ef":9959,"gu":9960,"iated":9961,"lows":9962,"pan":9963,"uction":9964,"worm":9965,"wiks":9966,"xe":9967,"yes":9968,"Ġted":9969,"Ġtangle":9970,"hee":9971,"inous":9972,"Ġhunt":9973,"Ġhunched":9974,"arian":9975,"ndered":9976,"Ġbuff":9977,"Ġbidding":9978,"Ġbomb":9979,"Ġfant":9980,"Ġfab":9981,"Ġfired":9982,"Ġfumes":9983,"Ġfidget":9984,"ĠHo":9985,"Ġtoler":9986,"itt":9987,"Ġcant":9988,"Ġcure":9989,"Ġcores":9990,"asm":9991,"Ġhey":9992,"Ġhearts":9993,"Ġhealed":9994,"Ġmull":9995,"Ġmastered":9996,"Ġlam":9997,"Ġlumb":9998,"Ġlousy":9999,"Ġpaws":10000,"Ġhag":10001,"Ġgilly":10002,"Ġnails":10003,"Ġsagging":10004,"otted":10005,"omplete":10006,"Ġbeady":10007,"usive":10008,"Ġstout":10009,"Ġstall":10010,"Ġstove":10011,"Ġstroll":10012,"etime":10013,"icles":10014,"Ġwhipping":10015,"ĠMars":10016,"ĠSame":10017,"ĠSection":10018,"ĠThing":10019,"ĠTales":10020,"ĠWest":10021,"ĠWAS":10022,"ĠDE":10023,"Ġreact":10024,"Ġreacted":10025,"sequ":10026,"stool":10027,"ĠAbs":10028,"ĠPeak":10029,"Ġselling":10030,"amble":10031,"ppy":10032,"alley":10033,"Ġnothin":10034,"pelled":10035,"ĠBin":10036,"ĠBad":10037,"ĠBoot":10038,"ĠGurg":10039,"unities":10040,"ĠCour":10041,"ĠClu":10042,"ĠCrumple":10043,"Ġknitted":10044,"Ġbutt":10045,"Ġalle":10046,"Ġshell":10047,"Ġjunk":10048,"Ġjagged":10049,"Ġjubil":10050,"ĠLock":10051,"ĠNymph":10052,"Ġsolit":10053,"Ġsoaked":10054,"Ġwheel":10055,"Ġliar":10056,"Ġvirt":10057,"Ġlect":10058,"Ġleaking":10059,"Ġleering":10060,"Ġexit":10061,"Ġabroad":10062,"ĠOrac":10063,"Ġnosed":10064,"Ġroars":10065,"Ġrooted":10066,"Ġalight":10067,"ula":10068,"Ġtend":10069,"Ġovert":10070,"Ġchick":10071,"Ġchanges":10072,"Ġoneeyed":10073,"Ġsport":10074,"Ġsporting":10075,"ĠEX":10076,"Ġunwise":10077,"Ġunsc":10078,"Ġunrolled":10079,"Ġblimey":10080,"ĠVane":10081,"Ġcance":10082,"Ġscattering":10083,"Ġplung":10084,"Ġplumm":10085,"Ġclinking":10086,"Ġmoaning":10087,"Ġtramp":10088,"Ġglint":10089,"Ġglinted":10090,"Ġglances":10091,"Ġrights":10092,"Ġgrunting":10093,"Ġflipped":10094,"Ġmaniac":10095,"iddy":10096,"abor":10097,"Ġdisemb":10098,"Ġdiscipl":10099,"Ġloves":10100,"Ġloomed":10101,"Ġapparent":10102,"Ġspec":10103,"Ġbrood":10104,"Ġprod":10105,"ĠChamp":10106,"Ġtryin":10107,"rug":10108,"Ġwaf":10109,"Ġhopped":10110,"Ġamusement":10111,"Ġdrain":10112,"mend":10113,"Ġputs":10114,"Ġpassages":10115,"ĠInter":10116,"Ġsurre":10117,"Ġterrif":10118,"Ġsuppressed":10119,"Ġsupporting":10120,"Ġlighting":10121,"Ġlighter":10122,"Ġwrinkled":10123,"Ġelabor":10124,"Ġnighttime":10125,"Ġemph":10126,"Ġemitting":10127,"Ġstragg":10128,"Ġskinned":10129,"Ġrealised":10130,"Ġlifetime":10131,"Ġsquirm":10132,"Ġangrier":10133,"riction":10134,"Ġsteered":10135,"Ġexpel":10136,"Ġminor":10137,"Ġappeal":10138,"Ġreser":10139,"Ġparties":10140,"Ġboils":10141,"ĠBeans":10142,"ĠGrade":10143,"ulture":10144,"Ġcopper":10145,"Ġdeciding":10146,"Ġfurry":10147,"Ġsignal":10148,"Ġhearty":10149,"Ġcompre":10150,"Ġpointedly":10151,"ĠForget":10152,"Ġintern":10153,"Ġinterjected":10154,"Ġmisunderst":10155,"ĠSnuffles":10156,"Ġconfide":10157,"Ġconfirm":10158,"Ġstreets":10159,"spond":10160,"Ġuncertain":10161,"Ġsubm":10162,"Ġreput":10163,"Ġdreamy":10164,"ĠProngs":10165,"ounc":10166,"Ġbelly":10167,"Ġplanets":10168,"Ġknocker":10169,"brush":10170,"Ġcluttered":10171,"Ġregularly":10172,"Ġsummon":10173,"Ġsummoned":10174,"Ġcollected":10175,"Ġmadness":10176,"Ġtentacles":10177,"Ġhopes":10178,"Ġoccur":10179,"ĠSomehow":10180,"Ġbarrel":10181,"Ġleader":10182,"Ġcolumn":10183,"Ġsunshine":10184,"ĠDefinitely":10185,"Ġzero":10186,"Ġdisconc":10187,"Ġfearful":10188,"Ġcopied":10189,"ĠTHIS":10190,"Ġtrail":10191,"Ġtrailed":10192,"Ġmarkings":10193,"Ġguarded":10194,"ĠDisarm":10195,"ĠDisillusion":10196,"Ġdogs":10197,"Ġtails":10198,"Ġsmelling":10199,"Ġdustb":10200,"Ġtrusting":10201,"Ġfavorites":10202,"Ġbreeds":10203,"Ġnastily":10204,"Ġworthless":10205,"Ġjeered":10206,"Ġgroping":10207,"Ġalarming":10208,"Ġsuspicions":10209,"Ġshoving":10210,"Ġaffected":10211,"Ġembro":10212,"Ġsqueaky":10213,"uminous":10214,"Ġcloudy":10215,"Ġimmort":10216,"Ġimmersed":10217,"ĠWands":10218,"Ġsuffoc":10219,"Ġperforming":10220,"Ġexplode":10221,"Ġmenacing":10222,"Ġsensible":10223,"Ġagreement":10224,"Ġcomforting":10225,"Ġcomfortably":10226,"Ġannoying":10227,"Ġannoyance":10228,"Ġinclude":10229,"Ġstrip":10230,"Ġsqueaking":10231,"Next":10232,"Ġtests":10233,"Ġincredibly":10234,"OOOO":10235,"Ġpillars":10236,"ĠMostafa":10237,"Ġbrandy":10238,"Ġpenalty":10239,"Ġscrambling":10240,"Ġnewspapers":10241,"ĠWHO":10242,"Ġexists":10243,"Ġthunderstruck":10244,"Ġaccompany":10245,"Ġvalue":10246,"Ġvariety":10247,"Ġengulf":10248,"ĠTwice":10249,"ĠTwycross":10250,"Ġconsiderably":10251,"Ġdrowning":10252,"dgecom":10253,"Ġissue":10254,"belie":10255,"Ġshrank":10256,"Ġincreasing":10257,"Ġvictory":10258,"Ġappreciatively":10259,"Ġthrusting":10260,"Ġgleeful":10261,"Ġbuckled":10262,"Ġsevered":10263,"Ġproducts":10264,"Ġpursuing":10265,"ĠPrecisely":10266,"ĠSnap":10267,"ASLEY":10268,"Ġbravery":10269,"Ġbetray":10270,"Ġsymbols":10271,"Ġreverse":10272,"Ġgentlemen":10273,"Ġvert":10274,"ĠWEASLEY":10275,"Ġsucceed":10276,"Ġoccupied":10277,"Ġbalance":10278,"Ġscurried":10279,"Ġflowery":10280,"IONE":10281,"Ġfixing":10282,"Ġafterwards":10283,"Ġshaky":10284,"Ġpelting":10285,"ĠIgn":10286,"Ġunconcern":10287,"Ġdramatic":10288,"Ġinspection":10289,"Ġprowled":10290,"Ġdeveloped":10291,"ĠSecretKeep":10292,"Ġgrindylows":10293,"BLEDORE":10294,"Ġmystery":10295,"Ġshriveled":10296,"ĠHarper":10297,"Ġyelped":10298,"Ġwhimpered":10299,"Ġmethods":10300,"Ġjealous":10301,"Ġsympathetic":10302,"Ġsulky":10303,"Ġlimbs":10304,"Ġscathingly":10305,"Ġsignificant":10306,"Ġeducation":10307,"Ġconfiscated":10308,"Ġskulking":10309,"Ġsquashy":10310,"ĠBowtruckle":10311,"Ġgonna":10312,"Ġchorus":10313,"Ġrelationship":10314,"Ġpallid":10315,"Ġknobbly":10316,"ĠOpen":10317,"Ġsympathy":10318,"Ġnapkin":10319,"ĠMemory":10320,"Ġhorizon":10321,"ĠAlbania":10322,"ĠProtego":10323,"Ġassembled":10324,"Ġexcuses":10325,"Ġdisheveled":10326,"ĠKnockturn":10327,"ĠHERMIONE":10328,"ĠMandrakes":10329,"bruary":10330,"wikspell":10331,"ĠPeakes":10332,"ĠNymphadora":10333,"ĠOracle":10334,"dgecombe":10335,"ĠSecretKeeper":10336,"AST":10337,"Er":10338,"Ge":10339,"Hog":10340,"Half":10341,"HER":10342,"None":10343,"Pe":10344,"ROM":10345,"aise":10346,"bles":10347,"che":10348,"copes":10349,"eree":10350,"for":10351,"friend":10352,"frog":10353,"first":10354,"gi":10355,"ham":10356,"iate":10357,"lig":10358,"lation":10359,"laz":10360,"oise":10361,"rir":10362,"sive":10363,"turb":10364,"uct":10365,"uated":10366,"uine":10367,"weep":10368,"yin":10369,"Ġou":10370,"Ġtion":10371,"Ġtarn":10372,"Ġtaps":10373,"Ġtasted":10374,"Ġtinkling":10375,"Ġtesting":10376,"Ġapr":10377,"inated":10378,"inity":10379,"Ġsang":10380,"Ġsherry":10381,"Ġwig":10382,"Ġhip":10383,"erated":10384,"Ġbon":10385,"Ġbridge":10386,"Ġbudge":10387,"Ġfarewell":10388,"Ġoil":10389,"ĠHosp":10390,"Ġtoy":10391,"iture":10392,"Ġcunning":10393,"asured":10394,"oringly":10395,"Ġding":10396,"Ġdig":10397,"Ġdrows":10398,"encing":10399,"enetra":10400,"Ġmop":10401,"Ġmile":10402,"Ġmult":10403,"Ġmarch":10404,"Ġmarsh":10405,"Ġlure":10406,"Ġlining":10407,"Ġthw":10408,"Ġthump":10409,"Ġpaw":10410,"Ġham":10411,"Ġhalted":10412,"Ġgin":10413,"Ġguff":10414,"Ġgames":10415,"Ġnick":10416,"Ġnest":10417,"Ġsauce":10418,"lying":10419,"Ġeld":10420,"vels":10421,"Ġsting":10422,"Ġstarts":10423,"icting":10424,"icable":10425,"icient":10426,"ĠMY":10427,"ĠMid":10428,"ĠMason":10429,"ĠMoony":10430,"ĠSus":10431,"ĠSens":10432,"ĠSorc":10433,"ĠSPE":10434,"ĠSisters":10435,"ĠTroy":10436,"Ġweigh":10437,"ĠWatch":10438,"ĠDumb":10439,"ĠDream":10440,"ĠDAR":10441,"ĠDraught":10442,"Ġasks":10443,"Ġum":10444,"Ġrenew":10445,"alking":10446,"ĠRow":10447,"ĠRel":10448,"riate":10449,"chan":10450,"Ġanc":10451,"ĠPart":10452,"Ġselect":10453,"hering":10454,"ppers":10455,"Ġshove":10456,"Ġshiver":10457,"ĠBo":10458,"ĠBu":10459,"ĠCH":10460,"ĠCalm":10461,"ĠCOME":10462,"ĠCissy":10463,"Ġrick":10464,"Ġranks":10465,"Ġraining":10466,"ĠFight":10467,"ĠFROM":10468,"Ġsheep":10469,"ĠWeekly":10470,"Ġjam":10471,"ĠLie":10472,"ĠLoony":10473,"lope":10474,"Ġbackside":10475,"ortment":10476,"idered":10477,"Ġvain":10478,"Ġvalley":10479,"Ġvulture":10480,"Ġlean":10481,"Ġleague":10482,"inkingly":10483,"ĠOi":10484,"istic":10485,"Ġroset":10486,"Ġovercoat":10487,"venient":10488,"Ġspill":10489,"Ġspying":10490,"ĠEh":10491,"ĠEu":10492,"Ġunl":10493,"ieur":10494,"Ġblunt":10495,"ĠVen":10496,"estruck":10497,"Ġclap":10498,"Ġclung":10499,"Ġcloth":10500,"Ġclums":10501,"Ġslashed":10502,"Ġorb":10503,"Ġwander":10504,"Ġmoves":10505,"Harrys":10506,"Ġtwist":10507,"Ġsmashing":10508,"ounding":10509,"ĠKwikspell":10510,"Ġglimm":10511,"Ġarrows":10512,"Ġswirl":10513,"Ġswirled":10514,"Ġflicking":10515,"Ġflitted":10516,"Ġflailing":10517,"Ġthoughtful":10518,"Ġmanager":10519,"Ġcloset":10520,"fts":10521,"Ġdisrup":10522,"Ġloving":10523,"ĠShell":10524,"Ġremed":10525,"Ġbrist":10526,"Ġproc":10527,"Ġproduc":10528,"ĠNope":10529,"Ġwaves":10530,"berry":10531,"Ġhovered":10532,"Ġtalks":10533,"Ġsnoo":10534,"Ġsnores":10535,"Ġamounts":10536,"peration":10537,"Ġchew":10538,"Ġimperson":10539,"onsieur":10540,"Ġpasses":10541,"Ġcramped":10542,"ĠJones":10543,"plain":10544,"Ġcleaned":10545,"Ġendless":10546,"Ġsupply":10547,"beus":10548,"Ġretort":10549,"Ġretired":10550,"apple":10551,"Ġstride":10552,"Ġskir":10553,"Ġskip":10554,"Ġjokes":10555,"Ġairily":10556,"Ġmatches":10557,"anshee":10558,"Ġfirewhisky":10559,"Ġsquarely":10560,"ĠPerkins":10561,"Ġsteaming":10562,"ĠMoodys":10563,"Ġoblig":10564,"Ġresisting":10565,"Ġresolutely":10566,"Ġpartly":10567,"liato":10568,"Ġscarred":10569,"Ġincompre":10570,"Ġcoughed":10571,"Ġdisting":10572,"Ġadult":10573,"Ġfours":10574,"Ġexposed":10575,"Ġcob":10576,"Ġcope":10577,"Ġfathers":10578,"Ġguarant":10579,"rawing":10580,"ivable":10581,"Ġawed":10582,"Ġawestruck":10583,"Ġstraightaway":10584,"eneath":10585,"rums":10586,"Ġdial":10587,"Ġdiam":10588,"Ġdipped":10589,"Ġextract":10590,"ĠShame":10591,"ĠKnuts":10592,"Ġintellig":10593,"Ġexample":10594,"ĠExpect":10595,"ĠForg":10596,"Ġrounding":10597,"Ġrefus":10598,"Ġreferee":10599,"Ġfastened":10600,"Ġmistletoe":10601,"Ġbookshe":10602,"escue":10603,"Ġbellowing":10604,"Ġtripping":10605,"Ġshocking":10606,"Ġphr":10607,"Ġdrawling":10608,"Ġcreated":10609,"Ġthrong":10610,"ĠGoing":10611,"Ġrepeatedly":10612,"Ġassuming":10613,"Ġassortment":10614,"Ġignited":10615,"Ġsunlit":10616,"Ġbattling":10617,"Ġtrainers":10618,"Ġvisits":10619,"Ġzig":10620,"Ġgleam":10621,"Ġmirac":10622,"Ġmirth":10623,"Ġmiracle":10624,"Ġblanket":10625,"Ġforms":10626,"Ġtruthfully":10627,"ĠLeaving":10628,"Ġgrouped":10629,"Ġgloating":10630,"ĠFlavor":10631,"Ġordering":10632,"Ġmarking":10633,"Ġmessed":10634,"Ġadvise":10635,"Ġbounds":10636,"Ġtowel":10637,"Ġstaffroom":10638,"Ġgrayish":10639,"Ġmassaging":10640,"Ġbreed":10641,"Ġnoticeboard":10642,"Ġsickly":10643,"Ġrocky":10644,"Ġgenius":10645,"Ġgenuine":10646,"Ġtricky":10647,"Ġtrickle":10648,"ATION":10649,"Ġessence":10650,"Ġaffronted":10651,"Ġdrift":10652,"Ġemblaz":10653,"Ġwincing":10654,"Ġcrocod":10655,"Ġconcentrated":10656,"Ġsplashing":10657,"Ġkidna":10658,"Ġsquealing":10659,"Ġbabble":10660,"Ġdelightedly":10661,"Neither":10662,"Ġgenerous":10663,"Ġsquares":10664,"Ġtoadlike":10665,"Ġlimit":10666,"Ġstroked":10667,"ĠEnough":10668,"Ġsmirk":10669,"aunts":10670,"Ġpinstri":10671,"Ġjudg":10672,"Ġtriumphantly":10673,"Ġreappearing":10674,"elessly":10675,"Ġcontrad":10676,"Ġconjure":10677,"ĠCareful":10678,"Ġrustle":10679,"Without":10680,"Ġbloss":10681,"ĠFebruary":10682,"Ġbriefcase":10683,"Ġmodest":10684,"Ġshrink":10685,"ĠNOW":10686,"Ġabandon":10687,"Ġscowl":10688,"Ġidentity":10689,"Ġcollapse":10690,"Ġembarrassing":10691,"ĠUnderage":10692,"Ġintroduced":10693,"Ġdisappearance":10694,"Ġtransport":10695,"RIUS":10696,"Still":10697,"Ġdodging":10698,"Ġpuffing":10699,"Ġtensely":10700,"Ġbullfrog":10701,"Ġrebell":10702,"Ġcoughing":10703,"ĠShouldn":10704,"Ġreverber":10705,"Ġwheezing":10706,"Ġacceler":10707,"Ġapologetically":10708,"Ġpillowcase":10709,"UMBLEDORE":10710,"Ġhuddle":10711,"Ġpeaceful":10712,"Ġharshly":10713,"Ġprovide":10714,"Ġbeasts":10715,"Ġleaflet":10716,"Ġturkey":10717,"ĠRiddikulus":10718,"ĠGlass":10719,"Ġadmiration":10720,"Ġtraitors":10721,"ĠElix":10722,"Ġblurted":10723,"Ġpatiently":10724,"Ġunnatural":10725,"Ġobserved":10726,"Ġobserving":10727,"Ġreluctant":10728,"Ġrimmed":10729,"Ġabsentmind":10730,"orgivable":10731,"Ġelderly":10732,"Ġsprouted":10733,"Ġstifled":10734,"Ġteenage":10735,"Ġheadmistresses":10736,"Ġtremble":10737,"Ġadditional":10738,"ĠImpedimenta":10739,"glass":10740,"Ġvomit":10741,"Ġencouragingly":10742,"Outstanding":10743,"Ġswiveled":10744,"Ġstrangest":10745,"Ġconductor":10746,"Ġlatest":10747,"ĠSIRIUS":10748,"ĠFifty":10749,"posal":10750,"Ġmeself":10751,"Ġgifted":10752,"Ġemploy":10753,"Ġactivity":10754,"Ġpriority":10755,"ĠFenrir":10756,"Ġcomprised":10757,"Ġflinched":10758,"ĠDevil":10759,"Ġunblinkingly":10760,"Ġsubsided":10761,"ĠCleansweep":10762,"Ġsolemnly":10763,"Potter":10764,"Ġfurniture":10765,"Ġpixies":10766,"ĠEducational":10767,"Ġintimid":10768,"Ġstreetlamps":10769,"Ġmotorcycle":10770,"ocused":10771,"Ġtethered":10772,"ĠMuffliato":10773,"Ġshelter":10774,"Ġforefinger":10775,"ĠCannons":10776,"Ġfingernails":10777,"Bellatrix":10778,"ĠAbsolutely":10779,"ĠCourt":10780,"ĠClub":10781,"Ġchickens":10782,"ouncement":10783,"Ġembroidered":10784,"George":10785,"ĠHospital":10786,"Ġrenewed":10787,"Ġrickety":10788,"Ġemblazoned":10789,"Ġcrocodile":10790,"Ġpinstriped":10791,"Ġabsentmindedly":10792,"Cho":10793,"Draco":10794,"EAR":10795,"FY":10796,"Hedwig":10797,"IL":10798,"Lavender":10799,"Most":10800,"Sh":10801,"Sil":10802,"Was":10803,"ault":10804,"dain":10805,"gen":10806,"gom":10807,"gro":10808,"holes":10809,"iber":10810,"ology":10811,"pot":10812,"ration":10813,"rors":10814,"raction":10815,"van":10816,"worthy":10817,"Ġidly":10818,"ĠQU":10819,"ĠÂĵ":10820,"Ġtum":10821,"Ġtack":10822,"Ġtide":10823,"Ġtug":10824,"Ġack":10825,"Ġsore":10826,"Ġwink":10827,"onia":10828,"aro":10829,"ndid":10830,"Ġbrew":10831,"Ġfudge":10832,"Ġfret":10833,"Ġoo":10834,"Ġow":10835,"Ġopt":10836,"Ġowing":10837,"ĠHim":10838,"atching":10839,"atory":10840,"ism":10841,"iter":10842,"Ġcaf":10843,"Ġcackle":10844,"Ġheatedly":10845,"Ġdil":10846,"Ġdiet":10847,"Ġdrill":10848,"Ġdots":10849,"Ġmorn":10850,"Ġmix":10851,"Ġmousy":10852,"Ġlain":10853,"Ġlord":10854,"Ġluminous":10855,"Ġthus":10856,"Ġthinner":10857,"Ġpang":10858,"Ġpies":10859,"Ġpants":10860,"Ġhaunted":10861,"Ġgun":10862,"Ġnut":10863,"lym":10864,"Ġyelp":10865,"omber":10866,"Ġbeef":10867,"Ġec":10868,"Ġecl":10869,"Ġhistor":10870,"Ġstung":10871,"Ġstrolling":10872,"Ġstaggering":10873,"Ġonion":10874,"Ġoncoming":10875,"ething":10876,"icrous":10877,"Ġwhir":10878,"Ġwhoos":10879,"roper":10880,"ĠMet":10881,"ĠMain":10882,"ĠMist":10883,"ĠMonsieur":10884,"ĠSays":10885,"utes":10886,"ĠWA":10887,"entine":10888,"ĠDer":10889,"ĠDID":10890,"ĠDiddy":10891,"ĠDUMBLEDORE":10892,"Ġattended":10893,"Ġrect":10894,"ura":10895,"urious":10896,"urance":10897,"agues":10898,"ĠRod":10899,"ĠRUN":10900,"kempt":10901,"ĠAa":10902,"ĠAc":10903,"ĠAct":10904,"ĠAng":10905,"ĠPur":10906,"ĠPri":10907,"ĠPudd":10908,"ĠPene":10909,"ĠPoss":10910,"illes":10911,"arded":10912,"ĠHem":10913,"ĠHex":10914,"ĠBole":10915,"embr":10916,"Ġups":10917,"Ġupturned":10918,"Ġoutbreak":10919,"Ġoutlines":10920,"ĠGRY":10921,"ĠGreen":10922,"unior":10923,"ĠCool":10924,"ĠCoot":10925,"ĠCottage":10926,"ĠCelest":10927,"Ġnephe":10928,"Ġric":10929,"Ġrumbled":10930,"ĠFo":10931,"ĠFuture":10932,"ifully":10933,"together":10934,"ĠLight":10935,"ĠNight":10936,"bleed":10937,"loding":10938,"quired":10939,"quoise":10940,"udicrous":10941,"Ġleaked":10942,"Ġextended":10943,"inkle":10944,"ists":10945,"istra":10946,"istinct":10947,"rake":10948,"Ġrob":10949,"Ġalm":10950,"ulent":10951,"ffic":10952,"ffees":10953,"oyles":10954,"Ġsup":10955,"Ġchatter":10956,"Ġchunks":10957,"Ġspattered":10958,"Ġsputtered":10959,"Ġspindly":10960,"ĠEat":10961,"ĠEasy":10962,"ĠEdgecombe":10963,"elia":10964,"Ġunkempt":10965,"Ġworries":10966,"Ġscorn":10967,"Ġplac":10968,"Ġplus":10969,"Ġplug":10970,"Ġclanged":10971,"Ġslower":10972,"Ġslapped":10973,"Ġslouched":10974,"Ġheadless":10975,"Ġtwirling":10976,"Ġtwinge":10977,"Ġsmiles":10978,"Ġdoorbell":10979,"Ġvoiced":10980,"Ġtrooped":10981,"ĠKindly":10982,"Ġglued":10983,"Ġglazed":10984,"Ġgracious":10985,"ĠPotty":10986,"Ġswim":10987,"Ġflanked":10988,"lingly":10989,"auses":10990,"olk":10991,"Ġmanners":10992,"odied":10993,"Ġpref":10994,"Ġprey":10995,"Ġimages":10996,"Ġimitation":10997,"Ġimitated":10998,"Ġwhereas":10999,"Ġdisli":11000,"Ġdisdain":11001,"rowed":11002,"Ġkeeled":11003,"Ġloaded":11004,"Ġbrush":11005,"ĠChudley":11006,"uffing":11007,"ructed":11008,"Ġwax":11009,"Ġcontrib":11010,"Ġsnore":11011,"Ġsnoring":11012,"Ġsnarling":11013,"Ġneeding":11014,"oughing":11015,"ĠQuotes":11016,"ungi":11017,"Ġimpenetra":11018,"Ġhurled":11019,"Ġcrushing":11020,"Ġcrude":11021,"Ġcrumbling":11022,"ĠInj":11023,"plitting":11024,"Ġending":11025,"Ġterse":11026,"Ġcurl":11027,"Ġcursing":11028,"Ġcalls":11029,"Ġrail":11030,"Ġstrict":11031,"Ġskidding":11032,"ailable":11033,"Ġbooked":11034,"Ġmattered":11035,"Ġsquel":11036,"Ġcork":11037,"ĠPerfect":11038,"Ġcareers":11039,"Ġcarelessly":11040,"Ġuntied":11041,"Ġexpecto":11042,"tenance":11043,"Ġkiller":11044,"amph":11045,"Ġresolved":11046,"Ġresume":11047,"phant":11048,"ĠGran":11049,"Ġrecovered":11050,"Ġrecover":11051,"Ġcoup":11052,"Ġdroppings":11053,"Ġbadger":11054,"Ġadj":11055,"Ġexpulsion":11056,"Ġcoiling":11057,"Ġcoinc":11058,"Ġworkers":11059,"Ġdecl":11060,"Ġindec":11061,"Ġindivid":11062,"Ġsleet":11063,"Ġfurrowed":11064,"Ġguide":11065,"Ġvisions":11066,"Ġstops":11067,"Ġstraighter":11068,"Ġburden":11069,"Ġribb":11070,"cio":11071,"ĠShop":11072,"ĠKnowing":11073,"Ġcomput":11074,"Ġexamin":11075,"Ġsurprisingly":11076,"ĠExplain":11077,"Ġbrighter":11078,"Ġinsulted":11079,"Ġcompleted":11080,"Ġrefuge":11081,"ĠSnive":11082,"Ġtennis":11083,"Ġpocketed":11084,"Ġodds":11085,"Ġsafest":11086,"Ġshutting":11087,"Ġreporter":11088,"ĠProt":11089,"Ġdifferently":11090,"Ġruin":11091,"Ġspraying":11092,"Ġpurch":11093,"Ġtrials":11094,"Ġburns":11095,"Ġburnt":11096,"Ġregain":11097,"Ġregurg":11098,"Ġquestioned":11099,"Ġescort":11100,"yeh":11101,"Ġcreate":11102,"Ġvein":11103,"Ġemerge":11104,"Ġinviting":11105,"Ġignor":11106,"Ġmentioning":11107,"ĠAha":11108,"Ġzoo":11109,"Ġirre":11110,"Ġconsult":11111,"Ġfearfully":11112,"INKS":11113,"INIST":11114,"Ġtransfer":11115,"Ġtransfig":11116,"Ġdeserves":11117,"Ġtempered":11118,"Ġsisters":11119,"notus":11120,"amenti":11121,"Ġbasic":11122,"Ġbasement":11123,"Ġguardian":11124,"ONE":11125,"ĠDisposal":11126,"ĠGetting":11127,"Ġabsently":11128,"Ġabsolute":11129,"Ġ19":11130,"Ġclassrooms":11131,"ĠMarcus":11132,"Ġcountless":11133,"Ġfainter":11134,"Ġpackages":11135,"Ġwarmer":11136,"Ġsolution":11137,"Ġfixedly":11138,"Ġrocking":11139,"Ġdresser":11140,"Ġgrimace":11141,"Ġgrimaced":11142,"Ġpoltergeist":11143,"Ġhonored":11144,"Ġalarmingly":11145,"ATE":11146,"Ġgravely":11147,"Ġvillagers":11148,"Ġcomplained":11149,"Ġinky":11150,"Ġexploding":11151,"ĠLovely":11152,"Ġapplaud":11153,"Ġbanisters":11154,"Ġsplash":11155,"Ġnoisily":11156,"Ġbrilliance":11157,"Ġbrilliantly":11158,"ĠPoint":11159,"Ġexpert":11160,"Ġremainder":11161,"Ġswallow":11162,"Ġdamaged":11163,"Ġeighteen":11164,"ĠAmelia":11165,"Ġunfocused":11166,"Ġsqueal":11167,"arranged":11168,"Ġsticky":11169,"OOM":11170,"Ġgulping":11171,"Ġscratches":11172,"Ġgenerations":11173,"Ġstationed":11174,"Ġsources":11175,"Ġdevast":11176,"Ġpumping":11177,"Ġpumpkins":11178,"Ġconstric":11179,"Ġtorturing":11180,"Ġviolence":11181,"ĠSTINKS":11182,"ĠOFF":11183,"Ġengraved":11184,"Ġresearch":11185,"Ġgratefully":11186,"ĠStanding":11187,"Ġcelebrate":11188,"Ġcelebrated":11189,"Ġfortnight":11190,"Ġscrape":11191,"Ġgrasping":11192,"Ġdismissed":11193,"Ġcaptured":11194,"quely":11195,"Ġabandoning":11196,"Ġboats":11197,"ĠExploding":11198,"Any":11199,"Ġprediction":11200,"Ġcoats":11201,"Ġappreciated":11202,"ĠBulgaria":11203,"RID":11204,"Ġfragile":11205,"Ġweekends":11206,"ĠClunk":11207,"Ġequally":11208,"Ġreckless":11209,"Ġaccusing":11210,"Ġbullet":11211,"ĠRubeus":11212,"aaaa":11213,"Ġcrazy":11214,"Ġexaminations":11215,"Ġsubstit":11216,"Ġrevolted":11217,"Ġrubies":11218,"ĠParselm":11219,"Ġpupil":11220,"ĠWhether":11221,"Ġwheezed":11222,"ĠEngland":11223,"Ġmedd":11224,"Ġmedi":11225,"ĠSkiving":11226,"Ġoccupants":11227,"Ġassistance":11228,"ĠDrag":11229,"ĠObliv":11230,"Ġprovided":11231,"Ġdivided":11232,"Ġdisapproval":11233,"Ġlingering":11234,"Ġvacation":11235,"However":11236,"Ġturquoise":11237,"Ġradio":11238,"Ġobsession":11239,"Ġbarking":11240,"ĠIgnotus":11241,"Ġdwelling":11242,"FFIND":11243,"Ġpulse":11244,"Ġslippers":11245,"Ġpunctuated":11246,"Ġprowling":11247,"Ġeventually":11248,"Ġrasping":11249,"Ġremarkably":11250,"Ġcontemptuous":11251,"Ġfascinated":11252,"Ġcowardly":11253,"Ġtemporary":11254,"ĠRestricted":11255,"ĠRestriction":11256,"Ġshawl":11257,"Ġbruised":11258,"Ġastounded":11259,"ĠBelby":11260,"ĠGuide":11261,"ĠGolden":11262,"ĠUnfogging":11263,"ĠUnforgivable":11264,"ĠGoblins":11265,"Ġrejoined":11266,"ĠPoltergeist":11267,"Ġencouragement":11268,"thening":11269,"Ġinexpl":11270,"Ġspheres":11271,"Ġskeletal":11272,"Ġcubicle":11273,"Ġdignified":11274,"Ġreassuringly":11275,"Ġanticipation":11276,"Ġbolted":11277,"Ġfancied":11278,"Ġpineapple":11279,"Ġwhizzing":11280,"ĠMonster":11281,"Ġchallenge":11282,"Ġsplintered":11283,"Ġcolleagues":11284,"ĠReparo":11285,"ĠFortescue":11286,"Ġinspir":11287,"Ġleprechauns":11288,"Ġwizened":11289,"Ġhaughty":11290,"Ġintrigued":11291,"Ġsoothingly":11292,"Ġaggressively":11293,"marked":11294,"Ġhedges":11295,"Ġmillion":11296,"bberworm":11297,"Ġcleverer":11298,"Ġflexing":11299,"Ġexecutioner":11300,"Ġtossed":11301,"Ġculpr":11302,"Ġshrunken":11303,"hetically":11304,"Ġlemon":11305,"ĠABOUT":11306,"Ġfrankly":11307,"Ġrooster":11308,"Ġsplendid":11309,"Ġreminisc":11310,"Ġprobation":11311,"Ġfurtive":11312,"ĠSnackboxes":11313,"Ġdeposited":11314,"Ġinhabitants":11315,"Ġsacrifice":11316,"Ġfabulous":11317,"Ġgillyweed":11318,"Ġvirtually":11319,"ĠEXPE":11320,"Ġplunging":11321,"Ġdisembodied":11322,"ĠChampions":11323,"Ġterrifying":11324,"Ġemphas":11325,"ĠDisillusionment":11326,"believable":11327,"Ġvertical":11328,"Ġapron":11329,"Ġdingy":11330,"Ġeldest":11331,"ĠSusan":11332,"Ġclumsily":11333,"Ġsnoozing":11334,"Ġcobwe":11335,"Ġdiamond":11336,"Ġzigz":11337,"ĠElixir":11338,"Ġtumult":11339,"Ġacknow":11340,"ĠPenelope":11341,"ĠGRYFFIND":11342,"ĠCoote":11343,"Ġnephew":11344,"INISTRY":11345,"ĠGRYFFINDOR":11346,"AIN":11347,"Crabbe":11348,"Fe":11349,"Fawkes":11350,"Kreacher":11351,"Magic":11352,"Peeves":11353,"Right":11354,"Se":11355,"Winky":11356,"aign":11357,"bstones":11358,"dom":11359,"down":11360,"eal":11361,"fire":11362,"ga":11363,"gmy":11364,"gaph":11365,"hor":11366,"hire":11367,"kind":11368,"lius":11369,"lished":11370,"mens":11371,"norm":11372,"pin":11373,"rus":11374,"rusted":11375,"tes":11376,"times":11377,"uk":11378,"uled":11379,"uits":11380,"wall":11381,"watch":11382,"yl":11383,"yle":11384,"ygmy":11385,"zily":11386,"Ġ0":11387,"Ġtattered":11388,"Ġtakin":11389,"Ġsly":11390,"Ġwigg":11391,"erk":11392,"ndane":11393,"Ġbi":11394,"Ġbaw":11395,"Ġbows":11396,"Ġfurs":11397,"Ġfits":11398,"Ġol":11399,"Ġove":11400,"itled":11401,"itiously":11402,"Ġcured":11403,"Ġcere":11404,"Ġcaptain":11405,"Ġcrawling":11406,"Ġhears":11407,"Ġdom":11408,"Ġdanced":11409,"Ġdash":11410,"ench":11411,"Ġmangled":11412,"Ġmaker":11413,"Ġlil":11414,"Ġlank":11415,"Ġlinked":11416,"Ġloop":11417,"Ġlenses":11418,"Ġludicrous":11419,"Ġpant":11420,"Ġpained":11421,"Ġpigg":11422,"Ġpork":11423,"Ġpane":11424,"Ġpony":11425,"Ġpamph":11426,"ese":11427,"Ġgou":11428,"Ġgum":11429,"Ġgagged":11430,"Ġguts":11431,"Ġnave":11432,"Ġnicked":11433,"Ġnurse":11434,"Ġnaked":11435,"Ġnagging":11436,"Ġnavy":11437,"lection":11438,"Ġsalt":11439,"othe":11440,"otions":11441,"omen":11442,"Ġbef":11443,"Ġbead":11444,"Ġbeech":11445,"acock":11446,"immed":11447,"imply":11448,"ussed":11449,"Ġstitch":11450,"Ġstee":11451,"Ġstowing":11452,"Ġstinking":11453,"Ġstony":11454,"Ġstumbling":11455,"Ġitems":11456,"ooled":11457,"verbal":11458,"roken":11459,"irc":11460,"irable":11461,"ĠMU":11462,"ĠMed":11463,"ĠMen":11464,"ĠMull":11465,"ĠMade":11466,"ĠMine":11467,"ĠMove":11468,"ĠMimb":11469,"ĠMount":11470,"ĠMummy":11471,"ĠMINISTRY":11472,"ĠSte":11473,"ĠSwe":11474,"ĠSolution":11475,"ĠTook":11476,"ĠTroll":11477,"Ġweaving":11478,"ĠWalk":11479,"ĠDim":11480,"ĠDumble":11481,"Ġrely":11482,"agne":11483,"Ġwithered":11484,"chie":11485,"ĠAge":11486,"aybe":11487,"ĠPAT":11488,"ĠPres":11489,"ĠPygmy":11490,"Ġseal":11491,"Ġnotices":11492,"ĠThem":11493,"Ġshack":11494,"Ġherd":11495,"ĠBan":11496,"ĠBarry":11497,"ĠBind":11498,"ĠBra":11499,"ĠBody":11500,"ĠBye":11501,"ĠBACK":11502,"ĠBeneath":11503,"Ġfron":11504,"Ġdozed":11505,"Ġouts":11506,"ĠGI":11507,"ĠCR":11508,"ĠCream":11509,"ĠComing":11510,"Ġmeals":11511,"Ġmegaph":11512,"Ġknack":11513,"Ġknitting":11514,"Ġrh":11515,"Ġray":11516,"Ġrue":11517,"Ġraced":11518,"ĠFide":11519,"Ġsheer":11520,"Ġsheaf":11521,"ĠWeather":11522,"Ġjars":11523,"Ġjackets":11524,"ĠLess":11525,"ĠLine":11526,"ĠLies":11527,"ĠLived":11528,"ĠNast":11529,"ĠNine":11530,"cking":11531,"Ġsopping":11532,"Ġsocc":11533,"Ġwheels":11534,"lod":11535,"Ġbackground":11536,"Ġliber":11537,"Ġvase":11538,"Ġlend":11539,"Ġleered":11540,"ĠOld":11541,"ĠOlym":11542,"raight":11543,"Ġroot":11544,"Ġalike":11545,"Ġaltogether":11546,"Ġdeck":11547,"Ġdebr":11548,"Ġdepend":11549,"uls":11550,"ulse":11551,"ffin":11552,"Ġoverl":11553,"Ġsuited":11554,"Ġsuitc":11555,"Ġpolit":11556,"Ġpolic":11557,"Ġpoker":11558,"Ġchink":11559,"Ġchipped":11560,"Ġchalk":11561,"Ġchann":11562,"Ġdownright":11563,"Ġdownfall":11564,"izzy":11565,"Ġspit":11566,"urning":11567,"Ġqua":11568,"Ġquiver":11569,"ĠElf":11570,"ĠEither":11571,"Ġconso":11572,"eline":11573,"Ġushered":11574,"Ġunhe":11575,"Ġunrave":11576,"Ġunique":11577,"ieves":11578,"oped":11579,"Ġblushed":11580,"Ġblaze":11581,"Ġblustered":11582,"arents":11583,"Ġjustice":11584,"Ġcann":11585,"Ġscal":11586,"Ġscrabb":11587,"Ġscrawled":11588,"Ġ'.":11589,"Ġclad":11590,"Ġclam":11591,"Ġclattered":11592,"Ġclues":11593,"Ġclamm":11594,"ĠHagrids":11595,"Ġslime":11596,"Ġslanting":11597,"apor":11598,"bbish":11599,"Ġheadquarters":11600,"Ġheadfirst":11601,"Ġcomments":11602,"Ġsmash":11603,"Ġvos":11604,"Ġtraced":11605,"Ġtrudged":11606,"Ġarrow":11607,"Ġgrad":11608,"Ġgrade":11609,"Ġgranted":11610,"Ġgrues":11611,"auc":11612,"innings":11613,"ptitiously":11614,"Ġflap":11615,"Ġflaw":11616,"Ġsayin":11617,"Ġoperation":11618,"Ġpreten":11619,"Ġpepp":11620,"Ġdisarm":11621,"Ġdishes":11622,"Ġbecomes":11623,"Ġlolling":11624,"Ġmundane":11625,"Ġspeck":11626,"Ġspecul":11627,"mber":11628,"Ġacid":11629,"actory":11630,"Ġtryouts":11631,"Ġprinting":11632,"ĠOho":11633,"Ġcontent":11634,"Ġarmful":11635,"Ġtales":11636,"Ġtalented":11637,"Ġattracted":11638,"Ġattracting":11639,"Ġdrum":11640,"Ġwinds":11641,"Ġimpass":11642,"Ġimpulse":11643,"Ġhurts":11644,"Ġentitled":11645,"Ġcrates":11646,"Ġcrunching":11647,"ĠJoke":11648,"Ġsurly":11649,"Ġhelm":11650,"Ġwringing":11651,"Ġsecondhand":11652,"Ġwordlessly":11653,"Ġeman":11654,"eeee":11655,"Ġperil":11656,"azing":11657,"Ġretching":11658,"Ġnothingness":11659,"Ġstrate":11660,"Ġstrangle":11661,"awd":11662,"Ġairpl":11663,"Ġsquaw":11664,"Ġstudied":11665,"linqu":11666,"ĠAnth":11667,"ĠPerce":11668,"ibuster":11669,"Ġuntr":11670,"Ġgreed":11671,"ĠPetrific":11672,"ĠNott":11673,"prints":11674,"Ġparting":11675,"Ġrestlessly":11676,"shop":11677,"Ġtreasures":11678,"Ġglassy":11679,"ĠBlacks":11680,"Ġadvert":11681,"Ġexpanded":11682,"Ġcobbled":11683,"Ġpaint":11684,"Ġfooted":11685,"Ġdecip":11686,"Ġindex":11687,"Ġindistinct":11688,"raced":11689,"Ġguest":11690,"Ġdetached":11691,"Ġdeflected":11692,"Ġsweep":11693,"Ġlaughs":11694,"ubs":11695,"Ġintend":11696,"ĠReckon":11697,"Ġinsisting":11698,"ĠFilibuster":11699,"Ġpatrol":11700,"Ġreference":11701,"Ġmismat":11702,"oche":11703,"Ġwatchful":11704,"Ġfighters":11705,"abbling":11706,"Ġearsplitting":11707,"Ġrunes":11708,"ĠCharming":11709,"Ġpursed":11710,"Ġgasps":11711,"Ġrepel":11712,"Ġapprove":11713,"Ġfairy":11714,"Ġregime":11715,"Ġwrites":11716,"Ġevapor":11717,"voked":11718,"OUR":11719,"OULD":11720,"Ġwarnings":11721,"ĠGobstones":11722,"Ġsunset":11723,"Ġreasonable":11724,"Ġvisitor":11725,"Ġdiscomfort":11726,"ĠPatrick":11727,"Ġdoubts":11728,"ĠYours":11729,"Ġformer":11730,"Ġsinged":11731,"Ġcopying":11732,"Ġchampagne":11733,"ĠTrust":11734,"Ġhunger":11735,"Ġglossy":11736,"Ġtighter":11737,"Ġtraffic":11738,"Ġmarket":11739,"ONS":11740,"Ġpostp":11741,"Ġ17":11742,"Ġboundaries":11743,"bletonia":11744,"Ġviews":11745,"Ġsmelly":11746,"Ġproperties":11747,"ĠRemembr":11748,"attergro":11749,"Ġwarming":11750,"Ġwarmly":11751,"Ġimpatience":11752,"Through":11753,"Ġeyebrow":11754,"Ġcircled":11755,"Ġpassageways":11756,"Ġpowdered":11757,"Ġgenially":11758,"Ġtrickled":11759,"Ġessays":11760,"Ġbewitching":11761,"ĠEvening":11762,"Ġreceiver":11763,"Ġreceiving":11764,"Ġsparkled":11765,"ceeds":11766,"Ġprepar":11767,"Ġjinxed":11768,"Ġapprehension":11769,"Ġthreaten":11770,"Ġpositioned":11771,"Ġsplashed":11772,"Ġgrapef":11773,"Ġlurked":11774,"Ġsnatch":11775,"Ġwhistled":11776,"Ġfatal":11777,"Ġeighty":11778,"Ġfolds":11779,"Ġstripped":11780,"Ġstriped":11781,"Ġkidney":11782,"Ġeffective":11783,"Ġunfur":11784,"Ġwrapper":11785,"Ġconcerns":11786,"ification":11787,"Ġtestily":11788,"Ġconcealing":11789,"OOD":11790,"Ġinnocently":11791,"ĠDisapparating":11792,"Ġtreatment":11793,"ĠHadn":11794,"terbeers":11795,"Ġconvincing":11796,"zzle":11797,"Ġcounterc":11798,"Ġbuildings":11799,"Ġladies":11800,"Ġunworthy":11801,"Ġpinch":11802,"Ġenvelopes":11803,"Ġbeauty":11804,"Ġvali":11805,"Ġastonishing":11806,"Ġcontract":11807,"Ġmurderous":11808,"ĠAccident":11809,"Ġresemb":11810,"Ġhorned":11811,"Ġscraped":11812,"Ġintervals":11813,"Ġfaltered":11814,"Ġlengths":11815,"Ġpredicted":11816,"Ġopportunities":11817,"Ġaccompanying":11818,"Ġarrange":11819,"Ġidiots":11820,"Ġdescent":11821,"Ġsniffing":11822,"Ġintroduction":11823,"ĠTeddy":11824,"Ġblasting":11825,"ĠBulgarians":11826,"Ġpursued":11827,"Ġfailing":11828,"hensible":11829,"Ġhills":11830,"Ġprickled":11831,"Ġwaistcoat":11832,"Ġnecessarily":11833,"Ġenthusiastic":11834,"Ġcrawl":11835,"Ġwithdrawing":11836,"Ġviciously":11837,"Ġvicinity":11838,"Ġblazed":11839,"Ġclambering":11840,"Ġreassured":11841,"Ġshielding":11842,"Ġappoint":11843,"Ġverge":11844,"Ġhammered":11845,"Ġbeckoning":11846,"icism":11847,"Ġsmoky":11848,"Ġaccepting":11849,"Ġfalsely":11850,"ĠClear":11851,"Ġschedules":11852,"Ġresistance":11853,"Ġlazy":11854,"ĠDragon":11855,"ĠEvidently":11856,"ĠTeam":11857,"ĠTears":11858,"Ġdivide":11859,"ĠFrogs":11860,"Ġcurrent":11861,"Ġvacant":11862,"ĠInferius":11863,"Ġbeams":11864,"ĠRomania":11865,"Ġconfession":11866,"Ġhostage":11867,"Ġhostages":11868,"ĠCheers":11869,"Ġcriminal":11870,"Ġpulsing":11871,"Ġownership":11872,"Ġindifferent":11873,"Ġwisely":11874,"Ġrotten":11875,"Ġqualities":11876,"Ġincantations":11877,"Ġawarded":11878,"Ġsalam":11879,"ĠSHE":11880,"ĠTurning":11881,"Ġrecovery":11882,"Ġhiccup":11883,"Ġensl":11884,"Ġcommunicating":11885,"Ġdefenses":11886,"Ġtingling":11887,"Ġsession":11888,"Ġwriggled":11889,"Ġwriggling":11890,"Ġcreepy":11891,"Ġconcealment":11892,"Ġperiods":11893,"Ġcombination":11894,"Ġperfumed":11895,"Ġapologize":11896,"Ġmalicious":11897,"Ġsiph":11898,"Ġrejoin":11899,"Ġshrewdly":11900,"Ġentrances":11901,"Ġinvolving":11902,"Ġsympathetically":11903,"Ġtactics":11904,"Ġmimbletonia":11905,"uberant":11906,"Ġbullying":11907,"Ġdignity":11908,"ĠBasilisk":11909,"Ġclasped":11910,"Ġresignation":11911,"Ġreferring":11912,"Ġfreckles":11913,"Ġdeduced":11914,"ĠTotalus":11915,"Ġspoil":11916,"Ġdisagree":11917,"Ġelbows":11918,"Ġmuscles":11919,"Ġskeptically":11920,"Ġtextbook":11921,"Ġcrisp":11922,"ĠImproper":11923,"Ġexhaustion":11924,"Ġreproachful":11925,"Ġintruders":11926,"Ġestab":11927,"Ġsidled":11928,"Ġniffler":11929,"Ġkitten":11930,"Ġsockets":11931,"Ġunnerved":11932,"Ġcriticize":11933,"Ġunnecessary":11934,"Ġavidly":11935,"Ġfulfill":11936,"ĠSinistra":11937,"Ġwelcoming":11938,"ĠWITH":11939,"ĠAnti":11940,"Ġroute":11941,"Ġexercise":11942,"Ġoverwhelm":11943,"Ġchortled":11944,"Ġdispleasure":11945,"Ġprofile":11946,"Ġmalevolently":11947,"lookers":11948,"Ġpompous":11949,"ichever":11950,"Ġshamrock":11951,"ĠGolgom":11952,"Ġbackfired":11953,"Ġspiked":11954,"Ġquantity":11955,"Ġimploringly":11956,"Ġaccurate":11957,"Ġsubdued":11958,"Ġeavesdro":11959,"Ġ='":11960,"Ġthestral":11961,"orpus":11962,"ĠCorrect":11963,"Ġtwilight":11964,"Ġvolume":11965,"Ġobediently":11966,"Ġoblivious":11967,"Ġabsorbed":11968,"Ġlampl":11969,"ompletely":11970,"ĠThings":11971,"Ġbuttons":11972,"Ġsolitary":11973,"Ġwafting":11974,"Ġsurreptitiously":11975,"Ġcomprehension":11976,"Ġreputation":11977,"Ġdisconcerted":11978,"ĠDisarming":11979,"Ġengulfed":11980,"Hogwarts":11981,"People":11982,"Ġnickn":11983,"ĠSorcery":11984,"Ġweighing":11985,"Ġancest":11986,"Ġskirting":11987,"Ġdistinguish":11988,"ĠExpectations":11989,"Ġphrase":11990,"Ġjudgment":11991,"Ġdrills":11992,"Ġecst":11993,"ĠMaintenance":11994,"ĠPossibly":11995,"ĠCelestina":11996,"Ġricoche":11997,"ĠFoe":11998,"Ġimpenetrable":11999,"ĠInjuries":12000,"Ġtersely":12001,"Ġcomputer":12002,"Ġapplauded":12003,"Ġinspiration":12004,"Ġculprit":12005,"Ġlilac":12006,"Ġnavel":12007,"ĠMullet":12008,"ĠMimbulus":12009,"Ġmegaphone":12010,"ĠFidelius":12011,"Ġdebris":12012,"Ġsuitcase":12013,"Ġclammy":12014,"Ġgruesome":12015,"ĠPetrificus":12016,"Ġmismatched":12017,"ĠRemembrall":12018,"Ġgrapefruit":12019,"ĠGolgomath":12020,"13":12021,"AK":12022,"AU":12023,"Bill":12024,"Both":12025,"Cl":12026,"Come":12027,"Five":12028,"GW":12029,"ICK":12030,"Luna":12031,"More":12032,"Never":12033,"Oo":12034,"Pet":12035,"Sm":12036,"Ten":12037,"Up":12038,"Your":12039,"aunted":12040,"bare":12041,"bod":12042,"bage":12043,"cap":12044,"cary":12045,"cited":12046,"cingly":12047,"dog":12048,"eer":12049,"ear":12050,"hap":12051,"house":12052,"hinx":12053,"jured":12054,"lance":12055,"lies":12056,"math":12057,"nold":12058,"of":12059,"oons":12060,"ocle":12061,"pid":12062,"pers":12063,"pite":12064,"power":12065,"pret":12066,"priate":12067,"ral":12068,"rans":12069,"romed":12070,"tter":12071,"tress":12072,"tips":12073,"uf":12074,"uamenti":12075,"vest":12076,"wen":12077,"with":12078,"yth":12079,"Ġ9":12080,"Ġiced":12081,"Ġtid":12082,"Ġtire":12083,"Ġties":12084,"Ġtawn":12085,"Ġtrod":12086,"Ġtaut":12087,"Ġtipping":12088,"Ġairy":12089,"Ġaxe":12090,"inished":12091,"Ġsomber":12092,"Ġwool":12093,"Ġwicked":12094,"Ġwretched":12095,"remon":12096,"ouble":12097,"Ġhing":12098,"Ġhither":12099,"Ġhints":12100,"onies":12101,"ingle":12102,"erb":12103,"erate":12104,"argh":12105,"Ġbisc":12106,"Ġbumping":12107,"Ġfame":12108,"Ġfile":12109,"Ġfried":12110,"Ġfrying":12111,"Ġoaf":12112,"Ġomen":12113,"atable":12114,"athery":12115,"Ġtoads":12116,"Ġtoffee":12117,"Ġtoffees":12118,"isons":12119,"itro":12120,"Ġcore":12121,"Ġcord":12122,"Ġcages":12123,"Ġcaves":12124,"asion":12125,"asel":12126,"idark":12127,"idable":12128,"Ġheave":12129,"Ġdart":12130,"Ġdump":12131,"Ġdangled":12132,"Ġdomed":12133,"Ġdarling":12134,"Ġdagger":12135,"enior":12136,"Ġlic":12137,"Ġlent":12138,"Ġlod":12139,"Ġthudd":12140,"Ġthirst":12141,"Ġpad":12142,"Ġparl":12143,"Ġpipes":12144,"Ġhaw":12145,"Ġgaps":12146,"Ġgaining":12147,"Ġinad":12148,"Ġinse":12149,"Ġinward":12150,"anuary":12151,"Ġnat":12152,"Ġnutter":12153,"Ġnational":12154,"legged":12155,"Ġsale":12156,"Ġsailed":12157,"Ġsauc":12158,"Ġsacks":12159,"ĠIF":12160,"omora":12161,"Ġwasp":12162,"Ġwast":12163,"Ġbein":12164,"Ġbean":12165,"Ġbeans":12166,"Ġbegged":12167,"Ġbegging":12168,"Ġearm":12169,"Ġecc":12170,"iments":12171,"imps":12172,"Ġstated":12173,"Ġstale":12174,"Ġstinging":12175,"oops":12176,"ooperation":12177,"Ġonlookers":12178,"eteen":12179,"etops":12180,"ictly":12181,"Ġwha":12182,"Ġwhirling":12183,"iringly":12184,"ĠSur":12185,"ĠSlo":12186,"ĠSect":12187,"ĠServ":12188,"ĠSuch":12189,"ĠSenior":12190,"Ġwears":12191,"Ġweighed":12192,"ĠWing":12193,"ĠWOR":12194,"ĠWANT":12195,"enta":12196,"entric":12197,"ĠDu":12198,"ĠDam":12199,"ĠDest":12200,"ĠDudd":12201,"ĠDiff":12202,"ĠDread":12203,"Ġashes":12204,"Ġrent":12205,"Ġrearranged":12206,"Ġrelinqu":12207,"urst":12208,"urably":12209,"urdy":12210,"alers":12211,"ĠRigh":12212,"ĠRON":12213,"ĠRipper":12214,"stant":12215,"ĠAround":12216,"ĠALL":12217,"ĠPen":12218,"ĠPull":12219,"ĠPret":12220,"ĠPanting":12221,"Ġsection":12222,"Ġsealing":12223,"Ġselected":12224,"Ġseething":12225,"Ġshunted":12226,"Ġkicking":12227,"erment":12228,"ĠHealers":12229,"pending":12230,"ĠBL":12231,"ĠBed":12232,"ĠBes":12233,"ĠBring":12234,"Ġfridge":12235,"Ġoutb":12236,"ĠGh":12237,"ĠGorn":12238,"ĠGames":12239,"cely":12240,"cepted":12241,"ceremon":12242,"uning":12243,"ĠCar":12244,"ĠCress":12245,"ĠCON":12246,"ĠCompletely":12247,"ĠCooperation":12248,"Ġbutter":12249,"anders":12250,"Ġrauc":12251,"ilized":12252,"iliar":12253,"ĠFer":12254,"ĠFriend":12255,"ĠFren":12256,"ĠFirs":12257,"Ġshepher":12258,"Ġjumble":12259,"ĠLying":12260,"ĠLET":12261,"ĠLEA":12262,"ĠLadies":12263,"Ġgoat":12264,"ĠNiff":12265,"ĠNorth":12266,"Ġsoar":12267,"Ġsoaking":12268,"Ġsociety":12269,"Ġliver":12270,"Ġleathery":12271,"Ġexisted":12272,"inkhard":12273,"ĠOy":12274,"ĠOdd":12275,"istent":12276,"istration":12277,"Ġdeg":12278,"Ġtended":12279,"Ġoverhe":12280,"Ġovernight":12281,"Ġpoles":12282,"Ġpoised":12283,"Ġchint":12284,"Ġoffense":12285,"izzing":12286,"Ġspan":12287,"Ġspared":12288,"Ġspine":12289,"Ġspattergro":12290,"Ġsphinx":12291,"ĠEyes":12292,"Ġconver":12293,"Ġconsequ":12294,"Ġconvenient":12295,"ickering":12296,"Ġhandy":12297,"Ġunch":12298,"Ġunsure":12299,"Ġunceremon":12300,"ieval":12301,"Ġworm":12302,"Ġscabbed":12303,"Ġscuffling":12304,"Ġschem":12305,"Ġplot":12306,"Ġplum":12307,"Ġplucked":12308,"Ġplastered":12309,"Ġclang":12310,"Ġslowing":12311,"uphor":12312,"Ġheadlights":12313,"Ġmoles":12314,"Ġcombat":12315,"Ġtwelf":12316,"Ġsmacking":12317,"These":12318,"ounds":12319,"Ġstillness":12320,"Ġtrund":12321,"Ġtrotting":12322,"ĠKiss":12323,"ĠKILL":12324,"Ġglimmering":12325,"Ġarc":12326,"Ġgrotes":12327,"Ġswap":12328,"Ġflagged":12329,"Ġflourish":12330,"ĠUm":12331,"ĠUnt":12332,"Ġmanor":12333,"Ġenable":12334,"wny":12335,"iddled":12336,"ftily":12337,"Ġpreoccupied":12338,"Ġimit":12339,"Ġpeacock":12340,"that":12341,"thought":12342,"Ġdisent":12343,"ĠĠĠĠĠĠĠĠ":12344,"Ġaftermath":12345,"Ġlooming":12346,"Ġloftily":12347,"terest":12348,"Ġbetting":12349,"Ġbrus":12350,"Ġbrings":12351,"Ġbraced":12352,"Ġproven":12353,"Ġproving":12354,"ĠChief":12355,"Ġprint":12356,"Ġcontam":12357,"Ġcontracted":12358,"Ġcontented":12359,"Ġhover":12360,"Ġhoisting":12361,"Ġflock":12362,"Ġflobberworm":12363,"Ġattach":12364,"Ġwalrus":12365,"Ġwindsh":12366,"Ġwindsw":12367,"Ġopenly":12368,"Ġpassers":12369,"Ġcrad":12370,"Ġcrimes":12371,"Ġcrushed":12372,"Ġcrashes":12373,"Ġcronies":12374,"ĠInvis":12375,"ĠInner":12376,"elling":12377,"Ġendured":12378,"Ġstandards":12379,"Ġgild":12380,"bees":12381,"Ġsoundlessly":12382,"ieties":12383,"Ġemitted":12384,"Ġemotions":12385,"Ġsettling":12386,"ĠDeathstick":12387,"ipsed":12388,"Ġretal":12389,"Ġstrictly":12390,"Ġhelplessly":12391,"Ġbookl":12392,"Ġmates":12393,"Ġmattress":12394,"Ġfirework":12395,"Ġminded":12396,"ĠDarkness":12397,"Ġclassmates":12398,"Ġcareless":12399,"Ġuntouched":12400,"Ġmutil":12401,"Ġmutinous":12402,"Ġoblit":12403,"Ġrestore":12404,"Ġrestless":12405,"Ġrestored":12406,"Ġtremend":12407,"Ġtreetops":12408,"ĠBeg":12409,"ĠBeaky":12410,"Ġrecoll":12411,"Ġrecru":12412,"Ġrecalled":12413,"Ġforese":12414,"Ġdistressed":12415,"Ġdistorted":12416,"Ġadop":12417,"Ġexpensive":12418,"Ġgirlish":12419,"Ġhourglass":12420,"Ġcontinually":12421,"ĠErised":12422,"Ġdetected":12423,"Ġdetailed":12424,"ĠAlong":12425,"Ġhitched":12426,"Ġhopeless":12427,"Ġsorting":12428,"Ġswearing":12429,"Ġdiag":12430,"ceptable":12431,"ĠKnut":12432,"Ġbloodstained":12433,"Ġtalkin":12434,"Ġcomposed":12435,"ĠReasonable":12436,"Ġkinds":12437,"Ġmonocle":12438,"Ġrelish":12439,"Ġinsults":12440,"Ġflecked":12441,"Ġinterpret":12442,"Ġintercepted":12443,"ĠOrd":12444,"Ġrefr":12445,"Ġbuzz":12446,"Ġbubbling":12447,"Ġheavier":12448,"Ġthicker":12449,"Ġforgiven":12450,"Ġinterests":12451,"Ġlandsc":12452,"Ġpresum":12453,"Ġrune":12454,"Ġsprung":12455,"Ġsprint":12456,"Ġsprouts":12457,"Ġtries":12458,"Ġtriangular":12459,"Ġapproved":12460,"Ġappropriate":12461,"Ġgiantess":12462,"Ġphys":12463,"Ġsoften":12464,"Ġchests":12465,"Ġwrithed":12466,"Ġdrawled":12467,"Ġcollaps":12468,"ERE":12469,"Ġtonic":12470,"Ġescorted":12471,"year":12472,"Ġenormously":12473,"Ġexpressionless":12474,"Ġattacker":12475,"OUGH":12476,"Ġinforming":12477,"Ġswords":12478,"Ġintact":12479,"Ġintention":12480,"ĠAguamenti":12481,"Ġflatten":12482,"Ġballoon":12483,"Ġzis":12484,"string":12485,"Ġirres":12486,"Ġconsulted":12487,"Ġconsulting":12488,"Ġtorso":12489,"Ġdiscern":12490,"Ġrattle":12491,"Ġcabinets":12492,"Ġstomped":12493,"Ġshrieks":12494,"Ġadmired":12495,"Ġhaste":12496,"Ġwilder":12497,"ĠFlore":12498,"Ġgrowl":12499,"Ġgrowling":12500,"Ġannouncing":12501,"Ġchildhood":12502,"Ġprompted":12503,"Ġtallest":12504,"Ġdemanding":12505,"Ġ16":12506,"Ġtailing":12507,"Ġsmells":12508,"Ġcracks":12509,"white":12510,"Ġtowered":12511,"ARTS":12512,"Ġconviction":12513,"Ġweakened":12514,"Ġsecretly":12515,"Ġpresented":12516,"ĠRememb":12517,"Ġgraying":12518,"Ġreplacing":12519,"Ġfingertips":12520,"Ġpossessing":12521,"ographer":12522,"Ġelephant":12523,"ĠWasn":12524,"Ġsolve":12525,"Ġgardens":12526,"Ġmagenta":12527,"Ġpolishing":12528,"Ġfistful":12529,"Ġsyll":12530,"Ġcurtained":12531,"Ġaffair":12532,"Ġdriver":12533,"Ġsmoothing":12534,"ĠPhleg":12535,"Ġuneven":12536,"Ġunease":12537,"iasco":12538,"Ġfilm":12539,"Ġundo":12540,"Ġspectators":12541,"Ġsatisfying":12542,"Ġsplattering":12543,"Ġmerc":12544,"Ġbinoculars":12545,"Ġinterruption":12546,"Ġfolding":12547,"Ġrevive":12548,"Ġmurdering":12549,"Ġunfair":12550,"Ġsurviv":12551,"Ġremoving":12552,"Ġprivile":12553,"Ġmoodily":12554,"Ġcorrespond":12555,"Ġstreamed":12556,"Ġstationary":12557,"Ġvaults":12558,"Ġaims":12559,"ĠGrawpy":12560,"Ġlimited":12561,"ĠHalfway":12562,"Ġwrenching":12563,"Ġcharging":12564,"Ġtoilets":12565,"Ġstormy":12566,"ĠSports":12567,"Ġsuitable":12568,"Ġhippogriffs":12569,"Ġearnest":12570,"Ġscreeching":12571,"ĠTwelve":12572,"Ġrustled":12573,"Ġflicker":12574,"Ġclockwise":12575,"Ġwounded":12576,"Ġcampaign":12577,"Ġrisky":12578,"Ġchuckling":12579,"Ġwisdom":12580,"Ġhorns":12581,"Ġfortress":12582,"Ġmodified":12583,"Ġreports":12584,"Ġcardboard":12585,"Ġrisks":12586,"mpra":12587,"Ġamber":12588,"Ġdawning":12589,"Another":12590,"Ġweapons":12591,"Ġembarrassment":12592,"Ġbandaged":12593,"Ġdelay":12594,"ĠUnderground":12595,"Ġwrists":12596,"Ġdenying":12597,"Ġnonverbal":12598,"Ġvelvety":12599,"Everybody":12600,"Ġgargoyles":12601,"Ġneighboring":12602,"Ġlumps":12603,"Ġpursue":12604,"Ġdodgy":12605,"Ġwarlock":12606,"Ġwarlocks":12607,"Ġhillside":12608,"Ġpuffs":12609,"Ġfeathery":12610,"Ġtearful":12611,"Ġsuccessfully":12612,"ĠRubbish":12613,"ĠPortkeys":12614,"Ġharmless":12615,"Ġrebounded":12616,"Ġmysteriously":12617,"Ġrecords":12618,"ITOR":12619,"Ġdelicately":12620,"Ġbeetles":12621,"Ġruby":12622,"Ġrubble":12623,"Ġresentfully":12624,"Ġpitiful":12625,"Ġpuddings":12626,"Ġtartly":12627,"Ġclubs":12628,"fallen":12629,"grate":12630,"ĠDrink":12631,"ĠCommon":12632,"Ġflowerbed":12633,"Ġconcluded":12634,"Ġlocation":12635,"Ġretrieved":12636,"Ġversus":12637,"Ġinventing":12638,"Ġchessmen":12639,"Ġtroubles":12640,"Ġmasks":12641,"Ġthreadbare":12642,"ĠGlad":12643,"Ġgoggled":12644,"Ġteaches":12645,"Ġadmiring":12646,"Ġpouchy":12647,"Ġdemonstrating":12648,"Ġtimet":12649,"Ġconfessed":12650,"Ġorganized":12651,"Ġvigil":12652,"Ġnightmares":12653,"Ġpatience":12654,"ĠSlinkhard":12655,"Ġpunctured":12656,"ĠHolding":12657,"Ġrasp":12658,"Ġrasped":12659,"Ġremarks":12660,"Ġjerkily":12661,"Ġimprisonment":12662,"Exceeds":12663,"Someone":12664,"____":12665,"ĠSHUT":12666,"Ġsecurely":12667,"Ġaddressing":12668,"Ġ31":12669,"Ġfishy":12670,"Ġcreams":12671,"Ġmorale":12672,"Ġsausage":12673,"Ġornament":12674,"Ġrestrain":12675,"Ġmaintained":12676,"Ġmaintaining":12677,"Ġredder":12678,"Ġscuttling":12679,"Ġmournful":12680,"Ġwhimper":12681,"ĠMandrake":12682,"ĠGuess":12683,"Ġdishon":12684,"Ġvomiting":12685,"Ġchooses":12686,"Ġcompanions":12687,"ĠWheezy":12688,"Dear":12689,"Ġinquiry":12690,"Ġjewel":12691,"Ġcongratulate":12692,"Ġcongratulations":12693,"Ġaverted":12694,"Ġaverage":12695,"ĠRedu":12696,"Ġuninjured":12697,"RONUM":12698,"Ġunseen":12699,"Ġsilhouetted":12700,"Ġsilhouette":12701,"Ġcolleague":12702,"Ġhysterical":12703,"Ġrepresentatives":12704,"Ġwireless":12705,"Ġcrestfallen":12706,"Ġgarage":12707,"Ġincidentally":12708,"Ġreproachfully":12709,"Ġintruder":12710,"ski":12711,"ĠMisuse":12712,"ĠLIKE":12713,"inksap":12714,"ĠDoxys":12715,"Ġobstacles":12716,"Ġsustained":12717,"Ġcalcul":12718,"Ġlunatic":12719,"ĠSlug":12720,"Ġunbeatable":12721,"Ġwispy":12722,"Ġprecaution":12723,"Ġtilted":12724,"Ġsanct":12725,"ĠHOGW":12726,"ĠPassword":12727,"Ġsemidark":12728,"Ġentertaining":12729,"Ġblackmail":12730,"Ġcorpse":12731,"Ġbenefit":12732,"Ġopponent":12733,"Ġadmirers":12734,"Albus":12735,"heartedly":12736,"ĠMirror":12737,"Ġjostling":12738,"ĠLoads":12739,"Ġpremises":12740,"Ġderisive":12741,"Ġallegi":12742,"Ġplummeted":12743,"Ġmisunderstood":12744,"Ġdustbins":12745,"Ġunconcerned":12746,"turbed":12747,"Ġdrowsy":12748,"Ġunlucky":12749,"Ġglimmered":12750,"Ġproducing":12751,"Ġincomprehensible":12752,"ĠForgive":12753,"Ġbookshelves":12754,"Ġmiraculously":12755,"Ġoozing":12756,"Ġmornin":12757,"Ġwhirring":12758,"Ġrectangular":12759,"ĠAaah":12760,"Ġdisliked":12761,"Ġcoincidence":12762,"Ġindecent":12763,"ĠParselmouth":12764,"ĠChampionship":12765,"Feeling":12766,"Ġpiggy":12767,"othecary":12768,"Ġsteely":12769,"ĠDimitro":12770,"ĠPATRONUM":12771,"ĠWeatherby":12772,"Ġsoccer":12773,"ĠOlympe":12774,"Ġcannon":12775,"Ġgradually":12776,"ĠAnthony":12777,"Ġresemblance":12778,"romeda":12779,"Ġhinges":12780,"Ġparlor":12781,"Ġearmuffs":12782,"Ġeccentric":12783,"ĠSloper":12784,"ĠSectum":12785,"ĠDudders":12786,"ĠPretty":12787,"ĠGornuk":12788,"ĠCresswell":12789,"ĠFrench":12790,"Ġchintz":12791,"Ġmoleskin":12792,"Ġtwelfth":12793,"Ġwindshield":12794,"Ġwindswept":12795,"ĠPhlegm":12796,"ĠHOGWARTS":12797,"Ġsemidarkness":12798,"Ġallegiance":12799,"ĠDimitrov":12800,"BE":12801,"En":12802,"Gryffind":12803,"Goyle":12804,"Griphook":12805,"IZ":12806,"Krum":12807,"Look":12808,"Mc":12809,"Many":12810,"OL":12811,"Og":12812,"Par":12813,"Pig":12814,"Re":12815,"URE":12816,"Where":12817,"after":12818,"afts":12819,"bled":12820,"bility":12821,"con":12822,"cogn":12823,"cibly":12824,"cival":12825,"ev":12826,"fold":12827,"fish":12828,"gn":12829,"gent":12830,"homora":12831,"iing":12832,"iable":12833,"jud":12834,"lting":12835,"lap":12836,"lated":12837,"lery":12838,"ny":12839,"nces":12840,"pole":12841,"race":12842,"she":12843,"tr":12844,"tlap":12845,"vals":12846,"wy":12847,"wit":12848,"wter":12849,"wings":12850,"zard":12851,"zil":12852,"Ġounce":12853,"Ġtour":12854,"Ġtrif":12855,"Ġtub":12856,"Ġticking":12857,"Ġtackle":12858,"Ġtidy":12859,"heasant":12860,"Ġaer":12861,"Ġarou":12862,"Ġaqu":12863,"Ġached":12864,"Ġaura":12865,"Ġsouth":12866,"Ġwad":12867,"Ġwove":12868,"Ġwarily":12869,"Ġwadd":12870,"rex":12871,"rent":12872,"oughed":12873,"Ġhord":12874,"Ġhump":12875,"Ġhired":12876,"Ġhinky":12877,"Ġhike":12878,"Ġhunch":12879,"erro":12880,"erting":12881,"arity":12882,"Ġbid":12883,"Ġbay":12884,"Ġbled":12885,"Ġbers":12886,"Ġbade":12887,"Ġbord":12888,"Ġbanshee":12889,"Ġbickering":12890,"Ġfest":12891,"Ġfade":12892,"Ġfactly":12893,"Ġfiasco":12894,"Ġoven":12895,"Ġoily":12896,"Ġomens":12897,"ĠHum":12898,"ĠHung":12899,"ĠHOW":12900,"ĠHardly":12901,"isure":12902,"itious":12903,"Ġcabb":12904,"Ġcuffs":12905,"Ġcauses":12906,"asily":12907,"ori":12908,"orph":12909,"llen":12910,"Ġdore":12911,"Ġdough":12912,"Ġdank":12913,"Ġdagg":12914,"Ġdangers":12915,"Ġdizzy":12916,"Ġdawd":12917,"ena":12918,"ensed":12919,"enger":12920,"encio":12921,"Ġmarm":12922,"Ġmaimed":12923,"Ġlas":12924,"Ġlick":12925,"Ġlicking":12926,"Ġlament":12927,"Ġlinger":12928,"Ġlidded":12929,"Ġlyin":12930,"Ġthri":12931,"Ġpra":12932,"Ġpest":12933,"Ġpans":12934,"Ġpets":12935,"Ġpimp":12936,"Ġpawed":12937,"Ġhalves":12938,"Ġgaw":12939,"Ġgarl":12940,"Ġgagg":12941,"Ġgoose":12942,"Ġgurg":12943,"Ġinit":12944,"owls":12945,"Ġsaves":12946,"Ġyield":12947,"othes":12948,"omin":12949,"Ġeard":12950,"Ġeast":12951,"Ġetern":12952,"imate":12953,"imsy":12954,"vember":12955,"Ġstress":12956,"Ġstunning":12957,"Ġstates":12958,"ooling":12959,"etch":12960,"icy":12961,"icorpus":12962,"roach":12963,"roying":12964,"ĠMess":12965,"ĠMuch":12966,"ĠSpl":12967,"ĠSeen":12968,"ĠSleep":12969,"ĠSelw":12970,"ĠTut":12971,"ĠTorn":12972,"ĠTaking":12973,"utin":12974,"utting":12975,"Ġweary":12976,"Ġwebbed":12977,"ĠWater":12978,"ĠWister":12979,"ĠWilly":12980,"ĠDily":12981,"ĠDrop":12982,"ĠDUD":12983,"Ġasce":12984,"Ġreent":12985,"Ġreun":12986,"Ġreop":12987,"Ġreced":12988,"Ġrevis":12989,"Ġrecept":12990,"Ġrevision":12991,"alade":12992,"alator":12993,"sel":12994,"ĠRR":12995,"ĠRever":12996,"ĠRunning":12997,"ril":12998,"riar":12999,"chn":13000,"ĠAG":13001,"ĠAR":13002,"ĠAlo":13003,"ĠAss":13004,"ĠPR":13005,"ĠPu":13006,"ĠPow":13007,"ĠPast":13008,"Ġforces":13009,"Ġforcibly":13010,"Ġseam":13011,"Ġselection":13012,"amiliar":13013,"umors":13014,"umper":13015,"ermint":13016,"ĠHel":13017,"ĠBR":13018,"ĠBarn":13019,"ĠBott":13020,"ĠBert":13021,"ĠBOY":13022,"Ġfru":13023,"Ġfraud":13024,"Ġfrayed":13025,"Ġdogged":13026,"ighty":13027,"Ġoutsk":13028,"ĠGro":13029,"ĠGirl":13030,"ĠGaunts":13031,"ĠGwen":13032,"ĠGurdy":13033,"ĠCall":13034,"ĠCast":13035,"ĠComet":13036,"ĠColl":13037,"ĠCabin":13038,"ĠCAR":13039,"ĠComp":13040,"ĠCauld":13041,"indo":13042,"indle":13043,"Ġmelt":13044,"anda":13045,"ands":13046,"Ġrud":13047,"Ġrings":13048,"Ġridden":13049,"Ġraging":13050,"Ġfeature":13051,"ĠFull":13052,"ĠFancy":13053,"ĠFizzing":13054,"ĠFriar":13055,"ĠWerew":13056,"Ġjing":13057,"Ġjabbing":13058,"Ġjowls":13059,"ĠLost":13060,"ĠLater":13061,"ĠLoc":13062,"Ġgolf":13063,"astrous":13064,"loss":13065,"Ġvent":13066,"Ġviv":13067,"Ġish":13068,"Ġisol":13069,"udent":13070,"Ġlev":13071,"Ġlevels":13072,"Ġleisure":13073,"Ġexact":13074,"Ġabashed":13075,"Ġabuse":13076,"Ġabnorm":13077,"ours":13078,"ĠOt":13079,"istically":13080,"rawn":13081,"Ġrog":13082,"oused":13083,"ongratul":13084,"Ġdears":13085,"Ġdeleg":13086,"ulci":13087,"ffit":13088,"Ġovers":13089,"Ġoverst":13090,"Ġoverturned":13091,"ĠWhose":13092,"Ġsund":13093,"epaper":13094,"Ġcharts":13095,"Ġchip":13096,"Ġchops":13097,"Ġoffensive":13098,"Ġspindle":13099,"ĠEight":13100,"ĠExt":13101,"ickle":13102,"Ġhandling":13103,"Ġunst":13104,"Ġunimp":13105,"Ġunbelievable":13106,"Ġungrate":13107,"Ġblamed":13108,"ĠVe":13109,"ĠVold":13110,"ĠVect":13111,"Ġworms":13112,"Ġyew":13113,"Ġscen":13114,"Ġscary":13115,"Ġscooping":13116,"reath":13117,"Ġplastic":13118,"Ġplaque":13119,"Ġcling":13120,"Ġclipping":13121,"Ġslice":13122,"Ġslunk":13123,"Ġslaught":13124,"apter":13125,"apable":13126,"upiter":13127,"Ġheadlong":13128,"Ġmopped":13129,"Ġmoons":13130,"Ġmossy":13131,"ĠThinking":13132,"ogs":13133,"Ġtweed":13134,"Ġtwiddling":13135,"Ġdoorways":13136,"Ġtrot":13137,"Ġtrance":13138,"Ġtrump":13139,"Ġtrash":13140,"Ġtricked":13141,"ĠKept":13142,"ĠKEE":13143,"Ġglimps":13144,"ĠAndromeda":13145,"Ġgrumbling":13146,"inners":13147,"Ġswish":13148,"Ġflinging":13149,"Ġflagon":13150,"Ġflurry":13151,"irement":13152,"ĠUs":13153,"others":13154,"Ġmanic":13155,"Ġopaque":13156,"abary":13157,"ability":13158,"Ġprecar":13159,"Ġprejud":13160,"Ġpell":13161,"Ġdiso":13162,"Ġdislod":13163,"Ġdisastrous":13164,"Ġhappiest":13165,"ĠPotterwatch":13166,"Ġbehaving":13167,"Ġleth":13168,"Ġapply":13169,"Ġappra":13170,"Ġapplic":13171,"Ġlitter":13172,"Ġbramb":13173,"Ġbracket":13174,"Ġlasting":13175,"Ġproject":13176,"Ġpropelled":13177,"ĠNose":13178,"ĠNovember":13179,"fulness":13180,"Ġpraying":13181,"Ġprudent":13182,"Ġhoot":13183,"Ġfloat":13184,"Ġflopped":13185,"please":13186,"Ġsnog":13187,"Ġsnuff":13188,"Ġsnogging":13189,"Ġneedn":13190,"Ġneedle":13191,"Ġdrooped":13192,"Ġdroop":13193,"Ġcheap":13194,"Ġmusty":13195,"uckily":13196,"Ġentry":13197,"Ġcriss":13198,"Ġcrunch":13199,"ĠJell":13200,"ĠJanuary":13201,"ĠJupiter":13202,"elled":13203,"plussed":13204,"Ġdaybreak":13205,"ĠStupid":13206,"ĠStraight":13207,"ĠStinksap":13208,"Ġwrath":13209,"Ġsideboard":13210,"Ġkeepin":13211,"Ġcurt":13212,"Ġcurls":13213,"Ġnightfall":13214,"Ġnightshirt":13215,"Ġnightdress":13216,"Ġnewcom":13217,"Ġraven":13218,"Ġwhiskers":13219,"Ġlaundered":13220,"Ġhaircut":13221,"Ġstrayed":13222,"Ġhelps":13223,"Ġhelpings":13224,"Ġskipped":13225,"Ġskirt":13226,"Ġskilled":13227,"Ġfinest":13228,"Ġrealization":13229,"Ġairborn":13230,"Ġmatched":13231,"Ġsatin":13232,"ava":13233,"Ġfireside":13234,"ĠUnbreak":13235,"Ġwaitress":13236,"lined":13237,"Ġfollows":13238,"Ġquieter":13239,"ĠPercival":13240,"ibilities":13241,"ĠWhoever":13242,"Ġgreedy":13243,"ĠArnold":13244,"Ġresisted":13245,"Ġresulted":13246,"retary":13247,"Ġpasty":13248,"Ġboil":13249,"eyond":13250,"Ġtresp":13251,"ĠBeing":13252,"Ġinstructed":13253,"Ġscarcely":13254,"Ġcarol":13255,"Ġrecited":13256,"Ġrecounted":13257,"Ġstartling":13258,"Ġcommit":13259,"Ġfourpost":13260,"ĠSend":13261,"ĠSelf":13262,"Ġexpressed":13263,"Ġcoin":13264,"Ġcoach":13265,"Ġcoiled":13266,"Ġfootprints":13267,"Ġmemos":13268,"Ġinde":13269,"swer":13270,"ĠAlready":13271,"Ġmothers":13272,"Ġawa":13273,"Ġawe":13274,"Ġstraighten":13275,"Ġriff":13276,"Ġactual":13277,"cience":13278,"Ġhopelessness":13279,"Ġstays":13280,"Ġcloaked":13281,"Ġextracting":13282,"ĠKnarl":13283,"ĠRead":13284,"Ġbaggy":13285,"Ġceased":13286,"Ġserving":13287,"Ġrelative":13288,"Ġinserted":13289,"Ġinsulting":13290,"Ġflecks":13291,"Ġdesktop":13292,"Ġpatrolling":13293,"ĠSnow":13294,"Ġmistreat":13295,"Ġmistaking":13296,"Ġbury":13297,"Ġlayer":13298,"Ġspeaks":13299,"clothes":13300,"Ġmayhem":13301,"spons":13302,"ĠTonight":13303,"Ġbursts":13304,"Ġrepress":13305,"Ġdeathday":13306,"Ġplanet":13307,"Ġstaircases":13308,"Ġtriple":13309,"Ġchestnut":13310,"ountered":13311,"Ġstupidity":13312,"rence":13313,"Ġescalator":13314,"Ġapology":13315,"Ġbargain":13316,"Ġcutlery":13317,"ĠAges":13318,"Ġremembers":13319,"Ġrecognizable":13320,"Ġbatlike":13321,"Ġthrobbed":13322,"Ġconsumed":13323,"Ġconscience":13324,"Ġdiscour":13325,"Ġeagled":13326,"immer":13327,"Ġgrizzled":13328,"ĠPlenty":13329,"ĠLeague":13330,"Ġadmitting":13331,"Ġobjection":13332,"Ġhungrily":13333,"Ġthroats":13334,"Ġpositions":13335,"Ġferre":13336,"Ġfields":13337,"ĠSkele":13338,"Ġannouncement":13339,"ĠFris":13340,"Ġnicely":13341,"Ġchildish":13342,"Ġhugely":13343,"Ġbounding":13344,"Ġproperty":13345,"ORD":13346,"ORT":13347,"Ġsnowball":13348,"Ġlisteners":13349,"ARGH":13350,"Ġdestruction":13351,"Ġpanicking":13352,"Ġfainted":13353,"Ġmoonstone":13354,"Ġpossessor":13355,"Ġbreast":13356,"Ġbleed":13357,"Ġbleak":13358,"Ġspiraling":13359,"Ġhesitation":13360,"Ġeyeball":13361,"Ġreminds":13362,"Ġreminder":13363,"afe":13364,"ĠKeeping":13365,"Ġdoubtfully":13366,"Ġrocks":13367,"Ġencirc":13368,"Ġencountered":13369,"Ġseventy":13370,"Ġjeers":13371,"Ġearthy":13372,"Ġphoto":13373,"Ġphotographer":13374,"ribble":13375,"LED":13376,"LEN":13377,"LES":13378,"ĠBurbage":13379,"Ġdraft":13380,"Ġdraught":13381,"Ġsyc":13382,"ography":13383,"Ġcandy":13384,"Ġcandid":13385,"Ġembrace":13386,"Ġfools":13387,"Ġcroak":13388,"Ġdreaded":13389,"Ġparked":13390,"Ġbusinesslike":13391,"ĠSpellot":13392,"Ġsufficient":13393,"Ġinjust":13394,"Ġirritating":13395,"Ġundet":13396,"Ġclothing":13397,"Ġbanished":13398,"Ġcourte":13399,"Ġgraffit":13400,"ĠWorse":13401,"ĠSmall":13402,"Ġcolorless":13403,"Ġbitterness":13404,"ĠMeaning":13405,"REE":13406,"REAT":13407,"Ġfoam":13408,"Ġrevolved":13409,"Ġrevulsion":13410,"VEN":13411,"Ġwrapping":13412,"Nearly":13413,"Ġpersuading":13414,"Ġpoisoning":13415,"Ġgrandson":13416,"Ġsticks":13417,"OOL":13418,"Ġservices":13419,"Ġservants":13420,"Ġcasc":13421,"ĠBrut":13422,"Ġvaulted":13423,"Ġexchanging":13424,"Ġplainer":13425,"zzer":13426,"Ġexhilar":13427,"Ġlimply":13428,"ĠEnter":13429,"Ġdespised":13430,"aunting":13431,"ĠMurtlap":13432,"Ġunwilling":13433,"Ġwrench":13434,"Instead":13435,"ajor":13436,"Ġsloped":13437,"Ġslopping":13438,"Ġconstricted":13439,"Ġdistinctive":13440,"Ġthunderous":13441,"Ġshifty":13442,"Ġstorming":13443,"Ġdelivery":13444,"ĠOutside":13445,"ENTS":13446,"Ġscreeches":13447,"Ġchuckle":13448,"Ġtotally":13449,"Ġdisturbing":13450,"Ġerupt":13451,"Ġrisked":13452,"Ġscrawny":13453,"Ġambitious":13454,"Ġcaptioned":13455,"ĠFirstly":13456,"Ġincrease":13457,"Ġpredicting":13458,"Ġprisoner":13459,"Ġcousins":13460,"Ġbandy":13461,"ascots":13462,"Ġshapeless":13463,"Ġdelayed":13464,"Ġspeechless":13465,"Ġregretted":13466,"Ġdenied":13467,"Ġnonplussed":13468,"Ġrespectable":13469,"ĠDecoy":13470,"Ġpasswords":13471,"Ġsupporter":13472,"Ġdisappearances":13473,"Ġtransported":13474,"Ġpublicity":13475,"Ġinterviewed":13476,"Ġaccusations":13477,"Ġprickle":13478,"Ġsuccessful":13479,"Ġcarpeted":13480,"imental":13481,"Ġimpressively":13482,"Ġarguments":13483,"Ġbraver":13484,"Ġdisbelieving":13485,"Ġcompeting":13486,"Ġrevolting":13487,"ĠMaladies":13488,"ĠWarlock":13489,"Ġrippled":13490,"Ġencouraged":13491,"Ġpenetrated":13492,"Ġwoe":13493,"Ġwobbled":13494,"Ġlocate":13495,"Ġlocated":13496,"Ġsilkily":13497,"ĠfiI":13498,"Ġvacated":13499,"Ġobscure":13500,"Ġdefiant":13501,"Ġtroubling":13502,"Ġdazzled":13503,"Ġturrets":13504,"ĠOoooo":13505,"Ġbubot":13506,"ĠIgor":13507,"Ġetc":13508,"Ġorganization":13509,"Ġreprovingly":13510,"ĠSquibs":13511,"ĠCheering":13512,"Ġvibrate":13513,"Ġchimed":13514,"Ġdispir":13515,"Ġstalking":13516,"ĠBooks":13517,"Ġflattening":13518,"Ġpuncture":13519,"Ġtrodden":13520,"Ġtelescopes":13521,"Ġcontemptuously":13522,"Ġunmistakably":13523,"Ġfeverish":13524,"Ġswerve":13525,"ampires":13526,"Ġsarcasm":13527,"Ġharassed":13528,"Ġmorose":13529,"ombie":13530,"Ġdevelop":13531,"Ġrestraining":13532,"Ġrestraint":13533,"Ġrecovering":13534,"ĠATT":13535,"Ġunbal":13536,"Ġensured":13537,"Ġcommunication":13538,"ĠAnimagi":13539,"ĠHermy":13540,"ĠDeton":13541,"Ġreddening":13542,"Ġgovernment":13543,"Ġbruise":13544,"Ġskills":13545,"Ġinterfering":13546,"Ġinterfere":13547,"Ġinterference":13548,"Ġsprouting":13549,"Ġteacups":13550,"Ġroused":13551,"Ġmournfully":13552,"Ġyelping":13553,"Ġastr":13554,"Ġteenagers":13555,"Ġcombined":13556,"Ġdrunken":13557,"Ġfrequent":13558,"Ġapologies":13559,"Ġcustard":13560,"Ġcustomers":13561,"secretary":13562,"Ġunrecogn":13563,"Ġprocession":13564,"Ġexclaimed":13565,"Ġinvolve":13566,"ĠLevski":13567,"ĠLegilimens":13568,"THER":13569,"Ġmaterialized":13570,"Ġglistened":13571,"Ġinterrogated":13572,"Ġachievement":13573,"Ġinhabited":13574,"crack":13575,"few":13576,"Ġcubicles":13577,"anny":13578,"Ġreinst":13579,"ĠOtherwise":13580,"Ġclasp":13581,"Ġimperiously":13582,"Ġreappearance":13583,"Ġanticipated":13584,"Ġwhizzed":13585,"Ġhearthrug":13586,"Ġparalyzed":13587,"Ġhysterically":13588,"Ġbunches":13589,"Ġdumbstruck":13590,"Ġblundering":13591,"Ġreflecting":13592,"Ġnifflers":13593,"Ġonwards":13594,"Ġreliable":13595,"Ġvapour":13596,"ĠORDER":13597,"Ġunnerving":13598,"Ġblotch":13599,"Ġintensity":13600,"Ġintensified":13601,"Ġunnecessarily":13602,"Ġfavors":13603,"Ġimmobile":13604,"Ġdescribe":13605,"Ġcavernous":13606,"Ġprecautions":13607,"colored":13608,"ĠSupport":13609,"Ġgossip":13610,"Ġscandalized":13611,"Ġrelentless":13612,"Ġpermanently":13613,"Ġunconvincing":13614,"Scrimgeour":13615,"Ġramparts":13616,"ĠFamous":13617,"Ġjogged":13618,"ĠEleven":13619,"Ġproport":13620,"ĠArtifacts":13621,"Ġdiscovery":13622,"Ġhumiliation":13623,"ĠConfunded":13624,"Ġvolunteered":13625,"Ġassociated":13626,"ittany":13627,"Ġunscathed":13628,"Ġcanceled":13629,"Ġelaborate":13630,"Ġinternational":13631,"Ġimmortality":13632,"Ġtarnished":13633,"Ġthwarted":13634,"ĠSPEW":13635,"Ġimpersonating":13636,"Ġintelligence":13637,"Ġmirthless":13638,"ĠMistress":13639,"ĠDerrick":13640,"Ġalmighty":13641,"Ġscornfully":13642,"Ġplacidly":13643,"Ġdisdainful":13644,"Ġrailings":13645,"Ġribbon":13646,"Ġexaminer":13647,"Ġdevastated":13648,"Ġsubstitute":13649,"ĠDragons":13650,"Ġinexplicable":13651,"ĠEXPECTO":13652,"Ġacknowled":13653,"Ġslyly":13654,"ĠBrazil":13655,"Ġfronted":13656,"Ġruefully":13657,"ĠNasty":13658,"ulsively":13659,"Ġscrabbling":13660,"Ġpretense":13661,"Ġimpassive":13662,"Ġadvertis":13663,"Ġevaporated":13664,"Ġtawny":13665,"Ġwastepaper":13666,"Ġoutburst":13667,"Ġraucous":13668,"ĠLEAVE":13669,"Ġspattergroit":13670,"Ġunceremoniously":13671,"Ġschemes":13672,"uphoria":13673,"Ġbrusquely":13674,"Ġdiagram":13675,"ĠOrdinary":13676,"Ġlandscape":13677,"Ġphysical":13678,"ĠFlorean":13679,"McGonagall":13680,"Parvati":13681,"Ġhinkyp":13682,"erroff":13683,"Ġberserk":13684,"Ġdaggers":13685,"Ġmarmalade":13686,"Ġthrilled":13687,"Ġpimples":13688,"Ġgaggle":13689,"Ġeardrums":13690,"ĠSelwyn":13691,"ĠWisteria":13692,"ĠDilys":13693,"ĠDUDLEY":13694,"Ġoutskirts":13695,"ĠGwenog":13696,"ĠGurdyro":13697,"ĠCastle":13698,"ongratulations":13699,"ulciber":13700,"Ġungrateful":13701,"ĠVector":13702,"ĠKEEP":13703,"Ġglimpses":13704,"Ġprecariously":13705,"Ġdislodged":13706,"Ġbrambles":13707,"Ġcrisscross":13708,"ĠUnbreakable":13709,"Ġfourposter":13710,"AY":13711,"Again":13712,"BY":13713,"Bag":13714,"Back":13715,"Bye":13716,"BUS":13717,"Did":13718,"Dementors":13719,"Fl":13720,"Good":13721,"IRE":13722,"James":13723,"LI":13724,"LP":13725,"Like":13726,"Ludo":13727,"MP":13728,"Maybe":13729,"PUFF":13730,"See":13731,"Sec":13732,"Snow":13733,"Tw":13734,"Turn":13735,"UST":13736,"Wizard":13737,"aos":13738,"bout":13739,"backed":13740,"cies":13741,"centr":13742,"cover":13743,"cuts":13744,"ean":13745,"eches":13746,"gat":13747,"grow":13748,"handed":13749,"iating":13750,"jinx":13751,"kiss":13752,"kov":13753,"lmed":13754,"laze":13755,"lava":13756,"mout":13757,"mand":13758,"mering":13759,"mitted":13760,"mony":13761,"nants":13762,"pow":13763,"pal":13764,"pour":13765,"posed":13766,"pical":13767,"rated":13768,"raged":13769,"sb":13770,"spe":13771,"sions":13772,"specially":13773,"til":13774,"ucc":13775,"uishing":13776,"vag":13777,"vius":13778,"wined":13779,"winked":13780,"yr":13781,"zor":13782,"Ġ/":13783,"Ġiv":13784,"Ġtle":13785,"Ġtame":13786,"Ġtang":13787,"Ġtape":13788,"Ġtumbling":13789,"Ġtailed":13790,"Ġtinkle":13791,"Ġtaunted":13792,"inate":13793,"inals":13794,"inarily":13795,"Ġsum":13796,"Ġsurn":13797,"Ġsorcerer":13798,"Ġsomers":13799,"Ġwen":13800,"Ġwow":13801,"Ġwars":13802,"Ġwont":13803,"Ġwages":13804,"Ġwinner":13805,"Ġwob":13806,"Ġwinnings":13807,"oust":13808,"Ġhom":13809,"Ġhater":13810,"Ġhooking":13811,"aracter":13812,"Ġber":13813,"Ġbud":13814,"Ġbold":13815,"Ġbough":13816,"Ġbanks":13817,"Ġbumped":13818,"Ġboos":13819,"Ġfu":13820,"Ġfaking":13821,"Ġfrill":13822,"Ġfumbling":13823,"Ġfuming":13824,"Ġfiddling":13825,"Ġfooled":13826,"Ġoption":13827,"ĠHot":13828,"ĠHam":13829,"ĠHard":13830,"ĠHome":13831,"ĠHunt":13832,"ĠHOU":13833,"ĠHover":13834,"ĠHIS":13835,"ĠHUFF":13836,"aturn":13837,"ituary":13838,"Ġcher":13839,"Ġcod":13840,"Ġcity":13841,"orked":13842,"Ġhealing":13843,"Ġdent":13844,"Ġdies":13845,
[...]
